{
  "version": "1.0",
  "truncation": null,
  "padding": null,
  "added_tokens": [
    {
      "id": 0,
      "content": "[PAD]",
      "single_word": false,
      "lstrip": false,
      "rstrip": false,
      "normalized": false,
      "special": true
    },
    {
      "id": 1,
      "content": "[UNK]",
      "single_word": false,
      "lstrip": false,
      "rstrip": false,
      "normalized": false,
      "special": true
    },
    {
      "id": 2,
      "content": "[SOS]",
      "single_word": false,
      "lstrip": false,
      "rstrip": false,
      "normalized": false,
      "special": true
    },
    {
      "id": 3,
      "content": "[EOS]",
      "single_word": false,
      "lstrip": false,
      "rstrip": false,
      "normalized": false,
      "special": true
    }
  ],
  "normalizer": null,
  "pre_tokenizer": {
    "type": "Whitespace"
  },
  "post_processor": null,
  "decoder": null,
  "model": {
    "type": "BPE",
    "dropout": null,
    "unk_token": "[UNK]",
    "continuing_subword_prefix": null,
    "end_of_word_suffix": null,
    "fuse_unk": false,
    "byte_fallback": false,
    "ignore_merges": false,
    "vocab": {
      "[PAD]": 0,
      "[UNK]": 1,
      "[SOS]": 2,
      "[EOS]": 3,
      "!": 4,
      "%": 5,
      "'": 6,
      ",": 7,
      "-": 8,
      ".": 9,
      "0": 10,
      "1": 11,
      "2": 12,
      "3": 13,
      "4": 14,
      "5": 15,
      "6": 16,
      "7": 17,
      "8": 18,
      "9": 19,
      ";": 20,
      "?": 21,
      "A": 22,
      "B": 23,
      "C": 24,
      "D": 25,
      "L": 26,
      "N": 27,
      "O": 28,
      "P": 29,
      "S": 30,
      "X": 31,
      "_": 32,
      "a": 33,
      "c": 34,
      "g": 35,
      "j": 36,
      "k": 37,
      "n": 38,
      "o": 39,
      "s": 40,
      "~": 41,
      "…": 42,
      "ㅊ": 43,
      "ㅋ": 44,
      "ㅎ": 45,
      "ㅜ": 46,
      "ㅠ": 47,
      "가": 48,
      "각": 49,
      "간": 50,
      "갇": 51,
      "갈": 52,
      "감": 53,
      "갑": 54,
      "값": 55,
      "갔": 56,
      "강": 57,
      "갖": 58,
      "같": 59,
      "갚": 60,
      "개": 61,
      "객": 62,
      "갠": 63,
      "갯": 64,
      "갱": 65,
      "걍": 66,
      "걔": 67,
      "거": 68,
      "걱": 69,
      "건": 70,
      "걷": 71,
      "걸": 72,
      "검": 73,
      "겁": 74,
      "것": 75,
      "겉": 76,
      "게": 77,
      "겐": 78,
      "겜": 79,
      "겟": 80,
      "겠": 81,
      "겨": 82,
      "격": 83,
      "겪": 84,
      "견": 85,
      "결": 86,
      "겹": 87,
      "겼": 88,
      "경": 89,
      "곁": 90,
      "계": 91,
      "곗": 92,
      "고": 93,
      "곡": 94,
      "곤": 95,
      "곧": 96,
      "골": 97,
      "곰": 98,
      "곱": 99,
      "곳": 100,
      "공": 101,
      "과": 102,
      "관": 103,
      "광": 104,
      "괘": 105,
      "괜": 106,
      "괴": 107,
      "교": 108,
      "구": 109,
      "국": 110,
      "군": 111,
      "굳": 112,
      "굴": 113,
      "굶": 114,
      "굽": 115,
      "굿": 116,
      "궁": 117,
      "궈": 118,
      "권": 119,
      "궜": 120,
      "귀": 121,
      "귄": 122,
      "귈": 123,
      "귐": 124,
      "규": 125,
      "균": 126,
      "귤": 127,
      "그": 128,
      "극": 129,
      "근": 130,
      "글": 131,
      "긁": 132,
      "금": 133,
      "급": 134,
      "긋": 135,
      "긍": 136,
      "기": 137,
      "긴": 138,
      "길": 139,
      "김": 140,
      "깃": 141,
      "깅": 142,
      "깊": 143,
      "까": 144,
      "깍": 145,
      "깎": 146,
      "깐": 147,
      "깔": 148,
      "깜": 149,
      "깝": 150,
      "깠": 151,
      "깡": 152,
      "깨": 153,
      "깬": 154,
      "깰": 155,
      "깼": 156,
      "꺼": 157,
      "꺽": 158,
      "껀": 159,
      "껄": 160,
      "껏": 161,
      "께": 162,
      "껴": 163,
      "꼈": 164,
      "꼬": 165,
      "꼭": 166,
      "꼰": 167,
      "꼴": 168,
      "꼼": 169,
      "꼿": 170,
      "꽁": 171,
      "꽂": 172,
      "꽃": 173,
      "꽈": 174,
      "꽉": 175,
      "꽝": 176,
      "꽤": 177,
      "꾸": 178,
      "꾹": 179,
      "꾼": 180,
      "꿀": 181,
      "꿈": 182,
      "꿎": 183,
      "꿔": 184,
      "꿧": 185,
      "꿨": 186,
      "꿩": 187,
      "꿰": 188,
      "뀌": 189,
      "뀐": 190,
      "뀔": 191,
      "끄": 192,
      "끈": 193,
      "끊": 194,
      "끌": 195,
      "끓": 196,
      "끔": 197,
      "끗": 198,
      "끝": 199,
      "끼": 200,
      "낀": 201,
      "낄": 202,
      "낌": 203,
      "나": 204,
      "낙": 205,
      "낚": 206,
      "난": 207,
      "날": 208,
      "남": 209,
      "납": 210,
      "낫": 211,
      "났": 212,
      "낭": 213,
      "낮": 214,
      "낳": 215,
      "내": 216,
      "낸": 217,
      "낼": 218,
      "냄": 219,
      "냅": 220,
      "냈": 221,
      "냉": 222,
      "냐": 223,
      "냥": 224,
      "너": 225,
      "넋": 226,
      "넌": 227,
      "널": 228,
      "넓": 229,
      "넘": 230,
      "넛": 231,
      "넣": 232,
      "네": 233,
      "넥": 234,
      "넷": 235,
      "넹": 236,
      "녀": 237,
      "녁": 238,
      "년": 239,
      "념": 240,
      "녔": 241,
      "녕": 242,
      "노": 243,
      "녹": 244,
      "논": 245,
      "놀": 246,
      "놈": 247,
      "놉": 248,
      "농": 249,
      "높": 250,
      "놓": 251,
      "놔": 252,
      "놨": 253,
      "뇌": 254,
      "뇨": 255,
      "뇽": 256,
      "누": 257,
      "눅": 258,
      "눈": 259,
      "눌": 260,
      "눕": 261,
      "눠": 262,
      "눴": 263,
      "뉴": 264,
      "느": 265,
      "는": 266,
      "늘": 267,
      "늙": 268,
      "늠": 269,
      "능": 270,
      "늦": 271,
      "늪": 272,
      "니": 273,
      "닉": 274,
      "닌": 275,
      "닐": 276,
      "님": 277,
      "닙": 278,
      "닝": 279,
      "다": 280,
      "닥": 281,
      "닦": 282,
      "단": 283,
      "닫": 284,
      "달": 285,
      "닭": 286,
      "닮": 287,
      "닳": 288,
      "담": 289,
      "답": 290,
      "닷": 291,
      "당": 292,
      "닿": 293,
      "대": 294,
      "댄": 295,
      "댈": 296,
      "댓": 297,
      "댔": 298,
      "댜": 299,
      "더": 300,
      "덕": 301,
      "던": 302,
      "덜": 303,
      "덤": 304,
      "덥": 305,
      "덧": 306,
      "덩": 307,
      "덮": 308,
      "데": 309,
      "덴": 310,
      "델": 311,
      "뎌": 312,
      "뎠": 313,
      "도": 314,
      "독": 315,
      "돈": 316,
      "돋": 317,
      "돌": 318,
      "돕": 319,
      "동": 320,
      "돼": 321,
      "됐": 322,
      "되": 323,
      "된": 324,
      "될": 325,
      "됨": 326,
      "됩": 327,
      "됬": 328,
      "두": 329,
      "둑": 330,
      "둔": 331,
      "둘": 332,
      "둠": 333,
      "둥": 334,
      "둬": 335,
      "뒀": 336,
      "뒤": 337,
      "뒷": 338,
      "뒹": 339,
      "듀": 340,
      "드": 341,
      "득": 342,
      "든": 343,
      "듣": 344,
      "들": 345,
      "듦": 346,
      "듬": 347,
      "듭": 348,
      "듯": 349,
      "등": 350,
      "디": 351,
      "딘": 352,
      "딛": 353,
      "딜": 354,
      "딧": 355,
      "딨": 356,
      "딩": 357,
      "딪": 358,
      "따": 359,
      "딱": 360,
      "딴": 361,
      "딸": 362,
      "땀": 363,
      "땅": 364,
      "때": 365,
      "땐": 366,
      "땜": 367,
      "땠": 368,
      "땡": 369,
      "떄": 370,
      "떠": 371,
      "떡": 372,
      "떤": 373,
      "떨": 374,
      "떴": 375,
      "떻": 376,
      "떼": 377,
      "뗄": 378,
      "또": 379,
      "똑": 380,
      "똥": 381,
      "뚝": 382,
      "뚫": 383,
      "뚱": 384,
      "뛰": 385,
      "뛴": 386,
      "뜁": 387,
      "뜨": 388,
      "뜩": 389,
      "뜬": 390,
      "뜰": 391,
      "뜸": 392,
      "뜻": 393,
      "띄": 394,
      "띠": 395,
      "띰": 396,
      "띵": 397,
      "라": 398,
      "락": 399,
      "란": 400,
      "랄": 401,
      "람": 402,
      "랍": 403,
      "랐": 404,
      "랑": 405,
      "랖": 406,
      "래": 407,
      "랙": 408,
      "랜": 409,
      "랠": 410,
      "램": 411,
      "랩": 412,
      "랫": 413,
      "랬": 414,
      "랭": 415,
      "량": 416,
      "러": 417,
      "런": 418,
      "럴": 419,
      "럼": 420,
      "럽": 421,
      "럿": 422,
      "렀": 423,
      "렁": 424,
      "렇": 425,
      "레": 426,
      "렉": 427,
      "렌": 428,
      "렐": 429,
      "렘": 430,
      "렛": 431,
      "렜": 432,
      "려": 433,
      "력": 434,
      "련": 435,
      "렬": 436,
      "렴": 437,
      "렵": 438,
      "렷": 439,
      "렸": 440,
      "령": 441,
      "례": 442,
      "로": 443,
      "록": 444,
      "론": 445,
      "롤": 446,
      "롭": 447,
      "롯": 448,
      "롱": 449,
      "뢰": 450,
      "료": 451,
      "루": 452,
      "룩": 453,
      "룰": 454,
      "룸": 455,
      "룽": 456,
      "뤄": 457,
      "류": 458,
      "륜": 459,
      "률": 460,
      "르": 461,
      "륵": 462,
      "른": 463,
      "를": 464,
      "름": 465,
      "릅": 466,
      "릇": 467,
      "릎": 468,
      "리": 469,
      "릭": 470,
      "린": 471,
      "릴": 472,
      "림": 473,
      "립": 474,
      "릿": 475,
      "링": 476,
      "마": 477,
      "막": 478,
      "만": 479,
      "많": 480,
      "말": 481,
      "맘": 482,
      "맙": 483,
      "맛": 484,
      "망": 485,
      "맞": 486,
      "맡": 487,
      "매": 488,
      "맥": 489,
      "맨": 490,
      "맴": 491,
      "맷": 492,
      "맹": 493,
      "맺": 494,
      "머": 495,
      "먹": 496,
      "먼": 497,
      "멀": 498,
      "멈": 499,
      "멋": 500,
      "멍": 501,
      "메": 502,
      "멘": 503,
      "멤": 504,
      "며": 505,
      "면": 506,
      "명": 507,
      "몇": 508,
      "모": 509,
      "목": 510,
      "몫": 511,
      "몬": 512,
      "몰": 513,
      "몸": 514,
      "몹": 515,
      "못": 516,
      "몽": 517,
      "묘": 518,
      "무": 519,
      "묵": 520,
      "문": 521,
      "묻": 522,
      "물": 523,
      "뭇": 524,
      "뭉": 525,
      "뭐": 526,
      "뭔": 527,
      "뭘": 528,
      "뭣": 529,
      "뮤": 530,
      "미": 531,
      "민": 532,
      "믿": 533,
      "밀": 534,
      "밉": 535,
      "밌": 536,
      "밍": 537,
      "밑": 538,
      "바": 539,
      "박": 540,
      "밖": 541,
      "반": 542,
      "받": 543,
      "발": 544,
      "밝": 545,
      "밟": 546,
      "밤": 547,
      "밥": 548,
      "방": 549,
      "밭": 550,
      "배": 551,
      "백": 552,
      "밸": 553,
      "뱃": 554,
      "뱄": 555,
      "뱉": 556,
      "버": 557,
      "벅": 558,
      "번": 559,
      "벋": 560,
      "벌": 561,
      "범": 562,
      "법": 563,
      "벗": 564,
      "벚": 565,
      "베": 566,
      "벤": 567,
      "벨": 568,
      "벴": 569,
      "벼": 570,
      "벽": 571,
      "변": 572,
      "별": 573,
      "볍": 574,
      "병": 575,
      "볕": 576,
      "보": 577,
      "복": 578,
      "볶": 579,
      "본": 580,
      "볼": 581,
      "봄": 582,
      "봅": 583,
      "봇": 584,
      "봉": 585,
      "봐": 586,
      "봤": 587,
      "뵈": 588,
      "부": 589,
      "북": 590,
      "분": 591,
      "불": 592,
      "붓": 593,
      "붕": 594,
      "붙": 595,
      "뷔": 596,
      "브": 597,
      "블": 598,
      "비": 599,
      "빈": 600,
      "빌": 601,
      "빔": 602,
      "빗": 603,
      "빙": 604,
      "빚": 605,
      "빛": 606,
      "빠": 607,
      "빡": 608,
      "빨": 609,
      "빴": 610,
      "빵": 611,
      "빼": 612,
      "빽": 613,
      "뺄": 614,
      "뺏": 615,
      "뺴": 616,
      "뻐": 617,
      "뻑": 618,
      "뻔": 619,
      "뻘": 620,
      "뻣": 621,
      "뻤": 622,
      "뻥": 623,
      "뽀": 624,
      "뽑": 625,
      "뽕": 626,
      "뿅": 627,
      "뿌": 628,
      "뿍": 629,
      "뿐": 630,
      "쁘": 631,
      "쁜": 632,
      "쁠": 633,
      "쁨": 634,
      "삐": 635,
      "삔": 636,
      "사": 637,
      "삭": 638,
      "산": 639,
      "살": 640,
      "삶": 641,
      "삼": 642,
      "삽": 643,
      "삿": 644,
      "샀": 645,
      "상": 646,
      "새": 647,
      "색": 648,
      "샌": 649,
      "샐": 650,
      "샘": 651,
      "샜": 652,
      "생": 653,
      "샤": 654,
      "서": 655,
      "석": 656,
      "섞": 657,
      "선": 658,
      "섣": 659,
      "설": 660,
      "섬": 661,
      "섭": 662,
      "섯": 663,
      "섰": 664,
      "성": 665,
      "세": 666,
      "섹": 667,
      "센": 668,
      "셀": 669,
      "셔": 670,
      "션": 671,
      "셥": 672,
      "셨": 673,
      "소": 674,
      "속": 675,
      "손": 676,
      "솔": 677,
      "솜": 678,
      "송": 679,
      "쇠": 680,
      "쇼": 681,
      "숍": 682,
      "숏": 683,
      "수": 684,
      "숙": 685,
      "순": 686,
      "술": 687,
      "숨": 688,
      "숫": 689,
      "숭": 690,
      "쉬": 691,
      "쉴": 692,
      "쉼": 693,
      "쉽": 694,
      "슈": 695,
      "스": 696,
      "슨": 697,
      "슬": 698,
      "슴": 699,
      "습": 700,
      "슷": 701,
      "승": 702,
      "시": 703,
      "식": 704,
      "신": 705,
      "실": 706,
      "싫": 707,
      "심": 708,
      "십": 709,
      "싱": 710,
      "싶": 711,
      "싸": 712,
      "싹": 713,
      "싼": 714,
      "쌀": 715,
      "쌈": 716,
      "쌍": 717,
      "쌓": 718,
      "쌤": 719,
      "쌩": 720,
      "써": 721,
      "썩": 722,
      "썰": 723,
      "썸": 724,
      "썹": 725,
      "썼": 726,
      "쎄": 727,
      "쎈": 728,
      "쎌": 729,
      "쏘": 730,
      "쏜": 731,
      "쏟": 732,
      "쏠": 733,
      "쐬": 734,
      "쑤": 735,
      "쑥": 736,
      "쓰": 737,
      "쓴": 738,
      "쓸": 739,
      "씀": 740,
      "씁": 741,
      "씌": 742,
      "씨": 743,
      "씩": 744,
      "씬": 745,
      "씰": 746,
      "씸": 747,
      "씹": 748,
      "씻": 749,
      "씽": 750,
      "아": 751,
      "악": 752,
      "안": 753,
      "앉": 754,
      "않": 755,
      "알": 756,
      "압": 757,
      "앗": 758,
      "았": 759,
      "앙": 760,
      "앞": 761,
      "애": 762,
      "액": 763,
      "앨": 764,
      "앱": 765,
      "야": 766,
      "약": 767,
      "얄": 768,
      "얇": 769,
      "양": 770,
      "얘": 771,
      "어": 772,
      "억": 773,
      "언": 774,
      "얻": 775,
      "얼": 776,
      "얽": 777,
      "엄": 778,
      "업": 779,
      "없": 780,
      "엇": 781,
      "었": 782,
      "엉": 783,
      "엊": 784,
      "에": 785,
      "엔": 786,
      "엘": 787,
      "엠": 788,
      "엣": 789,
      "여": 790,
      "역": 791,
      "엮": 792,
      "연": 793,
      "열": 794,
      "염": 795,
      "엽": 796,
      "엿": 797,
      "였": 798,
      "영": 799,
      "옆": 800,
      "옇": 801,
      "예": 802,
      "옛": 803,
      "오": 804,
      "옥": 805,
      "온": 806,
      "올": 807,
      "옮": 808,
      "옳": 809,
      "옴": 810,
      "옵": 811,
      "옷": 812,
      "와": 813,
      "완": 814,
      "왓": 815,
      "왔": 816,
      "왕": 817,
      "왜": 818,
      "왠": 819,
      "왤": 820,
      "외": 821,
      "왼": 822,
      "욌": 823,
      "요": 824,
      "욕": 825,
      "욜": 826,
      "용": 827,
      "우": 828,
      "욱": 829,
      "운": 830,
      "울": 831,
      "움": 832,
      "웁": 833,
      "웃": 834,
      "워": 835,
      "원": 836,
      "월": 837,
      "웠": 838,
      "웨": 839,
      "웬": 840,
      "웹": 841,
      "웽": 842,
      "위": 843,
      "윗": 844,
      "윙": 845,
      "유": 846,
      "육": 847,
      "윤": 848,
      "율": 849,
      "으": 850,
      "은": 851,
      "을": 852,
      "음": 853,
      "응": 854,
      "의": 855,
      "이": 856,
      "익": 857,
      "인": 858,
      "일": 859,
      "읽": 860,
      "잃": 861,
      "임": 862,
      "입": 863,
      "잇": 864,
      "있": 865,
      "잊": 866,
      "잌": 867,
      "자": 868,
      "작": 869,
      "잔": 870,
      "잖": 871,
      "잘": 872,
      "잠": 873,
      "잡": 874,
      "잤": 875,
      "장": 876,
      "잦": 877,
      "재": 878,
      "잼": 879,
      "잿": 880,
      "쟁": 881,
      "저": 882,
      "적": 883,
      "전": 884,
      "절": 885,
      "젊": 886,
      "점": 887,
      "접": 888,
      "젔": 889,
      "정": 890,
      "젖": 891,
      "제": 892,
      "젝": 893,
      "젠": 894,
      "젤": 895,
      "젯": 896,
      "져": 897,
      "젹": 898,
      "졋": 899,
      "졌": 900,
      "조": 901,
      "족": 902,
      "존": 903,
      "졸": 904,
      "좀": 905,
      "좁": 906,
      "종": 907,
      "좋": 908,
      "좌": 909,
      "죄": 910,
      "죠": 911,
      "주": 912,
      "죽": 913,
      "준": 914,
      "줄": 915,
      "줌": 916,
      "줍": 917,
      "중": 918,
      "줘": 919,
      "줬": 920,
      "쥐": 921,
      "쥬": 922,
      "즈": 923,
      "즉": 924,
      "즐": 925,
      "즘": 926,
      "즙": 927,
      "증": 928,
      "지": 929,
      "직": 930,
      "진": 931,
      "질": 932,
      "짐": 933,
      "집": 934,
      "짓": 935,
      "징": 936,
      "짚": 937,
      "짜": 938,
      "짝": 939,
      "짠": 940,
      "짤": 941,
      "짧": 942,
      "짬": 943,
      "짰": 944,
      "짱": 945,
      "째": 946,
      "짼": 947,
      "쨌": 948,
      "쩌": 949,
      "쩍": 950,
      "쩐": 951,
      "쩔": 952,
      "쩝": 953,
      "쩡": 954,
      "쪄": 955,
      "쪘": 956,
      "쪼": 957,
      "쪽": 958,
      "쫄": 959,
      "쫌": 960,
      "쫙": 961,
      "쭈": 962,
      "쭉": 963,
      "쭤": 964,
      "쯤": 965,
      "찌": 966,
      "찍": 967,
      "찐": 968,
      "찔": 969,
      "찜": 970,
      "찝": 971,
      "찡": 972,
      "찢": 973,
      "차": 974,
      "착": 975,
      "찬": 976,
      "찮": 977,
      "찰": 978,
      "참": 979,
      "찹": 980,
      "찼": 981,
      "창": 982,
      "찾": 983,
      "채": 984,
      "책": 985,
      "챔": 986,
      "챗": 987,
      "챘": 988,
      "챙": 989,
      "처": 990,
      "척": 991,
      "천": 992,
      "철": 993,
      "첨": 994,
      "첩": 995,
      "첫": 996,
      "청": 997,
      "체": 998,
      "쳇": 999,
      "쳐": 1000,
      "쳤": 1001,
      "초": 1002,
      "촉": 1003,
      "촌": 1004,
      "총": 1005,
      "촬": 1006,
      "최": 1007,
      "추": 1008,
      "축": 1009,
      "춘": 1010,
      "출": 1011,
      "춤": 1012,
      "춥": 1013,
      "충": 1014,
      "춰": 1015,
      "췄": 1016,
      "취": 1017,
      "츄": 1018,
      "츠": 1019,
      "측": 1020,
      "츤": 1021,
      "층": 1022,
      "치": 1023,
      "칙": 1024,
      "친": 1025,
      "칠": 1026,
      "침": 1027,
      "칩": 1028,
      "칫": 1029,
      "칭": 1030,
      "카": 1031,
      "칼": 1032,
      "캄": 1033,
      "캐": 1034,
      "캔": 1035,
      "캬": 1036,
      "커": 1037,
      "컥": 1038,
      "컨": 1039,
      "컴": 1040,
      "컷": 1041,
      "컸": 1042,
      "컹": 1043,
      "케": 1044,
      "켓": 1045,
      "켜": 1046,
      "켠": 1047,
      "켰": 1048,
      "코": 1049,
      "콕": 1050,
      "콘": 1051,
      "콜": 1052,
      "콤": 1053,
      "콧": 1054,
      "콩": 1055,
      "쾌": 1056,
      "쿠": 1057,
      "쿨": 1058,
      "쿵": 1059,
      "쿼": 1060,
      "퀴": 1061,
      "큐": 1062,
      "크": 1063,
      "큰": 1064,
      "클": 1065,
      "큼": 1066,
      "킁": 1067,
      "키": 1068,
      "킥": 1069,
      "킨": 1070,
      "킬": 1071,
      "킴": 1072,
      "킹": 1073,
      "타": 1074,
      "탁": 1075,
      "탄": 1076,
      "탈": 1077,
      "탐": 1078,
      "탑": 1079,
      "탓": 1080,
      "탔": 1081,
      "탕": 1082,
      "태": 1083,
      "택": 1084,
      "탱": 1085,
      "터": 1086,
      "턱": 1087,
      "턴": 1088,
      "털": 1089,
      "텀": 1090,
      "텁": 1091,
      "텄": 1092,
      "텅": 1093,
      "테": 1094,
      "텍": 1095,
      "텐": 1096,
      "텔": 1097,
      "템": 1098,
      "텨": 1099,
      "텻": 1100,
      "텼": 1101,
      "토": 1102,
      "톡": 1103,
      "톤": 1104,
      "톱": 1105,
      "통": 1106,
      "퇴": 1107,
      "투": 1108,
      "툭": 1109,
      "툰": 1110,
      "툴": 1111,
      "툼": 1112,
      "퉁": 1113,
      "퉜": 1114,
      "튀": 1115,
      "튜": 1116,
      "트": 1117,
      "특": 1118,
      "틀": 1119,
      "틈": 1120,
      "틋": 1121,
      "티": 1122,
      "틱": 1123,
      "팀": 1124,
      "팁": 1125,
      "팅": 1126,
      "파": 1127,
      "팍": 1128,
      "판": 1129,
      "팔": 1130,
      "팠": 1131,
      "패": 1132,
      "팩": 1133,
      "팬": 1134,
      "팸": 1135,
      "퍼": 1136,
      "펑": 1137,
      "페": 1138,
      "펜": 1139,
      "펨": 1140,
      "펭": 1141,
      "펴": 1142,
      "편": 1143,
      "펼": 1144,
      "평": 1145,
      "폐": 1146,
      "포": 1147,
      "폭": 1148,
      "폰": 1149,
      "폼": 1150,
      "퐈": 1151,
      "표": 1152,
      "푸": 1153,
      "푹": 1154,
      "푼": 1155,
      "풀": 1156,
      "품": 1157,
      "풋": 1158,
      "풍": 1159,
      "퓨": 1160,
      "프": 1161,
      "픈": 1162,
      "플": 1163,
      "픔": 1164,
      "픕": 1165,
      "피": 1166,
      "픽": 1167,
      "핀": 1168,
      "필": 1169,
      "핍": 1170,
      "핏": 1171,
      "핑": 1172,
      "하": 1173,
      "학": 1174,
      "한": 1175,
      "할": 1176,
      "함": 1177,
      "합": 1178,
      "핫": 1179,
      "항": 1180,
      "해": 1181,
      "핸": 1182,
      "햇": 1183,
      "했": 1184,
      "행": 1185,
      "햐": 1186,
      "향": 1187,
      "허": 1188,
      "헉": 1189,
      "헌": 1190,
      "헐": 1191,
      "험": 1192,
      "헛": 1193,
      "헤": 1194,
      "헥": 1195,
      "헬": 1196,
      "헷": 1197,
      "헹": 1198,
      "혀": 1199,
      "현": 1200,
      "혈": 1201,
      "혐": 1202,
      "협": 1203,
      "혔": 1204,
      "형": 1205,
      "혜": 1206,
      "호": 1207,
      "혹": 1208,
      "혼": 1209,
      "홀": 1210,
      "홈": 1211,
      "화": 1212,
      "확": 1213,
      "환": 1214,
      "활": 1215,
      "홧": 1216,
      "황": 1217,
      "회": 1218,
      "획": 1219,
      "효": 1220,
      "후": 1221,
      "훅": 1222,
      "훈": 1223,
      "훌": 1224,
      "훔": 1225,
      "훨": 1226,
      "휘": 1227,
      "휙": 1228,
      "휨": 1229,
      "휴": 1230,
      "흐": 1231,
      "흑": 1232,
      "흔": 1233,
      "흘": 1234,
      "흠": 1235,
      "흡": 1236,
      "흥": 1237,
      "희": 1238,
      "흰": 1239,
      "히": 1240,
      "힌": 1241,
      "힐": 1242,
      "힘": 1243,
      "힙": 1244,
      "세요": 1245,
      "하는": 1246,
      "보세요": 1247,
      "사람": 1248,
      "예요": 1249,
      "거예요": 1250,
      "좋아": 1251,
      "어요": 1252,
      "사랑": 1253,
      "네요": 1254,
      "니다": 1255,
      "생각": 1256,
      "친구": 1257,
      "해보세요": 1258,
      "봐요": 1259,
      "는데": 1260,
      "하고": 1261,
      "마음": 1262,
      "같아": 1263,
      "너무": 1264,
      "좋아하는": 1265,
      "이별": 1266,
      "연락": 1267,
      "하지": 1268,
      "헤어": 1269,
      "있을": 1270,
      "여자": 1271,
      "남자": 1272,
      "으면": 1273,
      "힘들": 1274,
      "시간": 1275,
      "해요": 1276,
      "좋은": 1277,
      "나봐요": 1278,
      "많이": 1279,
      "사람이": 1280,
      "하면": 1281,
      "하세요": 1282,
      "에요": 1283,
      "싶어": 1284,
      "으로": 1285,
      "한테": 1286,
      "에서": 1287,
      "같아요": 1288,
      "있어요": 1289,
      "까요": 1290,
      "주세요": 1291,
      "겠어요": 1292,
      "아요": 1293,
      "친구가": 1294,
      "있는": 1295,
      "만나": 1296,
      "오늘": 1297,
      "마세요": 1298,
      "하게": 1299,
      "해야": 1300,
      "이에요": 1301,
      "겠네요": 1302,
      "자신": 1303,
      "해도": 1304,
      "이제": 1305,
      "에게": 1306,
      "겠지": 1307,
      "좋을": 1308,
      "습니다": 1309,
      "괜찮": 1310,
      "아니": 1311,
      "연애": 1312,
      "이야": 1313,
      "라고": 1314,
      "할까": 1315,
      "마음이": 1316,
      "싶다": 1317,
      "게요": 1318,
      "내가": 1319,
      "필요": 1320,
      "는게": 1321,
      "모르": 1322,
      "다른": 1323,
      "가봐요": 1324,
      "어떻": 1325,
      "다면": 1326,
      "시간이": 1327,
      "없어": 1328,
      "어떻게": 1329,
      "들어": 1330,
      "것도": 1331,
      "짝남": 1332,
      "헤어진": 1333,
      "있어": 1334,
      "보고": 1335,
      "혼자": 1336,
      "당신": 1337,
      "겠어": 1338,
      "겠죠": 1339,
      "다고": 1340,
      "다시": 1341,
      "일이": 1342,
      "수도": 1343,
      "들이": 1344,
      "정리": 1345,
      "인데": 1346,
      "정말": 1347,
      "지금": 1348,
      "결혼": 1349,
      "하나": 1350,
      "기다": 1351,
      "같이": 1352,
      "같은": 1353,
      "그런": 1354,
      "중요": 1355,
      "제가": 1356,
      "행복": 1357,
      "조금": 1358,
      "다가": 1359,
      "준비": 1360,
      "렇게": 1361,
      "보다": 1362,
      "고민": 1363,
      "아직": 1364,
      "해서": 1365,
      "사랑이": 1366,
      "라요": 1367,
      "보는": 1368,
      "선물": 1369,
      "없는": 1370,
      "지도": 1371,
      "해주세요": 1372,
      "없어요": 1373,
      "자꾸": 1374,
      "찾아": 1375,
      "힘든": 1376,
      "돼요": 1377,
      "방법": 1378,
      "아무": 1379,
      "합니다": 1380,
      "물어": 1381,
      "저도": 1382,
      "고백": 1383,
      "까지": 1384,
      "볼까": 1385,
      "이라": 1386,
      "지만": 1387,
      "이야기": 1388,
      "짝녀": 1389,
      "했어": 1390,
      "그럴": 1391,
      "니까요": 1392,
      "바랄": 1393,
      "싶은": 1394,
      "이네요": 1395,
      "짝사랑": 1396,
      "가는": 1397,
      "대로": 1398,
      "진짜": 1399,
      "하기": 1400,
      "겠다": 1401,
      "서로": 1402,
      "후회": 1403,
      "먼저": 1404,
      "받아": 1405,
      "바랄게요": 1406,
      "사귀": 1407,
      "봅니다": 1408,
      "될까": 1409,
      "먹고": 1410,
      "시작": 1411,
      "헤어지": 1412,
      "있을까": 1413,
      "이죠": 1414,
      "드세요": 1415,
      "을까": 1416,
      "헤어진지": 1417,
      "하죠": 1418,
      "인가": 1419,
      "그녀": 1420,
      "야지": 1421,
      "에는": 1422,
      "계속": 1423,
      "아닌": 1424,
      "자고": 1425,
      "좋아요": 1426,
      "가능": 1427,
      "감정": 1428,
      "나를": 1429,
      "만큼": 1430,
      "많은": 1431,
      "여행": 1432,
      "하는게": 1433,
      "공부": 1434,
      "하루": 1435,
      "마음을": 1436,
      "여자친구가": 1437,
      "이트": 1438,
      "지는": 1439,
      "거라": 1440,
      "기분": 1441,
      "여자친구": 1442,
      "힘드": 1443,
      "하는데": 1444,
      "려고": 1445,
      "여친": 1446,
      "이상": 1447,
      "남자친구가": 1448,
      "랍니다": 1449,
      "가고": 1450,
      "신경": 1451,
      "않아요": 1452,
      "기가": 1453,
      "좋죠": 1454,
      "다는": 1455,
      "리는": 1456,
      "했는데": 1457,
      "니까": 1458,
      "걱정": 1459,
      "싫어": 1460,
      "그래": 1461,
      "나는": 1462,
      "바랍니다": 1463,
      "알아": 1464,
      "관심": 1465,
      "입니다": 1466,
      "해주": 1467,
      "데이트": 1468,
      "상대": 1469,
      "면서": 1470,
      "남자친구": 1471,
      "힘들어": 1472,
      "기억": 1473,
      "나요": 1474,
      "남친": 1475,
      "머리": 1476,
      "되는": 1477,
      "하네": 1478,
      "화를": 1479,
      "말해보세요": 1480,
      "상처": 1481,
      "적인": 1482,
      "생각해요": 1483,
      "사람은": 1484,
      "로운": 1485,
      "무슨": 1486,
      "스러": 1487,
      "이랑": 1488,
      "있었": 1489,
      "자기": 1490,
      "타는": 1491,
      "했던": 1492,
      "어떨": 1493,
      "이렇게": 1494,
      "인지": 1495,
      "좋겠어요": 1496,
      "충분": 1497,
      "걸까": 1498,
      "어떤": 1499,
      "언제": 1500,
      "표현": 1501,
      "말고": 1502,
      "오래": 1503,
      "있으면": 1504,
      "카톡": 1505,
      "하다": 1506,
      "그냥": 1507,
      "텐데": 1508,
      "함께": 1509,
      "부터": 1510,
      "않는": 1511,
      "헤어졌": 1512,
      "나만": 1513,
      "돌아": 1514,
      "않을": 1515,
      "어보세요": 1516,
      "이었": 1517,
      "힘드네": 1518,
      "누구": 1519,
      "몰라요": 1520,
      "사랑은": 1521,
      "왔어": 1522,
      "이해": 1523,
      "라도": 1524,
      "보내": 1525,
      "생겼": 1526,
      "있는데": 1527,
      "사람을": 1528,
      "사랑하는": 1529,
      "자신을": 1530,
      "겠지만": 1531,
      "결정": 1532,
      "스트": 1533,
      "이유": 1534,
      "궁금": 1535,
      "따라": 1536,
      "리고": 1537,
      "많아": 1538,
      "보면": 1539,
      "썸남": 1540,
      "운동": 1541,
      "내일": 1542,
      "새로운": 1543,
      "어디": 1544,
      "가요": 1545,
      "가지": 1546,
      "선택": 1547,
      "아프": 1548,
      "애가": 1549,
      "한달": 1550,
      "어떨까요": 1551,
      "부담": 1552,
      "생각해보세요": 1553,
      "스트레": 1554,
      "미련": 1555,
      "안돼": 1556,
      "노력": 1557,
      "지나": 1558,
      "해볼까": 1559,
      "기도": 1560,
      "나한테": 1561,
      "었어": 1562,
      "처럼": 1563,
      "회사": 1564,
      "때문": 1565,
      "전화": 1566,
      "생각이": 1567,
      "개월": 1568,
      "직접": 1569,
      "아니에요": 1570,
      "가보세요": 1571,
      "거나": 1572,
      "않아": 1573,
      "어도": 1574,
      "오세요": 1575,
      "조심": 1576,
      "그러": 1577,
      "았는데": 1578,
      "인연": 1579,
      "좋겠네요": 1580,
      "하네요": 1581,
      "연락이": 1582,
      "같은데": 1583,
      "노래": 1584,
      "않았": 1585,
      "어떡": 1586,
      "없이": 1587,
      "생각을": 1588,
      "만날": 1589,
      "아파": 1590,
      "움이": 1591,
      "이젠": 1592,
      "재미": 1593,
      "군요": 1594,
      "그게": 1595,
      "소개": 1596,
      "쉽지": 1597,
      "어려": 1598,
      "으세요": 1599,
      "인생": 1600,
      "잘못": 1601,
      "항상": 1602,
      "이별을": 1603,
      "괜찮아": 1604,
      "신경쓰": 1605,
      "스트레스": 1606,
      "가세요": 1607,
      "그렇게": 1608,
      "동안": 1609,
      "저는": 1610,
      "해지": 1611,
      "마음에": 1612,
      "짝남이": 1613,
      "그만": 1614,
      "달라": 1615,
      "이나": 1616,
      "적으로": 1617,
      "좋겠다": 1618,
      "모르겠어": 1619,
      "싶은데": 1620,
      "느낌": 1621,
      "말을": 1622,
      "바라요": 1623,
      "인가봐요": 1624,
      "처음": 1625,
      "기를": 1626,
      "때가": 1627,
      "상황": 1628,
      "어때": 1629,
      "해줘": 1630,
      "사랑을": 1631,
      "나봅니다": 1632,
      "려보세요": 1633,
      "리세요": 1634,
      "사이": 1635,
      "우리": 1636,
      "위로": 1637,
      "있죠": 1638,
      "축하": 1639,
      "나이": 1640,
      "만났": 1641,
      "만들": 1642,
      "졌어": 1643,
      "해봐요": 1644,
      "중요한": 1645,
      "찾아보세요": 1646,
      "답답": 1647,
      "되었": 1648,
      "만에": 1649,
      "맞는": 1650,
      "스럽": 1651,
      "습관": 1652,
      "추억": 1653,
      "했나봐요": 1654,
      "확실": 1655,
      "이별은": 1656,
      "하면서": 1657,
      "결국": 1658,
      "나봐": 1659,
      "이어": 1660,
      "챙겨": 1661,
      "화가": 1662,
      "화장": 1663,
      "관계": 1664,
      "기대": 1665,
      "다음": 1666,
      "매일": 1667,
      "보여": 1668,
      "않은": 1669,
      "잊어": 1670,
      "현실": 1671,
      "생각나": 1672,
      "괜찮아요": 1673,
      "감이": 1674,
      "거리": 1675,
      "내세요": 1676,
      "달라고": 1677,
      "말씀": 1678,
      "세상": 1679,
      "요즘": 1680,
      "있게": 1681,
      "정신": 1682,
      "좋겠어": 1683,
      "중에": 1684,
      "집에": 1685,
      "편이": 1686,
      "충분히": 1687,
      "건가": 1688,
      "건강": 1689,
      "그렇": 1690,
      "대한": 1691,
      "대화를": 1692,
      "도움이": 1693,
      "받고": 1694,
      "수록": 1695,
      "순간": 1696,
      "의미": 1697,
      "사랑한": 1698,
      "좋을까": 1699,
      "가져": 1700,
      "마지": 1701,
      "만남": 1702,
      "먹어": 1703,
      "소리": 1704,
      "심히": 1705,
      "열심히": 1706,
      "있나봐요": 1707,
      "아직도": 1708,
      "물어보세요": 1709,
      "때문에": 1710,
      "마지막": 1711,
      "1년": 1712,
      "건지": 1713,
      "나쁜": 1714,
      "았어": 1715,
      "언젠": 1716,
      "주는": 1717,
      "지요": 1718,
      "추천": 1719,
      "확인": 1720,
      "마음의": 1721,
      "연락을": 1722,
      "가슴": 1723,
      "거야": 1724,
      "나서": 1725,
      "다니": 1726,
      "만들어": 1727,
      "말아요": 1728,
      "부모": 1729,
      "살고": 1730,
      "아침": 1731,
      "얼른": 1732,
      "마시": 1733,
      "말이": 1734,
      "안되": 1735,
      "영화": 1736,
      "일까": 1737,
      "일어": 1738,
      "사랑의": 1739,
      "연락해보세요": 1740,
      "헤어짐": 1741,
      "시간을": 1742,
      "오늘도": 1743,
      "상대방": 1744,
      "같애": 1745,
      "보이": 1746,
      "워요": 1747,
      "으니까요": 1748,
      "이런": 1749,
      "지내": 1750,
      "한번": 1751,
      "한가봐요": 1752,
      "생각해": 1753,
      "짝녀가": 1754,
      "가장": 1755,
      "귀찮": 1756,
      "그리": 1757,
      "다르": 1758,
      "드릴": 1759,
      "마다": 1760,
      "안해": 1761,
      "어느": 1762,
      "어제": 1763,
      "완전": 1764,
      "재회": 1765,
      "정도": 1766,
      "제일": 1767,
      "커피": 1768,
      "사람들": 1769,
      "당신의": 1770,
      "조금만": 1771,
      "이라도": 1772,
      "조심하세요": 1773,
      "부모님": 1774,
      "떨어": 1775,
      "라면": 1776,
      "못하": 1777,
      "바람": 1778,
      "사는": 1779,
      "아닐": 1780,
      "적이": 1781,
      "한지": 1782,
      "핸드": 1783,
      "조금씩": 1784,
      "헤어지고": 1785,
      "감을": 1786,
      "나가": 1787,
      "사진": 1788,
      "알려": 1789,
      "얼마": 1790,
      "없네": 1791,
      "지지": 1792,
      "진심": 1793,
      "남자가": 1794,
      "더니": 1795,
      "많았": 1796,
      "모든": 1797,
      "살아": 1798,
      "성공": 1799,
      "쉬운": 1800,
      "스타": 1801,
      "잊혀": 1802,
      "자연": 1803,
      "잘할": 1804,
      "사람이랑": 1805,
      "기다리": 1806,
      "그래도": 1807,
      "핸드폰": 1808,
      "갑자기": 1809,
      "거죠": 1810,
      "고생": 1811,
      "모습": 1812,
      "스로": 1813,
      "알았는데": 1814,
      "엄마": 1815,
      "없을": 1816,
      "연습": 1817,
      "인정": 1818,
      "하시": 1819,
      "하겠어요": 1820,
      "이별이": 1821,
      "만나고": 1822,
      "자신의": 1823,
      "중요해요": 1824,
      "스러운": 1825,
      "되어": 1826,
      "모두": 1827,
      "문제": 1828,
      "생활": 1829,
      "시켜": 1830,
      "싶어요": 1831,
      "엄청": 1832,
      "예의": 1833,
      "오는": 1834,
      "폭풍": 1835,
      "확신": 1836,
      "사람들이": 1837,
      "여자가": 1838,
      "모르는": 1839,
      "드릴게요": 1840,
      "가끔": 1841,
      "나도": 1842,
      "나와": 1843,
      "날씨": 1844,
      "내려": 1845,
      "복잡": 1846,
      "스스로": 1847,
      "얼굴": 1848,
      "예뻐": 1849,
      "재밌": 1850,
      "했으면": 1851,
      "좋아할": 1852,
      "해야지": 1853,
      "필요한": 1854,
      "짝남한테": 1855,
      "가서": 1856,
      "눈물": 1857,
      "상관": 1858,
      "일을": 1859,
      "자주": 1860,
      "후폭풍": 1861,
      "사람한테": 1862,
      "정리가": 1863,
      "소개팅": 1864,
      "것이": 1865,
      "관리": 1866,
      "됐어": 1867,
      "되길": 1868,
      "되나": 1869,
      "떠나": 1870,
      "무시": 1871,
      "뭘까": 1872,
      "실수": 1873,
      "심해": 1874,
      "아픈": 1875,
      "알바": 1876,
      "저랑": 1877,
      "전에": 1878,
      "짜증": 1879,
      "당신이": 1880,
      "기분이": 1881,
      "감기": 1882,
      "날이": 1883,
      "도와": 1884,
      "력이": 1885,
      "무서": 1886,
      "별로": 1887,
      "아픔": 1888,
      "있다면": 1889,
      "잘하는": 1890,
      "차단": 1891,
      "피곤": 1892,
      "학교": 1893,
      "생각보다": 1894,
      "괜찮은": 1895,
      "모르겠어요": 1896,
      "지금도": 1897,
      "기다려": 1898,
      "어떡해": 1899,
      "게임": 1900,
      "극복": 1901,
      "다녀": 1902,
      "되지": 1903,
      "분이": 1904,
      "빨리": 1905,
      "뿐이에요": 1906,
      "쁘게": 1907,
      "자리": 1908,
      "오늘은": 1909,
      "행복해": 1910,
      "받아들이": 1911,
      "!!": 1912,
      "가면": 1913,
      "가야": 1914,
      "가족": 1915,
      "끝났": 1916,
      "라는": 1917,
      "만난": 1918,
      "뭐가": 1919,
      "붙잡": 1920,
      "솔직": 1921,
      "었는데": 1922,
      "일째": 1923,
      "있나": 1924,
      "잘하고": 1925,
      "지켜": 1926,
      "천천": 1927,
      "하셨": 1928,
      "사람도": 1929,
      "사랑에": 1930,
      "친구랑": 1931,
      "해주는": 1932,
      "천천히": 1933,
      "기는": 1934,
      "기로": 1935,
      "기까지": 1936,
      "끝이": 1937,
      "따뜻": 1938,
      "려요": 1939,
      "마주": 1940,
      "맛있게": 1941,
      "벌써": 1942,
      "설레": 1943,
      "외로": 1944,
      "점점": 1945,
      "지가": 1946,
      "직장": 1947,
      "하겠네요": 1948,
      "했어요": 1949,
      "환승": 1950,
      "자신이": 1951,
      "인연이": 1952,
      "확신이": 1953,
      "는지": 1954,
      "두려": 1955,
      "드는": 1956,
      "때는": 1957,
      "마스": 1958,
      "받는": 1959,
      "사세요": 1960,
      "살펴": 1961,
      "아는": 1962,
      "아이": 1963,
      "안녕": 1964,
      "운명": 1965,
      "힘이": 1966,
      "겠지요": 1967,
      "당신을": 1968,
      "놓아": 1969,
      "들을": 1970,
      "배우": 1971,
      "버리세요": 1972,
      "오네": 1973,
      "이면": 1974,
      "잠시": 1975,
      "주변": 1976,
      "해보는": 1977,
      "행동": 1978,
      "힘내세요": 1979,
      "연락하고": 1980,
      "힘들었": 1981,
      "하나씩": 1982,
      "이유가": 1983,
      "2년": 1984,
      "놀러": 1985,
      "눈을": 1986,
      "믿어요": 1987,
      "성격": 1988,
      "시원": 1989,
      "익숙": 1990,
      "일찍": 1991,
      "지났": 1992,
      "집착": 1993,
      "하길": 1994,
      "해줄": 1995,
      "만나는": 1996,
      "서로에게": 1997,
      "사귀고": 1998,
      "아닌데": 1999,
      "스러워": 2000,
      "신경쓰지": 2001,
      "언젠간": 2002,
      "많았어요": 2003,
      "나을": 2004,
      "느껴": 2005,
      "도전": 2006,
      "마련": 2007,
      "무엇": 2008,
      "보지": 2009,
      "슬픈": 2010,
      "않죠": 2011,
      "우울": 2012,
      "정이": 2013,
      "주말": 2014,
      "즐거": 2015,
      "차이": 2016,
      "하던": 2017,
      "하려": 2018,
      "했습니다": 2019,
      "힘들다": 2020,
      "못하겠어": 2021,
      "가기": 2022,
      "곳으로": 2023,
      "나아": 2024,
      "놓고": 2025,
      "다를": 2026,
      "되겠네요": 2027,
      "래도": 2028,
      "리지": 2029,
      "먹으면": 2030,
      "받을": 2031,
      "버렸": 2032,
      "번호": 2033,
      "싶네요": 2034,
      "에도": 2035,
      "여유": 2036,
      "오랜": 2037,
      "원하는": 2038,
      "위해": 2039,
      "이겨": 2040,
      "잊는": 2041,
      "잊지": 2042,
      "자존": 2043,
      "주고": 2044,
      "주무": 2045,
      "카페": 2046,
      "한데": 2047,
      "후련": 2048,
      "힘들게": 2049,
      "있었나봐요": 2050,
      "간다": 2051,
      "거짓": 2052,
      "꿈에": 2053,
      "끝나": 2054,
      "눈이": 2055,
      "다행": 2056,
      "때까지": 2057,
      "뭐야": 2058,
      "보는게": 2059,
      "부러": 2060,
      "알게": 2061,
      "애한테": 2062,
      "없죠": 2063,
      "연인": 2064,
      "용기": 2065,
      "자체": 2066,
      "주지": 2067,
      "최고": 2068,
      "포기": 2069,
      "한다": 2070,
      "헷갈": 2071,
      "좋아해": 2072,
      "생각할": 2073,
      "이별한지": 2074,
      "아무것도": 2075,
      "아무래도": 2076,
      "여친이": 2077,
      "이상형": 2078,
      "이었을": 2079,
      "그분": 2080,
      "들은": 2081,
      "르고": 2082,
      "마요": 2083,
      "맨날": 2084,
      "미리": 2085,
      "봐도": 2086,
      "부족": 2087,
      "비싸": 2088,
      "사를": 2089,
      "소중": 2090,
      "속이": 2091,
      "여보세요": 2092,
      "응원": 2093,
      "타고": 2094,
      "하겠죠": 2095,
      "사랑했던": 2096,
      "이별후": 2097,
      "지금은": 2098,
      "사귀는": 2099,
      "먹어야지": 2100,
      "귀찮아": 2101,
      "주무세요": 2102,
      "갈까": 2103,
      "금방": 2104,
      "기간": 2105,
      "나중에": 2106,
      "늦지": 2107,
      "데려": 2108,
      "되네": 2109,
      "많아요": 2110,
      "먹을": 2111,
      "방학": 2112,
      "보통": 2113,
      "소식": 2114,
      "싸우": 2115,
      "앞에": 2116,
      "어서": 2117,
      "일은": 2118,
      "있습니다": 2119,
      "자는": 2120,
      "장이": 2121,
      "전남친": 2122,
      "져요": 2123,
      "죽을": 2124,
      "태어": 2125,
      "하니": 2126,
      "하나봐요": 2127,
      "해질": 2128,
      "좋아하면": 2129,
      "좋아하게": 2130,
      "친구를": 2131,
      "만나지": 2132,
      "괜찮을까": 2133,
      "아니라": 2134,
      "필요해": 2135,
      "필요해요": 2136,
      "그녀를": 2137,
      "관심이": 2138,
      "않아도": 2139,
      "가져보세요": 2140,
      "예의가": 2141,
      "겠습니다": 2142,
      "나면": 2143,
      "남편이": 2144,
      "내는": 2145,
      "대화": 2146,
      "더라": 2147,
      "마셔": 2148,
      "맛있는": 2149,
      "무리": 2150,
      "버려": 2151,
      "사친": 2152,
      "상담": 2153,
      "시험": 2154,
      "야겠다": 2155,
      "어렵": 2156,
      "어머": 2157,
      "없네요": 2158,
      "었나봐요": 2159,
      "우산": 2160,
      "움을": 2161,
      "월급": 2162,
      "이네": 2163,
      "이러": 2164,
      "작은": 2165,
      "잠깐": 2166,
      "잠이": 2167,
      "중인데": 2168,
      "진정": 2169,
      "충전": 2170,
      "하늘": 2171,
      "하려고": 2172,
      "한거": 2173,
      "했다": 2174,
      "흘렀": 2175,
      "친구한테": 2176,
      "이별의": 2177,
      "당신은": 2178,
      "중요하지": 2179,
      "짝녀한테": 2180,
      "감정을": 2181,
      "헤어졌습니다": 2182,
      "만났어": 2183,
      "스럽게": 2184,
      "확인해보세요": 2185,
      "살펴보세요": 2186,
      "??": 2187,
      "ㅠㅠ": 2188,
      "기회": 2189,
      "대요": 2190,
      "동거": 2191,
      "되고": 2192,
      "드려요": 2193,
      "로맨": 2194,
      "바쁜": 2195,
      "밖에": 2196,
      "받았어": 2197,
      "변화가": 2198,
      "보러": 2199,
      "비밀": 2200,
      "생길": 2201,
      "쇼핑": 2202,
      "쉬고": 2203,
      "아름": 2204,
      "안나": 2205,
      "알고": 2206,
      "예쁘게": 2207,
      "으니": 2208,
      "자책": 2209,
      "장난": 2210,
      "전여친": 2211,
      "종교": 2212,
      "지고": 2213,
      "청소": 2214,
      "사랑해주세요": 2215,
      "친구들": 2216,
      "좋아하는데": 2217,
      "연락해": 2218,
      "연락해도": 2219,
      "하지마세요": 2220,
      "남자애가": 2221,
      "힘들죠": 2222,
      "해야할": 2223,
      "고민이야": 2224,
      "언제나": 2225,
      "누구나": 2226,
      "확실한": 2227,
      "2주": 2228,
      "5년": 2229,
      "가네": 2230,
      "같습니다": 2231,
      "걸로": 2232,
      "겠네": 2233,
      "경우": 2234,
      "그리고": 2235,
      "기만": 2236,
      "꾸준": 2237,
      "당히": 2238,
      "돈이": 2239,
      "됐는데": 2240,
      "되면": 2241,
      "두고": 2242,
      "때도": 2243,
      "리게": 2244,
      "맞춰": 2245,
      "멋진": 2246,
      "못하는": 2247,
      "문자": 2248,
      "미치": 2249,
      "바라": 2250,
      "바로": 2251,
      "바쁘": 2252,
      "분위": 2253,
      "비가": 2254,
      "안되는": 2255,
      "않고": 2256,
      "약속": 2257,
      "없다면": 2258,
      "이번": 2259,
      "자격": 2260,
      "주면": 2261,
      "즐기": 2262,
      "취미": 2263,
      "커플": 2264,
      "타이": 2265,
      "한가": 2266,
      "허전": 2267,
      "사랑할": 2268,
      "사랑하고": 2269,
      "생각만": 2270,
      "힘들어요": 2271,
      "있는지": 2272,
      "짝남이랑": 2273,
      "고민이": 2274,
      "방법이": 2275,
      "이라면": 2276,
      "받아들": 2277,
      "아닌지": 2278,
      "그래요": 2279,
      "궁금해": 2280,
      "가지고": 2281,
      "알려줘": 2282,
      "즐거운": 2283,
      "같네요": 2284,
      "곳이": 2285,
      "당연": 2286,
      "더라고": 2287,
      "되는데": 2288,
      "드디": 2289,
      "드라": 2290,
      "못해": 2291,
      "받지": 2292,
      "스킨": 2293,
      "싫다": 2294,
      "싫은": 2295,
      "애랑": 2296,
      "어울": 2297,
      "어쩌": 2298,
      "여러": 2299,
      "왔는데": 2300,
      "일도": 2301,
      "잊고": 2302,
      "잖아요": 2303,
      "절대": 2304,
      "조언": 2305,
      "존중": 2306,
      "좋겠죠": 2307,
      "줬으면": 2308,
      "칭찬": 2309,
      "통보": 2310,
      "퇴근": 2311,
      "해결": 2312,
      "사람에게": 2313,
      "친구들이": 2314,
      "여자애가": 2315,
      "힘들겠지만": 2316,
      "좋은데": 2317,
      "이제는": 2318,
      "가슴이": 2319,
      "드디어": 2320,
      "10": 2321,
      "가를": 2322,
      "거기까지": 2323,
      "것을": 2324,
      "내서": 2325,
      "드시": 2326,
      "말해": 2327,
      "몸이": 2328,
      "뭐라고": 2329,
      "뭔가": 2330,
      "뭔지": 2331,
      "미워": 2332,
      "성이": 2333,
      "수가": 2334,
      "신가봐요": 2335,
      "안경": 2336,
      "안하고": 2337,
      "않길": 2338,
      "야죠": 2339,
      "예민": 2340,
      "예쁜": 2341,
      "오면": 2342,
      "올려": 2343,
      "있네요": 2344,
      "잊을": 2345,
      "잠을": 2346,
      "전환": 2347,
      "줄까": 2348,
      "지쳤": 2349,
      "차분": 2350,
      "취직": 2351,
      "학원": 2352,
      "한잔": 2353,
      "헤아": 2354,
      "사람에": 2355,
      "시간은": 2356,
      "괜찮을": 2357,
      "않는다면": 2358,
      "미련이": 2359,
      "어려워": 2360,
      "어느덧": 2361,
      "아닐까요": 2362,
      "두려워": 2363,
      "로맨틱": 2364,
      "더라고요": 2365,
      "가야지": 2366,
      "같네": 2367,
      "거겠죠": 2368,
      "그대로": 2369,
      "기본": 2370,
      "나랑": 2371,
      "답니다": 2372,
      "두근": 2373,
      "두달": 2374,
      "만의": 2375,
      "말도": 2376,
      "먹었": 2377,
      "문제가": 2378,
      "바보": 2379,
      "생긴": 2380,
      "서운": 2381,
      "쉬어": 2382,
      "슬프": 2383,
      "썸녀": 2384,
      "쓰는": 2385,
      "어쩔": 2386,
      "음이": 2387,
      "이기": 2388,
      "전히": 2389,
      "첫사랑": 2390,
      "치고": 2391,
      "키우": 2392,
      "편지": 2393,
      "한게": 2394,
      "해져": 2395,
      "해졌": 2396,
      "했을": 2397,
      "사람과": 2398,
      "사랑하면": 2399,
      "생각하고": 2400,
      "마음도": 2401,
      "마음은": 2402,
      "좋아하는게": 2403,
      "헤어져": 2404,
      "기다릴": 2405,
      "물어보는": 2406,
      "부담스러워": 2407,
      "그러면": 2408,
      "축하해요": 2409,
      "자연스러운": 2410,
      "짜증나": 2411,
      "받아들이는": 2412,
      "다행이에요": 2413,
      "타이밍": 2414,
      "갖고": 2415,
      "거지": 2416,
      "것보다": 2417,
      "군대": 2418,
      "귀여": 2419,
      "끝내": 2420,
      "나오": 2421,
      "나온": 2422,
      "능력이": 2423,
      "니가": 2424,
      "당황": 2425,
      "덤덤": 2426,
      "두세요": 2427,
      "떨려": 2428,
      "리스": 2429,
      "말하세요": 2430,
      "못한": 2431,
      "못하고": 2432,
      "뭐든": 2433,
      "배워": 2434,
      "변화": 2435,
      "불편": 2436,
      "사과": 2437,
      "상이에요": 2438,
      "생님": 2439,
      "생일": 2440,
      "선생님": 2441,
      "아서": 2442,
      "용기를": 2443,
      "워질": 2444,
      "이지": 2445,
      "이라고": 2446,
      "일주": 2447,
      "있고": 2448,
      "있지": 2449,
      "있나요": 2450,
      "자유": 2451,
      "저를": 2452,
      "적응": 2453,
      "적당히": 2454,
      "졸업": 2455,
      "좋았": 2456,
      "지우": 2457,
      "집중": 2458,
      "최선": 2459,
      "출근": 2460,
      "치가": 2461,
      "프로": 2462,
      "하니까": 2463,
      "흔들": 2464,
      "사람마다": 2465,
      "힘들겠어요": 2466,
      "사람이네요": 2467,
      "보고싶어": 2468,
      "기다리고": 2469,
      "준비가": 2470,
      "후회하지": 2471,
      "관심을": 2472,
      "충분한": 2473,
      "헤어졌어": 2474,
      "썸남이": 2475,
      "않았으면": 2476,
      "어려운": 2477,
      "화장실": 2478,
      "다음에는": 2479,
      "진심으로": 2480,
      "무서워": 2481,
      "자책하지": 2482,
      "꾸준히": 2483,
      "가도": 2484,
      "가자고": 2485,
      "고마": 2486,
      "그건": 2487,
      "기운": 2488,
      "길이": 2489,
      "끝을": 2490,
      "냄새": 2491,
      "놀이": 2492,
      "누가": 2493,
      "당당": 2494,
      "동생": 2495,
      "따로": 2496,
      "먹는": 2497,
      "몰랐": 2498,
      "배려": 2499,
      "병원": 2500,
      "보냈": 2501,
      "보니": 2502,
      "부탁": 2503,
      "삭제": 2504,
      "생기": 2505,
      "식을": 2506,
      "싶네": 2507,
      "싶지": 2508,
      "아보세요": 2509,
      "았나봐요": 2510,
      "얘기": 2511,
      "어색": 2512,
      "연예": 2513,
      "오빠": 2514,
      "왔다": 2515,
      "우선": 2516,
      "원래": 2517,
      "위험": 2518,
      "이성": 2519,
      "있겠어요": 2520,
      "있잖아요": 2521,
      "저에게": 2522,
      "적극": 2523,
      "제대로": 2524,
      "좋지": 2525,
      "질투": 2526,
      "집안": 2527,
      "프사": 2528,
      "피해": 2529,
      "함이": 2530,
      "힘내": 2531,
      "사람의": 2532,
      "사랑해": 2533,
      "좋아하는지": 2534,
      "하지만": 2535,
      "만나보세요": 2536,
      "해야할까": 2537,
      "자신에게": 2538,
      "이라는": 2539,
      "인가봐": 2540,
      "그녀가": 2541,
      "감정이": 2542,
      "해주고": 2543,
      "남친이": 2544,
      "않을까요": 2545,
      "스타일": 2546,
      "후폭풍이": 2547,
      "스킨십": 2548,
      "3년": 2549,
      "3개월": 2550,
      "가는데": 2551,
      "감사": 2552,
      "경험": 2553,
      "구나": 2554,
      "까봐": 2555,
      "꿈을": 2556,
      "나눠": 2557,
      "나타": 2558,
      "담배": 2559,
      "됩니다": 2560,
      "둘이": 2561,
      "르는": 2562,
      "리가": 2563,
      "말하는": 2564,
      "무너": 2565,
      "무뎌": 2566,
      "발표": 2567,
      "버텨": 2568,
      "본인": 2569,
      "부분": 2570,
      "사실": 2571,
      "쉽게": 2572,
      "시길": 2573,
      "안타": 2574,
      "안들어": 2575,
      "야할": 2576,
      "어플": 2577,
      "없다": 2578,
      "왔네": 2579,
      "으시": 2580,
      "이요": 2581,
      "인사": 2582,
      "인상": 2583,
      "일이에요": 2584,
      "잠수": 2585,
      "좋다": 2586,
      "착각": 2587,
      "하다고": 2588,
      "하자고": 2589,
      "해지는": 2590,
      "좋아한": 2591,
      "만나자고": 2592,
      "자신감을": 2593,
      "있어도": 2594,
      "일이네요": 2595,
      "하나도": 2596,
      "그런가봐요": 2597,
      "행복한": 2598,
      "서로를": 2599,
      "후회할": 2600,
      "머리가": 2601,
      "상황을": 2602,
      "완전히": 2603,
      "잊혀지": 2604,
      "성격이": 2605,
      "거짓말": 2606,
      "데려다": 2607,
      "아름다": 2608,
      "연예인": 2609,
      "..": 2610,
      "4년": 2611,
      "고쳐": 2612,
      "귀엽": 2613,
      "그랬": 2614,
      "끝은": 2615,
      "놀아요": 2616,
      "눈에": 2617,
      "대해": 2618,
      "듣고": 2619,
      "리면": 2620,
      "맘고생": 2621,
      "바꿔": 2622,
      "바빠": 2623,
      "발전": 2624,
      "벗어": 2625,
      "불러": 2626,
      "살짝": 2627,
      "새벽": 2628,
      "시다": 2629,
      "쓰레": 2630,
      "아는데": 2631,
      "앞에서": 2632,
      "었네": 2633,
      "오지": 2634,
      "위한": 2635,
      "이가": 2636,
      "이길": 2637,
      "일상": 2638,
      "있겠죠": 2639,
      "장을": 2640,
      "장거리": 2641,
      "점심": 2642,
      "조절": 2643,
      "존재": 2644,
      "지쳐": 2645,
      "크리스": 2646,
      "피부": 2647,
      "하러": 2648,
      "하거나": 2649,
      "한동안": 2650,
      "호감이": 2651,
      "생각하세요": 2652,
      "힘들지": 2653,
      "만나세요": 2654,
      "혼자가": 2655,
      "아무리": 2656,
      "시작해보세요": 2657,
      "인가요": 2658,
      "이상한": 2659,
      "축하드려요": 2660,
      "말씀해주세요": 2661,
      "지내고": 2662,
      "그리워": 2663,
      "연습을": 2664,
      "눈물이": 2665,
      "놓아주세요": 2666,
      "무엇이": 2667,
      "크리스마스": 2668,
      "NS": 2669,
      "SNS": 2670,
      "가치": 2671,
      "갔어": 2672,
      "견디": 2673,
      "계획": 2674,
      "과정": 2675,
      "괜히": 2676,
      "괴롭": 2677,
      "그럼": 2678,
      "꿨어": 2679,
      "냐고": 2680,
      "느끼": 2681,
      "다이어": 2682,
      "동물": 2683,
      "떠난": 2684,
      "력을": 2685,
      "만이": 2686,
      "면접": 2687,
      "무섭": 2688,
      "문득": 2689,
      "바뀌": 2690,
      "반복": 2691,
      "배고": 2692,
      "속상": 2693,
      "쉬는": 2694,
      "애매": 2695,
      "없나": 2696,
      "없애": 2697,
      "없는데": 2698,
      "올까": 2699,
      "올라": 2700,
      "우연": 2701,
      "웨딩": 2702,
      "의지": 2703,
      "이거": 2704,
      "이는": 2705,
      "이름": 2706,
      "이사": 2707,
      "이용": 2708,
      "잡고": 2709,
      "저녁": 2710,
      "줘도": 2711,
      "줬어": 2712,
      "집에서": 2713,
      "치는": 2714,
      "타는데": 2715,
      "하다면": 2716,
      "하다가": 2717,
      "할텐데": 2718,
      "했네": 2719,
      "현상이에요": 2720,
      "사랑하는데": 2721,
      "생각하는": 2722,
      "친구로": 2723,
      "연락하면": 2724,
      "남자를": 2725,
      "으면서": 2726,
      "만나서": 2727,
      "좋을텐데": 2728,
      "모르겠네요": 2729,
      "이야기해보세요": 2730,
      "시작이": 2731,
      "여자친구와": 2732,
      "이상해": 2733,
      "괜찮아졌": 2734,
      "괜찮아질": 2735,
      "위로해": 2736,
      "추억이": 2737,
      "말씀해보세요": 2738,
      "사랑한다고": 2739,
      "자연스럽게": 2740,
      "외로워": 2741,
      "여유를": 2742,
      "오랜만에": 2743,
      "다이어트": 2744,
      "6개월": 2745,
      "가까": 2746,
      "가벼": 2747,
      "간절": 2748,
      "갔다": 2749,
      "같지": 2750,
      "거니": 2751,
      "거울": 2752,
      "거절": 2753,
      "계절": 2754,
      "꿈이": 2755,
      "나게": 2756,
      "나의": 2757,
      "누군": 2758,
      "느라": 2759,
      "는거": 2760,
      "도서": 2761,
      "돈을": 2762,
      "될까요": 2763,
      "려면": 2764,
      "리기": 2765,
      "많죠": 2766,
      "못할": 2767,
      "뭐하지": 2768,
      "미래": 2769,
      "바뀔": 2770,
      "버스": 2771,
      "비교": 2772,
      "사고": 2773,
      "사귄": 2774,
      "사라": 2775,
      "살까": 2776,
      "상사": 2777,
      "소한": 2778,
      "속에": 2779,
      "쉬세요": 2780,
      "슬퍼": 2781,
      "시키": 2782,
      "신고": 2783,
      "신혼": 2784,
      "썸이": 2785,
      "썸타는": 2786,
      "아빠": 2787,
      "안와": 2788,
      "안해도": 2789,
      "않네": 2790,
      "앞으로": 2791,
      "었을": 2792,
      "였어": 2793,
      "영원": 2794,
      "오해": 2795,
      "을거예요": 2796,
      "음을": 2797,
      "이혼": 2798,
      "인듯": 2799,
      "인형": 2800,
      "일지도": 2801,
      "졸려": 2802,
      "중간": 2803,
      "질까": 2804,
      "참고": 2805,
      "취업": 2806,
      "할때": 2807,
      "호감을": 2808,
      "하는지": 2809,
      "좋아할까": 2810,
      "생각나는": 2811,
      "연락처": 2812,
      "연락하지": 2813,
      "여자애": 2814,
      "사람이에요": 2815,
      "있는게": 2816,
      "만나면": 2817,
      "필요할": 2818,
      "들어드릴게요": 2819,
      "결혼식": 2820,
      "기다리는": 2821,
      "다가도": 2822,
      "짝사랑하는": 2823,
      "가능할": 2824,
      "상처를": 2825,
      "하다보면": 2826,
      "생겼어": 2827,
      "궁금하네요": 2828,
      "썸남한테": 2829,
      "내일은": 2830,
      "선택일": 2831,
      "부담스럽": 2832,
      "지나갈": 2833,
      "않았어요": 2834,
      "해지면": 2835,
      "나이가": 2836,
      "만났는데": 2837,
      "습관이에요": 2838,
      "확실히": 2839,
      "생각나네": 2840,
      "일어나": 2841,
      "날씨가": 2842,
      "붙잡고": 2843,
      "지켜보세요": 2844,
      "소중한": 2845,
      "분위기": 2846,
      "어쩌지": 2847,
      "쓰레기": 2848,
      "도서관": 2849,
      "가봅니다": 2850,
      "갑작": 2851,
      "개인": 2852,
      "거려": 2853,
      "것만": 2854,
      "것은": 2855,
      "결과": 2856,
      "고통": 2857,
      "기념": 2858,
      "기울": 2859,
      "깔끔": 2860,
      "꿈에서": 2861,
      "남을": 2862,
      "남편": 2863,
      "내고": 2864,
      "놀아": 2865,
      "느려": 2866,
      "대단": 2867,
      "대학": 2868,
      "됐으면": 2869,
      "되죠": 2870,
      "되기도": 2871,
      "된다고": 2872,
      "드네": 2873,
      "듭니다": 2874,
      "때네요": 2875,
      "먹을까": 2876,
      "목소리": 2877,
      "미세": 2878,
      "미안": 2879,
      "미친": 2880,
      "배가": 2881,
      "버리": 2882,
      "보일": 2883,
      "봤어": 2884,
      "분들": 2885,
      "비슷": 2886,
      "사귈": 2887,
      "상태": 2888,
      "소문": 2889,
      "신청": 2890,
      "않으면": 2891,
      "야근": 2892,
      "역시": 2893,
      "옆에": 2894,
      "와서": 2895,
      "완벽": 2896,
      "왔으면": 2897,
      "왔습니다": 2898,
      "으려고": 2899,
      "이게": 2900,
      "이다": 2901,
      "이럴": 2902,
      "이루": 2903,
      "일에": 2904,
      "있네": 2905,
      "있다": 2906,
      "있으": 2907,
      "있으니까요": 2908,
      "전부": 2909,
      "전해보세요": 2910,
      "조급": 2911,
      "종일": 2912,
      "중인": 2913,
      "지네": 2914,
      "지워": 2915,
      "짝사랑이": 2916,
      "차가": 2917,
      "차별": 2918,
      "치과": 2919,
      "카드": 2920,
      "크게": 2921,
      "편하게": 2922,
      "호감": 2923,
      "휴가": 2924,
      "희망": 2925,
      "하는거": 2926,
      "하는건": 2927,
      "좋아하고": 2928,
      "사랑해서": 2929,
      "연락하는": 2930,
      "남자애": 2931,
      "해야죠": 2932,
      "연애는": 2933,
      "필요하죠": 2934,
      "고민하고": 2935,
      "아무도": 2936,
      "저도요": 2937,
      "이야기를": 2938,
      "이야기네요": 2939,
      "하기도": 2940,
      "그녀의": 2941,
      "여자친구의": 2942,
      "걱정돼": 2943,
      "그래서": 2944,
      "알아보세요": 2945,
      "면서도": 2946,
      "남자친구의": 2947,
      "이해해주세요": 2948,
      "어디서": 2949,
      "노력해보세요": 2950,
      "어떡하지": 2951,
      "상황이": 2952,
      "어때요": 2953,
      "보여요": 2954,
      "잊어버리세요": 2955,
      "건강에": 2956,
      "적이든": 2957,
      "얼마나": 2958,
      "엄마가": 2959,
      "예뻐요": 2960,
      "무서운": 2961,
      "마스크": 2962,
      "헷갈리게": 2963,
      "흘렀네요": 2964,
      "친구들과": 2965,
      "받아들여": 2966,
      "지쳤나봐요": 2967,
      "헤어져야": 2968,
      "미세먼": 2969,
      "3주": 2970,
      "~~": 2971,
      "갑니다": 2972,
      "거의": 2973,
      "견뎌": 2974,
      "결심": 2975,
      "곳에서": 2976,
      "공허": 2977,
      "권태": 2978,
      "그동안": 2979,
      "긍정": 2980,
      "깨달": 2981,
      "나쁘": 2982,
      "남았": 2983,
      "남의": 2984,
      "남사친": 2985,
      "내보세요": 2986,
      "놀고": 2987,
      "늦게": 2988,
      "다리": 2989,
      "다보면": 2990,
      "답이": 2991,
      "더워": 2992,
      "됐네": 2993,
      "드리고": 2994,
      "러워": 2995,
      "려도": 2996,
      "립니다": 2997,
      "마무리": 2998,
      "말투": 2999,
      "말할": 3000,
      "먹기": 3001,
      "멀어": 3002,
      "몰라": 3003,
      "무덤덤": 3004,
      "받은": 3005,
      "변화를": 3006,
      "보아요": 3007,
      "봤는데": 3008,
      "부럽": 3009,
      "부여": 3010,
      "분명": 3011,
      "사야": 3012,
      "사회": 3013,
      "샀어": 3014,
      "상을": 3015,
      "선톡": 3016,
      "속에서": 3017,
      "시계": 3018,
      "시어머": 3019,
      "실망": 3020,
      "실감이": 3021,
      "심호": 3022,
      "썸인지": 3023,
      "아까": 3024,
      "않게": 3025,
      "않으니까요": 3026,
      "알았": 3027,
      "알면서도": 3028,
      "야경": 3029,
      "어린": 3030,
      "어야": 3031,
      "어장": 3032,
      "없다고": 3033,
      "었던": 3034,
      "었어요": 3035,
      "여기까지": 3036,
      "여사친": 3037,
      "였나봐요": 3038,
      "용기가": 3039,
      "원망": 3040,
      "유지": 3041,
      "은근": 3042,
      "이건": 3043,
      "이고": 3044,
      "인간": 3045,
      "있지만": 3046,
      "잘해줘": 3047,
      "저한테": 3048,
      "점을": 3049,
      "정확": 3050,
      "지면": 3051,
      "추워": 3052,
      "친한": 3053,
      "택시": 3054,
      "판단": 3055,
      "편할": 3056,
      "평소": 3057,
      "할게요": 3058,
      "해보": 3059,
      "혹시": 3060,
      "사람으로": 3061,
      "좋아해도": 3062,
      "사랑하지": 3063,
      "생각한": 3064,
      "남자들은": 3065,
      "만나는게": 3066,
      "해야겠다": 3067,
      "아니라고": 3068,
      "연애를": 3069,
      "필요는": 3070,
      "보고싶다": 3071,
      "당신도": 3072,
      "기다려보세요": 3073,
      "행복하게": 3074,
      "선물이": 3075,
      "짝녀랑": 3076,
      "서로의": 3077,
      "후회가": 3078,
      "여행을": 3079,
      "여자친구랑": 3080,
      "상처가": 3081,
      "언제쯤": 3082,
      "헤어졌는데": 3083,
      "돌아오": 3084,
      "생겼는데": 3085,
      "결정을": 3086,
      "결정이었을": 3087,
      "이유를": 3088,
      "가지세요": 3089,
      "회사에서": 3090,
      "인생은": 3091,
      "사이가": 3092,
      "잊어야": 3093,
      "만들어보세요": 3094,
      "아침에": 3095,
      "상대방을": 3096,
      "사람들에게": 3097,
      "무시하세요": 3098,
      "하셨네요": 3099,
      "즐기세요": 3100,
      "당당하게": 3101,
      "안타깝": 3102,
      "심호흡": 3103,
      "ㅎㅎ": 3104,
      "거를": 3105,
      "겨울": 3106,
      "곳에": 3107,
      "공통": 3108,
      "국어": 3109,
      "근처": 3110,
      "깊은": 3111,
      "끝난": 3112,
      "나네": 3113,
      "나올": 3114,
      "나은": 3115,
      "나왔어": 3116,
      "나가세요": 3117,
      "냐에": 3118,
      "다들": 3119,
      "다양": 3120,
      "달째": 3121,
      "대체": 3122,
      "두번": 3123,
      "듯이": 3124,
      "디션": 3125,
      "때론": 3126,
      "때를": 3127,
      "똑같은": 3128,
      "렸어": 3129,
      "로워": 3130,
      "만든": 3131,
      "만족": 3132,
      "말은": 3133,
      "말이에요": 3134,
      "맘이": 3135,
      "멈추": 3136,
      "미안해": 3137,
      "바꾸": 3138,
      "보기": 3139,
      "살이": 3140,
      "생겨": 3141,
      "선이": 3142,
      "술이": 3143,
      "스키": 3144,
      "시기": 3145,
      "쐬고": 3146,
      "아예": 3147,
      "안전": 3148,
      "안하는": 3149,
      "안돼요": 3150,
      "안됐는데": 3151,
      "없으면": 3152,
      "울적": 3153,
      "음악": 3154,
      "의심": 3155,
      "이래": 3156,
      "일까요": 3157,
      "있길": 3158,
      "있겠지": 3159,
      "자세": 3160,
      "전공": 3161,
      "정상": 3162,
      "좋겠지": 3163,
      "좋지만": 3164,
      "주말이": 3165,
      "중입니다": 3166,
      "지난": 3167,
      "지로": 3168,
      "진급": 3169,
      "짧은": 3170,
      "차근": 3171,
      "채워": 3172,
      "초대": 3173,
      "축구": 3174,
      "취향": 3175,
      "치지": 3176,
      "클럽": 3177,
      "편한": 3178,
      "평생": 3179,
      "피할": 3180,
      "현금": 3181,
      "현재": 3182,
      "좋아하던": 3183,
      "생각하지": 3184,
      "연락은": 3185,
      "있을거예요": 3186,
      "여자를": 3187,
      "여자애한테": 3188,
      "해야겠지": 3189,
      "자신에": 3190,
      "아니면": 3191,
      "아니라면": 3192,
      "모르고": 3193,
      "없어서": 3194,
      "정리하는게": 3195,
      "지금처럼": 3196,
      "행복할": 3197,
      "준비를": 3198,
      "준비해보세요": 3199,
      "선물을": 3200,
      "찾아올": 3201,
      "방법을": 3202,
      "방법이에요": 3203,
      "헤어지자고": 3204,
      "그녀는": 3205,
      "가능성이": 3206,
      "감정에": 3207,
      "많은데": 3208,
      "상대를": 3209,
      "힘들어서": 3210,
      "충분해요": 3211,
      "운동을": 3212,
      "선택을": 3213,
      "아프네": 3214,
      "한달이": 3215,
      "지나갔": 3216,
      "노래방": 3217,
      "달라지는": 3218,
      "위로가": 3219,
      "사랑한다면": 3220,
      "언젠가": 3221,
      "상대방이": 3222,
      "떨어졌어": 3223,
      "사진을": 3224,
      "모습을": 3225,
      "모습이": 3226,
      "만난지": 3227,
      "힘들었을": 3228,
      "버렸어": 3229,
      "이겨낼": 3230,
      "자존감이": 3231,
      "부러워": 3232,
      "부러워요": 3233,
      "용기내서": 3234,
      "최고죠": 3235,
      "응원합니다": 3236,
      "진정한": 3237,
      "해야할지": 3238,
      "드라마": 3239,
      "이성으로": 3240,
      "적극적으로": 3241,
      "한동안은": 3242,
      "가치관": 3243,
      "부담스럽지": 3244,
      "6년": 3245,
      "ns": 3246,
      "sns": 3247,
      "가봐": 3248,
      "각자": 3249,
      "간의": 3250,
      "건데": 3251,
      "걸릴": 3252,
      "겨보세요": 3253,
      "골라": 3254,
      "교회": 3255,
      "글을": 3256,
      "긴장": 3257,
      "끝까지": 3258,
      "내요": 3259,
      "냉장": 3260,
      "너에게": 3261,
      "넘어": 3262,
      "단단": 3263,
      "달달": 3264,
      "답을": 3265,
      "당장": 3266,
      "당했어": 3267,
      "더라도": 3268,
      "들고": 3269,
      "떨리": 3270,
      "막히": 3271,
      "말까": 3272,
      "말아": 3273,
      "맛이": 3274,
      "맥주": 3275,
      "먹었어": 3276,
      "모아": 3277,
      "뭐하고": 3278,
      "믿음이": 3279,
      "바꿀": 3280,
      "반대": 3281,
      "받았": 3282,
      "변덕": 3283,
      "보낼": 3284,
      "불행": 3285,
      "사용": 3286,
      "사소한": 3287,
      "산책": 3288,
      "새로": 3289,
      "설렘": 3290,
      "셀프": 3291,
      "셨나봐요": 3292,
      "소원": 3293,
      "소화": 3294,
      "수는": 3295,
      "싶습니다": 3296,
      "썸인데": 3297,
      "쓰고": 3298,
      "쓸데": 3299,
      "아지": 3300,
      "알면": 3301,
      "어찌": 3302,
      "없지": 3303,
      "없나봐요": 3304,
      "예쁘": 3305,
      "온전히": 3306,
      "우세요": 3307,
      "운을": 3308,
      "울까": 3309,
      "움직": 3310,
      "웠어": 3311,
      "이불": 3312,
      "이팅": 3313,
      "인기가": 3314,
      "있겠네요": 3315,
      "있다고": 3316,
      "있다는": 3317,
      "잘해": 3318,
      "적어보세요": 3319,
      "제발": 3320,
      "제자리": 3321,
      "조건": 3322,
      "조차": 3323,
      "좋겠지만": 3324,
      "줘야": 3325,
      "진다": 3326,
      "진실": 3327,
      "집이": 3328,
      "집들이": 3329,
      "최악": 3330,
      "출발": 3331,
      "치료": 3332,
      "태도": 3333,
      "파이팅": 3334,
      "페북": 3335,
      "피하세요": 3336,
      "하긴": 3337,
      "하셔": 3338,
      "하니까요": 3339,
      "하겠습니다": 3340,
      "할까요": 3341,
      "했나": 3342,
      "했겠어요": 3343,
      "후가": 3344,
      "흘러": 3345,
      "좋아해요": 3346,
      "사랑으로": 3347,
      "생각에": 3348,
      "생각은": 3349,
      "생각이에요": 3350,
      "마음으로": 3351,
      "이별통보": 3352,
      "남자는": 3353,
      "힘들겠네요": 3354,
      "힘들겠지": 3355,
      "시간에": 3356,
      "있는거": 3357,
      "만나기로": 3358,
      "아니야": 3359,
      "연애가": 3360,
      "필요하겠네요": 3361,
      "있어서": 3362,
      "일이네": 3363,
      "정리할": 3364,
      "중요하죠": 3365,
      "다가가": 3366,
      "준비하는": 3367,
      "물어봐": 3368,
      "고백해보세요": 3369,
      "고백해도": 3370,
      "공부는": 3371,
      "하루하루": 3372,
      "기분전환": 3373,
      "남자친구와": 3374,
      "이었으면": 3375,
      "보내고": 3376,
      "썸남이랑": 3377,
      "아프네요": 3378,
      "느낌이": 3379,
      "나이는": 3380,
      "습관을": 3381,
      "관계를": 3382,
      "그렇지": 3383,
      "그렇지만": 3384,
      "마시고": 3385,
      "보이고": 3386,
      "부모님이": 3387,
      "떨어져": 3388,
      "알려주세요": 3389,
      "진심을": 3390,
      "살아야": 3391,
      "따뜻한": 3392,
      "힘들었겠어요": 3393,
      "시원한": 3394,
      "지났네": 3395,
      "기회가": 3396,
      "차분히": 3397,
      "최선의": 3398,
      "아름다운": 3399,
      "무엇이든": 3400,
      "부럽네요": 3401,
      "냉장고": 3402,
      "사용해보세요": 3403,
      "30": 3404,
      "7년": 3405,
      "8년": 3406,
      "가락": 3407,
      "간접": 3408,
      "감당": 3409,
      "걸리": 3410,
      "걸어보세요": 3411,
      "고맙": 3412,
      "고치": 3413,
      "공무": 3414,
      "공시": 3415,
      "과식": 3416,
      "교양": 3417,
      "규직": 3418,
      "그만큼": 3419,
      "글로": 3420,
      "끝인": 3421,
      "나나": 3422,
      "나에게": 3423,
      "나가는": 3424,
      "난다": 3425,
      "남기": 3426,
      "남아": 3427,
      "낫죠": 3428,
      "났어": 3429,
      "내리": 3430,
      "달콤": 3431,
      "대폰": 3432,
      "데이": 3433,
      "도록": 3434,
      "도시": 3435,
      "돌려보세요": 3436,
      "되기": 3437,
      "드려보세요": 3438,
      "들었어": 3439,
      "릴까": 3440,
      "마실": 3441,
      "만한": 3442,
      "많을": 3443,
      "말하지": 3444,
      "맘에": 3445,
      "맛난": 3446,
      "매력": 3447,
      "머릿": 3448,
      "메뉴": 3449,
      "면도": 3450,
      "목표": 3451,
      "물리": 3452,
      "뭐라도": 3453,
      "믿어보세요": 3454,
      "밀당": 3455,
      "바쁘게": 3456,
      "반지": 3457,
      "벚꽃": 3458,
      "변명": 3459,
      "보험": 3460,
      "부딪": 3461,
      "부로": 3462,
      "부를": 3463,
      "부자": 3464,
      "부분이": 3465,
      "빌려": 3466,
      "빠르": 3467,
      "샤워": 3468,
      "셔보세요": 3469,
      "소비": 3470,
      "솔로": 3471,
      "술을": 3472,
      "시겠어요": 3473,
      "시기가": 3474,
      "식이": 3475,
      "심리": 3476,
      "심심": 3477,
      "썸의": 3478,
      "아껴": 3479,
      "아플": 3480,
      "않는데": 3481,
      "않겠지만": 3482,
      "앞머리": 3483,
      "애정": 3484,
      "약이": 3485,
      "억지로": 3486,
      "없겠네요": 3487,
      "없지만": 3488,
      "없을까": 3489,
      "었으면": 3490,
      "여전히": 3491,
      "오랫": 3492,
      "온다": 3493,
      "외롭": 3494,
      "용돈": 3495,
      "용서": 3496,
      "우면": 3497,
      "울어도": 3498,
      "유증": 3499,
      "을지도": 3500,
      "의사를": 3501,
      "이뤄": 3502,
      "이예요": 3503,
      "인기": 3504,
      "인이": 3505,
      "있음": 3506,
      "있으니": 3507,
      "잊으세요": 3508,
      "잘했어요": 3509,
      "장면": 3510,
      "장소": 3511,
      "장에서": 3512,
      "전화를": 3513,
      "절약": 3514,
      "정규직": 3515,
      "제를": 3516,
      "죽고": 3517,
      "중독": 3518,
      "지기": 3519,
      "지를": 3520,
      "지칠": 3521,
      "진지": 3522,
      "차리세요": 3523,
      "참아": 3524,
      "청첩": 3525,
      "파혼": 3526,
      "포즈": 3527,
      "풀릴": 3528,
      "하느라": 3529,
      "한다면": 3530,
      "했나봐": 3531,
      "했더니": 3532,
      "헬스": 3533,
      "회식": 3534,
      "후에": 3535,
      "휴대폰": 3536,
      "힘듭니다": 3537,
      "좋아하나": 3538,
      "좋아해주는": 3539,
      "생각하면": 3540,
      "친구의": 3541,
      "하고싶어": 3542,
      "이별에는": 3543,
      "헤어질": 3544,
      "있을지도": 3545,
      "여자랑": 3546,
      "여자한테": 3547,
      "여자들은": 3548,
      "남자들": 3549,
      "남자랑": 3550,
      "시간도": 3551,
      "해야하나": 3552,
      "자신만": 3553,
      "필요하다면": 3554,
      "혼자만": 3555,
      "혼자서": 3556,
      "정리를": 3557,
      "지금이라도": 3558,
      "선물은": 3559,
      "힘든가봅니다": 3560,
      "아무렇": 3561,
      "고백했는데": 3562,
      "이라니": 3563,
      "하기는": 3564,
      "사귀기": 3565,
      "걱정하지": 3566,
      "남자친구랑": 3567,
      "되는지": 3568,
      "표현이": 3569,
      "헤어졌네": 3570,
      "아프다": 3571,
      "스트레칭": 3572,
      "인생이": 3573,
      "달라지": 3574,
      "만들어요": 3575,
      "맞는걸까": 3576,
      "관계가": 3577,
      "세상에": 3578,
      "마시면": 3579,
      "다르겠지만": 3580,
      "스스로에게": 3581,
      "피곤해": 3582,
      "극복할": 3583,
      "다녀오세요": 3584,
      "솔직한": 3585,
      "솔직하게": 3586,
      "따뜻하게": 3587,
      "환승이별": 3588,
      "태어난": 3589,
      "이러지": 3590,
      "바쁜가봐요": 3591,
      "자격이": 3592,
      "자격증": 3593,
      "드라이": 3594,
      "친구들이랑": 3595,
      "먹었다": 3596,
      "귀여워": 3597,
      "일주일": 3598,
      "프로포즈": 3599,
      "병원에": 3600,
      "나눠보세요": 3601,
      "벗어나": 3602,
      "새벽에": 3603,
      "배고파": 3604,
      "누군가를": 3605,
      "공무원": 3606,
      "도시락": 3607,
      "2달": 3608,
      "5개월": 3609,
      "ㅜㅜ": 3610,
      "감성": 3611,
      "개강": 3612,
      "거랑": 3613,
      "거면": 3614,
      "거같아": 3615,
      "겼어": 3616,
      "경쟁": 3617,
      "곁에": 3618,
      "과일": 3619,
      "과정이": 3620,
      "귀가": 3621,
      "그는": 3622,
      "그대": 3623,
      "기원": 3624,
      "기세요": 3625,
      "길어": 3626,
      "깨끗": 3627,
      "꽃다": 3628,
      "나지": 3629,
      "나혼자": 3630,
      "나보다": 3631,
      "나을까": 3632,
      "남겨": 3633,
      "남은": 3634,
      "낭비": 3635,
      "너를": 3636,
      "놀랐": 3637,
      "눈치": 3638,
      "늦은": 3639,
      "달려": 3640,
      "답장": 3641,
      "대출": 3642,
      "데는": 3643,
      "데요": 3644,
      "도움을": 3645,
      "돼서": 3646,
      "되는게": 3647,
      "될지도": 3648,
      "드립니다": 3649,
      "드셔보세요": 3650,
      "든지": 3651,
      "듯한": 3652,
      "떠오": 3653,
      "똑똑": 3654,
      "라리": 3655,
      "래요": 3656,
      "려구": 3657,
      "르세요": 3658,
      "린다": 3659,
      "막혀": 3660,
      "맛집": 3661,
      "맞추": 3662,
      "맞았나봐요": 3663,
      "멋지": 3664,
      "명절": 3665,
      "모른": 3666,
      "몰래": 3667,
      "못해요": 3668,
      "무거": 3669,
      "반가": 3670,
      "받으": 3671,
      "받으면": 3672,
      "발렌": 3673,
      "밝혀": 3674,
      "밤에": 3675,
      "버릴": 3676,
      "베터": 3677,
      "별거": 3678,
      "보이네요": 3679,
      "보면서": 3680,
      "복이": 3681,
      "봄이": 3682,
      "부지": 3683,
      "빠를": 3684,
      "빼로": 3685,
      "빼빼로": 3686,
      "사가": 3687,
      "사업": 3688,
      "살기": 3689,
      "삶을": 3690,
      "상상": 3691,
      "생숭": 3692,
      "선을": 3693,
      "성장": 3694,
      "센스": 3695,
      "셨네요": 3696,
      "수업": 3697,
      "순수": 3698,
      "숭생숭": 3699,
      "쉬어도": 3700,
      "스테": 3701,
      "시군요": 3702,
      "신발": 3703,
      "심경": 3704,
      "싱숭생숭": 3705,
      "싸움": 3706,
      "써보세요": 3707,
      "썸은": 3708,
      "썸을": 3709,
      "않나봐요": 3710,
      "않을까": 3711,
      "알다가도": 3712,
      "애들": 3713,
      "양말": 3714,
      "양이": 3715,
      "어두": 3716,
      "업무": 3717,
      "었네요": 3718,
      "에휴": 3719,
      "여기": 3720,
      "여름": 3721,
      "염색": 3722,
      "와요": 3723,
      "외모": 3724,
      "외로운": 3725,
      "우리는": 3726,
      "운전": 3727,
      "유부": 3728,
      "은연": 3729,
      "이니": 3730,
      "이란": 3731,
      "이미": 3732,
      "인거": 3733,
      "인공": 3734,
      "인내": 3735,
      "일만": 3736,
      "일하는": 3737,
      "입을": 3738,
      "있지요": 3739,
      "있더라고요": 3740,
      "자면": 3741,
      "잡는": 3742,
      "잤어": 3743,
      "점이": 3744,
      "졌으면": 3745,
      "좋으면": 3746,
      "주려": 3747,
      "줄게요": 3748,
      "줬는데": 3749,
      "지진": 3750,
      "차라리": 3751,
      "참는": 3752,
      "코스": 3753,
      "콩깍": 3754,
      "타기": 3755,
      "통해": 3756,
      "투자": 3757,
      "패턴": 3758,
      "평가": 3759,
      "포근": 3760,
      "핑계": 3761,
      "하대": 3762,
      "하라고": 3763,
      "학기": 3764,
      "학생": 3765,
      "함을": 3766,
      "회원": 3767,
      "휴식": 3768,
      "흐르": 3769,
      "좋아했던": 3770,
      "사랑했": 3771,
      "마음대로": 3772,
      "이별도": 3773,
      "이별에": 3774,
      "하지는": 3775,
      "있을까요": 3776,
      "이제야": 3777,
      "아니니까요": 3778,
      "연애로": 3779,
      "연애에": 3780,
      "들어보세요": 3781,
      "정리하는": 3782,
      "결혼은": 3783,
      "결혼하면": 3784,
      "행복은": 3785,
      "행복을": 3786,
      "조금이라도": 3787,
      "다가가보세요": 3788,
      "고민임": 3789,
      "고백을": 3790,
      "짝사랑은": 3791,
      "헤어지면": 3792,
      "헤어지지": 3793,
      "인가봅니다": 3794,
      "그녀에게": 3795,
      "가능해요": 3796,
      "감정의": 3797,
      "여자친구에게": 3798,
      "알아차": 3799,
      "해주면": 3800,
      "상대에게": 3801,
      "있었으면": 3802,
      "표현을": 3803,
      "표현해보세요": 3804,
      "이었길": 3805,
      "이해가": 3806,
      "보내는": 3807,
      "생겼네": 3808,
      "이유는": 3809,
      "노력하는": 3810,
      "회사는": 3811,
      "전화가": 3812,
      "않아서": 3813,
      "재미가": 3814,
      "어려워요": 3815,
      "인생을": 3816,
      "스트레스가": 3817,
      "달라진": 3818,
      "위로봇": 3819,
      "답답해": 3820,
      "되었습니다": 3821,
      "기대세요": 3822,
      "다음부터": 3823,
      "현실을": 3824,
      "현실적인": 3825,
      "거리를": 3826,
      "소리가": 3827,
      "마지막으로": 3828,
      "보이지": 3829,
      "다르겠죠": 3830,
      "기다리면": 3831,
      "고생했어요": 3832,
      "가끔은": 3833,
      "내려놓": 3834,
      "복잡한": 3835,
      "복잡하겠어요": 3836,
      "직장에서": 3837,
      "배우는": 3838,
      "주변에": 3839,
      "익숙해지": 3840,
      "지났네요": 3841,
      "마련이에요": 3842,
      "마련이죠": 3843,
      "주말에": 3844,
      "자체가": 3845,
      "기간이": 3846,
      "바쁘거나": 3847,
      "어울리는": 3848,
      "헤아리는": 3849,
      "로맨틱한": 3850,
      "로맨틱하네요": 3851,
      "두근거리": 3852,
      "슬프네요": 3853,
      "타이밍이": 3854,
      "흔들리지": 3855,
      "부탁해보세요": 3856,
      "감사합니다": 3857,
      "본인의": 3858,
      "완벽한": 3859,
      "시어머니가": 3860,
      "현재를": 3861,
      "골라보세요": 3862,
      "오랫동안": 3863,
      "꽃다발": 3864,
      "4개월": 3865,
      "가만": 3866,
      "가짐": 3867,
      "가네요": 3868,
      "간단": 3869,
      "감고": 3870,
      "강아지": 3871,
      "갖지": 3872,
      "같다": 3873,
      "거는": 3874,
      "걸어": 3875,
      "걸요": 3876,
      "것같아": 3877,
      "겹살": 3878,
      "공개": 3879,
      "공평": 3880,
      "교통": 3881,
      "구멍": 3882,
      "그를": 3883,
      "그립": 3884,
      "기숙": 3885,
      "기준": 3886,
      "길게": 3887,
      "길러": 3888,
      "김에": 3889,
      "까먹었다": 3890,
      "깨요": 3891,
      "꼬박": 3892,
      "끝에": 3893,
      "남지": 3894,
      "남에게": 3895,
      "내게": 3896,
      "냈어": 3897,
      "너도": 3898,
      "노는": 3899,
      "눈치가": 3900,
      "느낄": 3901,
      "늘어요": 3902,
      "다닐": 3903,
      "단계": 3904,
      "담을": 3905,
      "대해서": 3906,
      "도가": 3907,
      "됐어요": 3908,
      "되겠지": 3909,
      "딸기": 3910,
      "때로": 3911,
      "뛰어": 3912,
      "라이": 3913,
      "럽게": 3914,
      "려나": 3915,
      "렸나봐요": 3916,
      "로또": 3917,
      "리네": 3918,
      "마셨": 3919,
      "만으로": 3920,
      "만드는": 3921,
      "많지": 3922,
      "말해주세요": 3923,
      "말이네요": 3924,
      "말해볼까": 3925,
      "맛나게": 3926,
      "망가": 3927,
      "매너": 3928,
      "먹으": 3929,
      "먹어보세요": 3930,
      "멀리": 3931,
      "메모": 3932,
      "모자": 3933,
      "무색": 3934,
      "문신": 3935,
      "뭐라": 3936,
      "뭐할까": 3937,
      "바다": 3938,
      "반응": 3939,
      "받으세요": 3940,
      "버리는": 3941,
      "보시": 3942,
      "봅시다": 3943,
      "봉사": 3944,
      "봐서": 3945,
      "불안": 3946,
      "불공평": 3947,
      "비난": 3948,
      "비참": 3949,
      "빠져": 3950,
      "빼고": 3951,
      "뻔했어": 3952,
      "사면": 3953,
      "사는게": 3954,
      "사야지": 3955,
      "사정이": 3956,
      "삼겹살": 3957,
      "새해": 3958,
      "성별": 3959,
      "성향": 3960,
      "세포": 3961,
      "센터": 3962,
      "소음": 3963,
      "수면": 3964,
      "순위": 3965,
      "스는": 3966,
      "시는": 3967,
      "시도": 3968,
      "신뢰": 3969,
      "신중": 3970,
      "신나는": 3971,
      "실내": 3972,
      "싸워": 3973,
      "썸인가": 3974,
      "쓰지": 3975,
      "악몽": 3976,
      "애교": 3977,
      "애를": 3978,
      "야할까": 3979,
      "어주세요": 3980,
      "었다": 3981,
      "에너": 3982,
      "여우": 3983,
      "였는데": 3984,
      "왤케": 3985,
      "외국": 3986,
      "요일": 3987,
      "우스": 3988,
      "웃을": 3989,
      "웬수": 3990,
      "위기": 3991,
      "위해서": 3992,
      "육아": 3993,
      "은퇴": 3994,
      "음식을": 3995,
      "의식": 3996,
      "의욕": 3997,
      "이스": 3998,
      "이직": 3999,
      "이세요": 4000,
      "인턴": 4001,
      "일년": 4002,
      "읽어보세요": 4003,
      "입어": 4004,
      "있기": 4005,
      "있나봅니다": 4006,
      "자괴": 4007,
      "잡아": 4008,
      "적금": 4009,
      "점에서": 4010,
      "정류": 4011,
      "정보": 4012,
      "정을": 4013,
      "좋았는데": 4014,
      "주기": 4015,
      "줘보세요": 4016,
      "지갑": 4017,
      "착한": 4018,
      "참견": 4019,
      "찾는": 4020,
      "찾기를": 4021,
      "처리": 4022,
      "천재": 4023,
      "청해보세요": 4024,
      "체육": 4025,
      "쳐다": 4026,
      "쳤어": 4027,
      "충격": 4028,
      "취해보세요": 4029,
      "컨디션": 4030,
      "크림": 4031,
      "탈출": 4032,
      "통수": 4033,
      "특별": 4034,
      "표시": 4035,
      "풀어": 4036,
      "하든": 4037,
      "하겠지": 4038,
      "한숨": 4039,
      "한다는": 4040,
      "해외": 4041,
      "해달라고": 4042,
      "했네요": 4043,
      "했지만": 4044,
      "했나봅니다": 4045,
      "허무": 4046,
      "헛헛": 4047,
      "활동": 4048,
      "흐르고": 4049,
      "사람인가봐요": 4050,
      "좋아하시": 4051,
      "좋아하나봐요": 4052,
      "사랑과": 4053,
      "사랑도": 4054,
      "사랑했나봐요": 4055,
      "생각했는데": 4056,
      "생각했나봐요": 4057,
      "같아서": 4058,
      "좋아하는거": 4059,
      "여자와": 4060,
      "남자한테": 4061,
      "만나도": 4062,
      "오늘이": 4063,
      "오늘따라": 4064,
      "자신감": 4065,
      "에게나": 4066,
      "아니죠": 4067,
      "아니지만": 4068,
      "싶다고": 4069,
      "모르게": 4070,
      "없어도": 4071,
      "들어와": 4072,
      "혼자도": 4073,
      "결혼할": 4074,
      "결혼해도": 4075,
      "행복해지": 4076,
      "사랑이네요": 4077,
      "물어보는게": 4078,
      "고백하면": 4079,
      "짝녀에게": 4080,
      "그럴까": 4081,
      "후회는": 4082,
      "받아보세요": 4083,
      "헤어지자": 4084,
      "여행도": 4085,
      "공부해서": 4086,
      "하루도": 4087,
      "여자친구한테": 4088,
      "걱정이": 4089,
      "싫어하는": 4090,
      "알아보고": 4091,
      "관심사를": 4092,
      "데이트를": 4093,
      "기억이": 4094,
      "머리랑": 4095,
      "어떨까": 4096,
      "나만의": 4097,
      "누구든": 4098,
      "보내주세요": 4099,
      "생겼으면": 4100,
      "궁금해요": 4101,
      "많아서": 4102,
      "어디까지": 4103,
      "아프지": 4104,
      "노력하겠습니다": 4105,
      "회사와": 4106,
      "그러고": 4107,
      "잘못된": 4108,
      "잘못인": 4109,
      "느낌이야": 4110,
      "사이에": 4111,
      "만들고": 4112,
      "답답한": 4113,
      "습관이네요": 4114,
      "챙겨드세요": 4115,
      "현실의": 4116,
      "세상은": 4117,
      "세상에서": 4118,
      "그렇다면": 4119,
      "의미부여": 4120,
      "추천해요": 4121,
      "아침이": 4122,
      "안되네": 4123,
      "영화관": 4124,
      "일어났": 4125,
      "보이는": 4126,
      "그리운": 4127,
      "다르겠지요": 4128,
      "사람들은": 4129,
      "모든걸": 4130,
      "성공할": 4131,
      "기다리지": 4132,
      "기다리는게": 4133,
      "하시군요": 4134,
      "생활이": 4135,
      "관리하세요": 4136,
      "실수를": 4137,
      "가족이": 4138,
      "끝났네": 4139,
      "끝났어": 4140,
      "따뜻할": 4141,
      "아이돌": 4142,
      "놀러가고": 4143,
      "시원하게": 4144,
      "우울해": 4145,
      "나아졌": 4146,
      "나아질": 4147,
      "버렸네": 4148,
      "번호를": 4149,
      "여유가": 4150,
      "끝나고": 4151,
      "부족한": 4152,
      "방학이": 4153,
      "소식이네요": 4154,
      "더라구": 4155,
      "마셔야지": 4156,
      "하늘을": 4157,
      "기회를": 4158,
      "종교가": 4159,
      "2주가": 4160,
      "이번에는": 4161,
      "생각만해도": 4162,
      "거기까지인가봐요": 4163,
      "두달이": 4164,
      "불편해": 4165,
      "생기면": 4166,
      "집안일": 4167,
      "나타날": 4168,
      "잠수이별": 4169,
      "그럼요": 4170,
      "느끼는": 4171,
      "우연히": 4172,
      "괜찮아졌길": 4173,
      "가벼운": 4174,
      "기념일": 4175,
      "목소리를": 4176,
      "보일러": 4177,
      "이루어": 4178,
      "미세먼지": 4179,
      "긍정적인": 4180,
      "나쁘지": 4181,
      "아까워": 4182,
      "유지하는": 4183,
      "단단히": 4184,
      "소화제": 4185,
      "달콤한": 4186,
      "청첩장": 4187,
      "아무렇지도": 4188,
      "발렌타": 4189,
      "회원정보": 4190,
      "기숙사": 4191,
      "0일": 4192,
      "가길": 4193,
      "가려": 4194,
      "가는게": 4195,
      "간대": 4196,
      "간사": 4197,
      "갈거예요": 4198,
      "갔는데": 4199,
      "강렬": 4200,
      "같다고": 4201,
      "거였": 4202,
      "거요": 4203,
      "거라고": 4204,
      "건들": 4205,
      "건조": 4206,
      "걸까요": 4207,
      "검색": 4208,
      "것들이": 4209,
      "것처럼": 4210,
      "겨우": 4211,
      "겼는데": 4212,
      "고가": 4213,
      "고칠": 4214,
      "그저": 4215,
      "그사람": 4216,
      "그분이": 4217,
      "기력": 4218,
      "기한": 4219,
      "깜빡": 4220,
      "깨닫": 4221,
      "꿈은": 4222,
      "끝도": 4223,
      "난방": 4224,
      "남는": 4225,
      "남들이": 4226,
      "낭만": 4227,
      "내기": 4228,
      "냉정": 4229,
      "너는": 4230,
      "노트": 4231,
      "노후": 4232,
      "놀죠": 4233,
      "다정": 4234,
      "단둘이": 4235,
      "답장이": 4236,
      "대리": 4237,
      "도는": 4238,
      "도를": 4239,
      "동료": 4240,
      "동성": 4241,
      "동호": 4242,
      "되겠어요": 4243,
      "될거예요": 4244,
      "뒤에서": 4245,
      "드름": 4246,
      "든든": 4247,
      "듯합니다": 4248,
      "라우": 4249,
      "란게": 4250,
      "랑이": 4251,
      "렸을": 4252,
      "리러": 4253,
      "마침": 4254,
      "막말": 4255,
      "많으면": 4256,
      "말로": 4257,
      "말하고": 4258,
      "말해도": 4259,
      "말라고": 4260,
      "말해줘": 4261,
      "맞을까": 4262,
      "맞을거예요": 4263,
      "매달": 4264,
      "매주": 4265,
      "먹지": 4266,
      "멋져요": 4267,
      "멍청": 4268,
      "못했": 4269,
      "무게": 4270,
      "무기력": 4271,
      "바이": 4272,
      "바라는": 4273,
      "발목": 4274,
      "버티": 4275,
      "변하는": 4276,
      "보게": 4277,
      "보단": 4278,
      "봐야": 4279,
      "부드": 4280,
      "부르": 4281,
      "비싼": 4282,
      "뿐이": 4283,
      "사겨": 4284,
      "사내": 4285,
      "살지": 4286,
      "살아요": 4287,
      "상의": 4288,
      "새출발": 4289,
      "생리": 4290,
      "서툴": 4291,
      "선배가": 4292,
      "섬유": 4293,
      "성숙": 4294,
      "성형": 4295,
      "세워": 4296,
      "셀카": 4297,
      "소모": 4298,
      "속은": 4299,
      "수건": 4300,
      "수다": 4301,
      "술만": 4302,
      "스피": 4303,
      "식으로": 4304,
      "싶었던": 4305,
      "썸에서": 4306,
      "아기": 4307,
      "아깝": 4308,
      "안할": 4309,
      "알기": 4310,
      "앞두고": 4311,
      "약을": 4312,
      "어이": 4313,
      "어필": 4314,
      "언니": 4315,
      "여드름": 4316,
      "였으면": 4317,
      "오니까": 4318,
      "올랐": 4319,
      "올해": 4320,
      "욕심": 4321,
      "우는": 4322,
      "유학": 4323,
      "유효": 4324,
      "을거라": 4325,
      "을텐데": 4326,
      "인다": 4327,
      "인인데": 4328,
      "인스타": 4329,
      "일차": 4330,
      "일들이": 4331,
      "일부터": 4332,
      "읽씹": 4333,
      "입고": 4334,
      "입이": 4335,
      "입지": 4336,
      "잇몸": 4337,
      "자도": 4338,
      "잡으세요": 4339,
      "장에": 4340,
      "적게": 4341,
      "적령": 4342,
      "적을": 4343,
      "적이야": 4344,
      "전혀": 4345,
      "정의": 4346,
      "정해보세요": 4347,
      "제게": 4348,
      "제주": 4349,
      "좋으시": 4350,
      "주의": 4351,
      "주저": 4352,
      "줄어": 4353,
      "중국어": 4354,
      "즐겁": 4355,
      "증거를": 4356,
      "지길": 4357,
      "지울": 4358,
      "지치": 4359,
      "지하": 4360,
      "차례": 4361,
      "참지": 4362,
      "참아보세요": 4363,
      "책을": 4364,
      "철벽": 4365,
      "첫사랑이": 4366,
      "초콜": 4367,
      "최근": 4368,
      "축복": 4369,
      "출퇴근": 4370,
      "침대": 4371,
      "침이": 4372,
      "칼로": 4373,
      "크닉": 4374,
      "키가": 4375,
      "타다": 4376,
      "타던": 4377,
      "타다가": 4378,
      "택배": 4379,
      "터가": 4380,
      "터놓고": 4381,
      "토닥": 4382,
      "트라우": 4383,
      "티를": 4384,
      "풀고": 4385,
      "풀렸": 4386,
      "풀어보세요": 4387,
      "피크닉": 4388,
      "하냐": 4389,
      "하며": 4390,
      "하실": 4391,
      "하자": 4392,
      "하다는": 4393,
      "하우스": 4394,
      "할지": 4395,
      "할거라": 4396,
      "할거야": 4397,
      "해가": 4398,
      "해낼": 4399,
      "해보고": 4400,
      "해줬으면": 4401,
      "향수": 4402,
      "호의": 4403,
      "회복": 4404,
      "후유증": 4405,
      "흥미": 4406,
      "사람인데": 4407,
      "좋아했는데": 4408,
      "사랑에는": 4409,
      "생각날": 4410,
      "생각해도": 4411,
      "생각할까": 4412,
      "생각해봐요": 4413,
      "친구도": 4414,
      "친구라고": 4415,
      "마음과": 4416,
      "마음만": 4417,
      "이별하고": 4418,
      "있을지": 4419,
      "여자는": 4420,
      "여자들이": 4421,
      "힘들지요": 4422,
      "사람이니까요": 4423,
      "사람이라면": 4424,
      "만나러": 4425,
      "해야하는": 4426,
      "이제라도": 4427,
      "좋을까요": 4428,
      "아니고": 4429,
      "아니네요": 4430,
      "연애하고": 4431,
      "필요하겠어요": 4432,
      "필요했을": 4433,
      "모르는게": 4434,
      "혼자만의": 4435,
      "일이죠": 4436,
      "정리하세요": 4437,
      "인데이": 4438,
      "정말로": 4439,
      "지금보다": 4440,
      "결혼적령": 4441,
      "하나라도": 4442,
      "준비하고": 4443,
      "아직은": 4444,
      "선물로": 4445,
      "물어봐요": 4446,
      "고백하는": 4447,
      "고백하고": 4448,
      "이야기해도": 4449,
      "그럴만": 4450,
      "하기로": 4451,
      "시작하세요": 4452,
      "그녀와": 4453,
      "가능해": 4454,
      "가능합니다": 4455,
      "여행은": 4456,
      "하루를": 4457,
      "하루에도": 4458,
      "신경을": 4459,
      "신경이": 4460,
      "다는건": 4461,
      "상대가": 4462,
      "힘들어하지": 4463,
      "기억을": 4464,
      "상처받": 4465,
      "상처받지": 4466,
      "있었는데": 4467,
      "있었나요": 4468,
      "언제까지": 4469,
      "표현하는": 4470,
      "오래된": 4471,
      "하다니": 4472,
      "누구에게나": 4473,
      "결정은": 4474,
      "내일도": 4475,
      "부담스러운": 4476,
      "미련은": 4477,
      "노력하면": 4478,
      "나한테만": 4479,
      "직접적이든": 4480,
      "그러게요": 4481,
      "않았나봐요": 4482,
      "그만하고": 4483,
      "처음에": 4484,
      "사이에서": 4485,
      "우리가": 4486,
      "축하합니다": 4487,
      "답답하네": 4488,
      "되었나봐요": 4489,
      "맞는지": 4490,
      "화장하는": 4491,
      "다음에": 4492,
      "보여주세요": 4493,
      "생각나고": 4494,
      "말씀하세요": 4495,
      "정신이": 4496,
      "그렇죠": 4497,
      "순간이": 4498,
      "만남이었길": 4499,
      "안되는데": 4500,
      "안되겠지": 4501,
      "헤어짐을": 4502,
      "지내는": 4503,
      "정도는": 4504,
      "정도로": 4505,
      "아닐까": 4506,
      "모든게": 4507,
      "성공하길": 4508,
      "잊혀질": 4509,
      "엄마한테": 4510,
      "연습이": 4511,
      "하시네요": 4512,
      "문제로": 4513,
      "떠나고": 4514,
      "떠나보세요": 4515,
      "무시하는": 4516,
      "도와주": 4517,
      "별로라고": 4518,
      "아픔을": 4519,
      "아픔의": 4520,
      "학교에서": 4521,
      "기다려주세요": 4522,
      "받아들이기": 4523,
      "환승은": 4524,
      "운명이": 4525,
      "해줄까": 4526,
      "느껴져": 4527,
      "차이가": 4528,
      "하려는": 4529,
      "하려면": 4530,
      "자존심": 4531,
      "카페에서": 4532,
      "자체로": 4533,
      "태어났": 4534,
      "상담을": 4535,
      "어렵네": 4536,
      "아름답": 4537,
      "바라지": 4538,
      "취미생활": 4539,
      "당연하죠": 4540,
      "거기까지였나봐요": 4541,
      "헤아리지": 4542,
      "키우고": 4543,
      "고마워": 4544,
      "힘내지": 4545,
      "경험이": 4546,
      "버텨보세요": 4547,
      "그랬나봐요": 4548,
      "계획을": 4549,
      "속상해": 4550,
      "없애는": 4551,
      "비교하지": 4552,
      "아빠가": 4553,
      "연락처를": 4554,
      "미친듯이": 4555,
      "차가워": 4556,
      "말투가": 4557,
      "사회생활": 4558,
      "결정이었을텐데": 4559,
      "자세히": 4560,
      "달달한": 4561,
      "기분전환을": 4562,
      "30분": 4563,
      "간접적이든": 4564,
      "억지로라도": 4565,
      "모른척": 4566,
      "밝혀보세요": 4567,
      "빠를수록": 4568,
      "위로봇입니다": 4569,
      "다음부터는": 4570,
      "가만히": 4571,
      "봉사활동": 4572,
      "정류장에서": 4573,
      "주기적으로": 4574,
      "발렌타인데이": 4575,
      "노트북": 4576,
      "동료가": 4577,
      "동호회": 4578,
      "마침표": 4579,
      "제주도": 4580,
      "지하철": 4581,
      "초콜릿": 4582,
      "트라우마": 4583,
      "후유증이": 4584,
      "1주": 4585,
      "3일째": 4586,
      "가게": 4587,
      "가늠": 4588,
      "가득": 4589,
      "가을": 4590,
      "가사가": 4591,
      "간질": 4592,
      "갈때": 4593,
      "감수": 4594,
      "감은": 4595,
      "감히": 4596,
      "갔네": 4597,
      "강습": 4598,
      "거둘": 4599,
      "거에": 4600,
      "거겠지": 4601,
      "건가요": 4602,
      "걸려": 4603,
      "걸음": 4604,
      "것들": 4605,
      "겠음": 4606,
      "겠는데": 4607,
      "겨워": 4608,
      "고고": 4609,
      "고기": 4610,
      "곰곰": 4611,
      "공감": 4612,
      "공원": 4613,
      "관련": 4614,
      "괴로워": 4615,
      "구경": 4616,
      "구해보세요": 4617,
      "구하세요": 4618,
      "군침이": 4619,
      "귀를": 4620,
      "그가": 4621,
      "금연": 4622,
      "기업": 4623,
      "기프": 4624,
      "길에서": 4625,
      "김치": 4626,
      "깊게": 4627,
      "꾸며": 4628,
      "끄러": 4629,
      "끝날": 4630,
      "끼리": 4631,
      "나누": 4632,
      "나빠": 4633,
      "나왔": 4634,
      "나는데": 4635,
      "나오세요": 4636,
      "낫겠지": 4637,
      "났네": 4638,
      "내면": 4639,
      "내일이": 4640,
      "너덜": 4641,
      "넘었네": 4642,
      "놀다": 4643,
      "놓지": 4644,
      "놓으세요": 4645,
      "누굴": 4646,
      "눈썹": 4647,
      "느낀": 4648,
      "늙어": 4649,
      "능력": 4650,
      "능력을": 4651,
      "늦어": 4652,
      "다되": 4653,
      "다툼": 4654,
      "단순": 4655,
      "단호": 4656,
      "달이": 4657,
      "대우": 4658,
      "대중": 4659,
      "대회": 4660,
      "대화가": 4661,
      "더러워": 4662,
      "덜할": 4663,
      "도네요": 4664,
      "도대체": 4665,
      "동감": 4666,
      "두절": 4667,
      "득템": 4668,
      "듣기": 4669,
      "듣는데": 4670,
      "들리": 4671,
      "들면": 4672,
      "들여보세요": 4673,
      "때려": 4674,
      "떠세요": 4675,
      "떠보는": 4676,
      "뜻대로": 4677,
      "라서": 4678,
      "락가락": 4679,
      "런하시네요": 4680,
      "로봇": 4681,
      "막차": 4682,
      "막힌": 4683,
      "많네": 4684,
      "많다": 4685,
      "말한": 4686,
      "말해봐요": 4687,
      "맛도": 4688,
      "맛있을": 4689,
      "맛있어요": 4690,
      "망했어": 4691,
      "맞지": 4692,
      "맞춤": 4693,
      "매번": 4694,
      "머리는": 4695,
      "먹은": 4696,
      "먹었는데": 4697,
      "며칠": 4698,
      "면증": 4699,
      "모임": 4700,
      "모아서": 4701,
      "못하면": 4702,
      "못했던": 4703,
      "못했나봐요": 4704,
      "무릎": 4705,
      "무작": 4706,
      "물이": 4707,
      "미칠": 4708,
      "미팅": 4709,
      "바늘": 4710,
      "바닥": 4711,
      "바디": 4712,
      "바지": 4713,
      "바퀴": 4714,
      "반에": 4715,
      "발이": 4716,
      "버는": 4717,
      "버린": 4718,
      "버림": 4719,
      "법을": 4720,
      "벤트": 4721,
      "변해": 4722,
      "변하지": 4723,
      "보네": 4724,
      "보름": 4725,
      "보며": 4726,
      "보자고": 4727,
      "봐야지": 4728,
      "부부": 4729,
      "불타": 4730,
      "불안해": 4731,
      "불면증": 4732,
      "붙여보세요": 4733,
      "비행": 4734,
      "빌려보세요": 4735,
      "빠른": 4736,
      "뽑기": 4737,
      "사보세요": 4738,
      "살면": 4739,
      "살았": 4740,
      "살면서": 4741,
      "삶의": 4742,
      "새학기": 4743,
      "서류": 4744,
      "선배": 4745,
      "설계": 4746,
      "설명": 4747,
      "성덕": 4748,
      "성적": 4749,
      "세우": 4750,
      "셔요": 4751,
      "셨군요": 4752,
      "소액": 4753,
      "소유": 4754,
      "소주": 4755,
      "소심해": 4756,
      "수를": 4757,
      "수염": 4758,
      "수영": 4759,
      "수증": 4760,
      "수학": 4761,
      "술먹고": 4762,
      "쉽진": 4763,
      "슈퍼": 4764,
      "스터": 4765,
      "스팸": 4766,
      "스크림": 4767,
      "슬쩍": 4768,
      "슬픔": 4769,
      "실례": 4770,
      "싫다고": 4771,
      "심어": 4772,
      "심으로": 4773,
      "심한가봐요": 4774,
      "심하겠네요": 4775,
      "쌩얼": 4776,
      "썸만": 4777,
      "썸일": 4778,
      "썼어": 4779,
      "씻고": 4780,
      "아님": 4781,
      "아련": 4782,
      "아쉬": 4783,
      "아쉽": 4784,
      "아주": 4785,
      "안에": 4786,
      "안주": 4787,
      "않겠어요": 4788,
      "않는게": 4789,
      "않지만": 4790,
      "알뜰": 4791,
      "알았어": 4792,
      "애석": 4793,
      "애틋": 4794,
      "야해요": 4795,
      "야겠지": 4796,
      "야하는데": 4797,
      "양해": 4798,
      "얘기를": 4799,
      "어둠": 4800,
      "어리": 4801,
      "어젯": 4802,
      "없고": 4803,
      "없겠지": 4804,
      "없는게": 4805,
      "었길": 4806,
      "었겠네요": 4807,
      "었습니다": 4808,
      "었나봐": 4809,
      "였던": 4810,
      "였을": 4811,
      "영상": 4812,
      "영수증": 4813,
      "예전": 4814,
      "오길": 4815,
      "오르": 4816,
      "오토": 4817,
      "오히": 4818,
      "오락가락": 4819,
      "올거예요": 4820,
      "옷이": 4821,
      "왕따": 4822,
      "요금": 4823,
      "요리": 4824,
      "우린": 4825,
      "우니까": 4826,
      "웃어": 4827,
      "웃어보세요": 4828,
      "음식": 4829,
      "의견": 4830,
      "의사": 4831,
      "의외로": 4832,
      "이뻐": 4833,
      "이쁜": 4834,
      "이크": 4835,
      "이겠죠": 4836,
      "이벤트": 4837,
      "인건가": 4838,
      "일단": 4839,
      "잃어": 4840,
      "자가": 4841,
      "자를": 4842,
      "자요": 4843,
      "자취": 4844,
      "잖아": 4845,
      "잘라": 4846,
      "잘해주는": 4847,
      "잠재": 4848,
      "적이에요": 4849,
      "적이죠": 4850,
      "전과": 4851,
      "전세": 4852,
      "전역": 4853,
      "절한": 4854,
      "점은": 4855,
      "접어두": 4856,
      "졌는데": 4857,
      "조용": 4858,
      "조카": 4859,
      "좋게": 4860,
      "좋고": 4861,
      "좋습니다": 4862,
      "주름": 4863,
      "주차": 4864,
      "주택": 4865,
      "줄여보세요": 4866,
      "중2": 4867,
      "중고": 4868,
      "증오": 4869,
      "지긋": 4870,
      "지냈": 4871,
      "지옥": 4872,
      "지죠": 4873,
      "지키": 4874,
      "지세요": 4875,
      "지말고": 4876,
      "지르고": 4877,
      "지겨워": 4878,
      "진행": 4879,
      "질러": 4880,
      "질방": 4881,
      "짜장면": 4882,
      "짧지": 4883,
      "찌질": 4884,
      "찜질방": 4885,
      "차갑": 4886,
      "창업": 4887,
      "책임": 4888,
      "첫인상": 4889,
      "쳐보세요": 4890,
      "초기": 4891,
      "최대한": 4892,
      "추석": 4893,
      "추운": 4894,
      "치맥": 4895,
      "치열": 4896,
      "치워": 4897,
      "치유": 4898,
      "케이스": 4899,
      "코가": 4900,
      "키워": 4901,
      "탈퇴": 4902,
      "테리": 4903,
      "통화": 4904,
      "트업": 4905,
      "트콘": 4906,
      "티가": 4907,
      "파먹기": 4908,
      "평온": 4909,
      "푸는": 4910,
      "피자": 4911,
      "필름": 4912,
      "하더니": 4913,
      "학점": 4914,
      "한강": 4915,
      "합격": 4916,
      "해준": 4917,
      "해진": 4918,
      "해하지": 4919,
      "해봐도": 4920,
      "했길": 4921,
      "허리": 4922,
      "형이": 4923,
      "형편": 4924,
      "혼란": 4925,
      "혼술": 4926,
      "화나": 4927,
      "화이트": 4928,
      "효도": 4929,
      "휴식을": 4930,
      "흔적": 4931,
      "희생": 4932,
      "힘껏": 4933,
      "사람만": 4934,
      "좋아질": 4935,
      "좋아하지": 4936,
      "사랑하기": 4937,
      "사랑받고": 4938,
      "마음에서": 4939,
      "이별했습니다": 4940,
      "연락해서": 4941,
      "하지요": 4942,
      "힘들고": 4943,
      "힘들거예요": 4944,
      "힘들지도": 4945,
      "시간표": 4946,
      "사람이다": 4947,
      "만나길": 4948,
      "만나는데": 4949,
      "오늘부터": 4950,
      "해야돼": 4951,
      "자신과": 4952,
      "괜찮다면": 4953,
      "괜찮지만": 4954,
      "아니랍니다": 4955,
      "아니라는": 4956,
      "연애의": 4957,
      "할까봐": 4958,
      "마음이라도": 4959,
      "싶다는": 4960,
      "필요한가봐요": 4961,
      "시간이겠네요": 4962,
      "들어가": 4963,
      "들어도": 4964,
      "들어서": 4965,
      "있어야": 4966,
      "보고싶": 4967,
      "보고싶네": 4968,
      "혼자인": 4969,
      "당신에게": 4970,
      "정리해보세요": 4971,
      "하나봐": 4972,
      "하나봅니다": 4973,
      "중요할": 4974,
      "행복할까": 4975,
      "행복하길": 4976,
      "다가가는": 4977,
      "준비하세요": 4978,
      "고민하게": 4979,
      "찾아가": 4980,
      "힘든데": 4981,
      "물어보고": 4982,
      "이야기해": 4983,
      "그럴지도": 4984,
      "서로가": 4985,
      "받아보는": 4986,
      "사귀면": 4987,
      "사귀어도": 4988,
      "시작해도": 4989,
      "헤어지세요": 4990,
      "헤어지는게": 4991,
      "아닌가봐요": 4992,
      "가능할까": 4993,
      "감정은": 4994,
      "많은가봐요": 4995,
      "여행이": 4996,
      "공부하기": 4997,
      "하루가": 4998,
      "하루에": 4999,
      "하루종일": 5000,
      "기분은": 5001,
      "힘드신가봐요": 5002,
      "걱정은": 5003,
      "걱정되겠네요": 5004,
      "싫어하지": 5005,
      "해주지": 5006,
      "데이트가": 5007,
      "남자친구한테": 5008,
      "상처는": 5009,
      "스러울": 5010,
      "자기도": 5011,
      "언제든": 5012,
      "돌아가고": 5013,
      "않을거예요": 5014,
      "누구도": 5015,
      "이해할": 5016,
      "이해해": 5017,
      "생겼어요": 5018,
      "결정할": 5019,
      "궁금할": 5020,
      "운동으로": 5021,
      "어디로": 5022,
      "아프고": 5023,
      "노력하고": 5024,
      "지나간": 5025,
      "회사에": 5026,
      "회사에는": 5027,
      "전화하는": 5028,
      "그러는": 5029,
      "노래를": 5030,
      "아파트": 5031,
      "재미있어요": 5032,
      "소개시켜": 5033,
      "신경쓰는": 5034,
      "처음에는": 5035,
      "처음부터": 5036,
      "사이인데": 5037,
      "만들려고": 5038,
      "되었길": 5039,
      "추억은": 5040,
      "추억으로": 5041,
      "기대가": 5042,
      "매일매일": 5043,
      "세상에는": 5044,
      "건강이": 5045,
      "의미가": 5046,
      "의미를": 5047,
      "의미있는": 5048,
      "사랑한다는": 5049,
      "만남과": 5050,
      "만남이": 5051,
      "1년이": 5052,
      "추천합니다": 5053,
      "추천해줘": 5054,
      "다니는": 5055,
      "일어날": 5056,
      "상대방도": 5057,
      "보이스피": 5058,
      "재회를": 5059,
      "커피향": 5060,
      "적이고": 5061,
      "나가기": 5062,
      "얼마든지": 5063,
      "진심이": 5064,
      "성공을": 5065,
      "스타일이": 5066,
      "스타트업": 5067,
      "연습해보세요": 5068,
      "인정받고": 5069,
      "이별이란": 5070,
      "되어가네": 5071,
      "문제는": 5072,
      "시켜보세요": 5073,
      "얼굴이": 5074,
      "좋아할거예요": 5075,
      "상관없어요": 5076,
      "실수할": 5077,
      "실수하지": 5078,
      "도와줘": 5079,
      "별로야": 5080,
      "아픔이": 5081,
      "피곤한가봐요": 5082,
      "행복해질": 5083,
      "가야죠": 5084,
      "가야겠죠": 5085,
      "끝났으면": 5086,
      "하셨어요": 5087,
      "마주치": 5088,
      "아이스크림": 5089,
      "안녕히": 5090,
      "안녕하세요": 5091,
      "배우면": 5092,
      "행동이": 5093,
      "익숙해질": 5094,
      "집착해": 5095,
      "집착하는": 5096,
      "나을지도": 5097,
      "도전해": 5098,
      "무엇을": 5099,
      "먹으면서": 5100,
      "잊는다는": 5101,
      "포기하는": 5102,
      "그분의": 5103,
      "응원해요": 5104,
      "소식이": 5105,
      "싸우면": 5106,
      "싸우면서": 5107,
      "전남친이": 5108,
      "월급이": 5109,
      "진정으로": 5110,
      "충전하세요": 5111,
      "비밀번호": 5112,
      "청소를": 5113,
      "경우가": 5114,
      "경우도": 5115,
      "바쁘면": 5116,
      "약속을": 5117,
      "한가봅니다": 5118,
      "사랑할수록": 5119,
      "당연히": 5120,
      "퇴근길": 5121,
      "10년": 5122,
      "드시고": 5123,
      "안경테": 5124,
      "예민한가봐요": 5125,
      "올려달라고": 5126,
      "차분하게": 5127,
      "학원을": 5128,
      "두근거": 5129,
      "쉬어야": 5130,
      "이기적인": 5131,
      "선생님이": 5132,
      "집중이": 5133,
      "집중하세요": 5134,
      "최선을": 5135,
      "프로필": 5136,
      "동생한테": 5137,
      "보냈어": 5138,
      "우선순위": 5139,
      "집안일을": 5140,
      "인상이": 5141,
      "좋아한다고": 5142,
      "고쳐쓰는": 5143,
      "귀엽게": 5144,
      "아는데도": 5145,
      "피부가": 5146,
      "견디고": 5147,
      "괴롭게": 5148,
      "이용해주세요": 5149,
      "거울을": 5150,
      "계절이": 5151,
      "미래에": 5152,
      "신고하세요": 5153,
      "영원한": 5154,
      "선택일거라": 5155,
      "놀아줘": 5156,
      "치과에": 5157,
      "휴가가": 5158,
      "공허함이": 5159,
      "권태기": 5160,
      "남사친이": 5161,
      "택시비": 5162,
      "안타깝네요": 5163,
      "심호흡해보세요": 5164,
      "다양하게": 5165,
      "두번째": 5166,
      "차근차근": 5167,
      "현금영수증": 5168,
      "지나갔길": 5169,
      "각자의": 5170,
      "셀프웨딩": 5171,
      "고맙다": 5172,
      "부딪혔": 5173,
      "애정표현": 5174,
      "혼자서도": 5175,
      "스트레칭을": 5176,
      "달라지는게": 5177,
      "드라이브": 5178,
      "벗어나세요": 5179,
      "깨끗하게": 5180,
      "멋지게": 5181,
      "무거워": 5182,
      "베터리": 5183,
      "부지런하시네요": 5184,
      "센스있는": 5185,
      "심경의": 5186,
      "두근거리겠어요": 5187,
      "가짐에": 5188,
      "교통을": 5189,
      "구멍이": 5190,
      "의욕이": 5191,
      "자괴감": 5192,
      "체육대회": 5193,
      "특별한": 5194,
      "부드럽게": 5195,
      "생리통": 5196,
      "주저리": 5197,
      "최근에": 5198,
      "칼로리": 5199,
      "흥미를": 5200,
      "곰곰히": 5201,
      "기프트콘": 5202,
      "꾸며보세요": 5203,
      "대중교통을": 5204,
      "무작정": 5205,
      "비행기": 5206,
      "스터디": 5207,
      "양해를": 5208,
      "오토바이": 5209,
      "오히려": 5210,
      "화이트데이": 5211,
      "보이스피싱": 5212,
      ".?": 5213,
      "1달": 5214,
      "20": 5215,
      "9년": 5216,
      "ㅋㅋ": 5217,
      "가라": 5218,
      "가볍": 5219,
      "가스": 5220,
      "가입": 5221,
      "가려고": 5222,
      "각이": 5223,
      "간식": 5224,
      "간소음": 5225,
      "갈수록": 5226,
      "감싸": 5227,
      "같았": 5228,
      "같으면": 5229,
      "갚아": 5230,
      "개념": 5231,
      "거르세요": 5232,
      "건가봐요": 5233,
      "걸린": 5234,
      "것에": 5235,
      "것입니다": 5236,
      "것들을": 5237,
      "겠다고": 5238,
      "격려": 5239,
      "경제": 5240,
      "고장": 5241,
      "고치고": 5242,
      "곳을": 5243,
      "공간": 5244,
      "괜한": 5245,
      "괴로": 5246,
      "구분": 5247,
      "구속": 5248,
      "그것": 5249,
      "긁었어": 5250,
      "금수": 5251,
      "기네": 5252,
      "기댈": 5253,
      "기름": 5254,
      "기술": 5255,
      "기지": 5256,
      "길은": 5257,
      "꺼내": 5258,
      "꼼꼼": 5259,
      "끄는": 5260,
      "끄러워": 5261,
      "끓여": 5262,
      "끝낼": 5263,
      "끝일": 5264,
      "끝인가": 5265,
      "나날": 5266,
      "나니": 5267,
      "나약": 5268,
      "나갔어": 5269,
      "낚시": 5270,
      "난히": 5271,
      "남들": 5272,
      "남았나봐요": 5273,
      "납니다": 5274,
      "내길": 5275,
      "내내": 5276,
      "냈어요": 5277,
      "냐구": 5278,
      "너한테": 5279,
      "넘었는데": 5280,
      "높아": 5281,
      "눈은": 5282,
      "눈에서": 5283,
      "느냐에": 5284,
      "능에": 5285,
      "늦는": 5286,
      "늦잠": 5287,
      "다운": 5288,
      "다짐": 5289,
      "단톡": 5290,
      "달래": 5291,
      "달콩": 5292,
      "담긴": 5293,
      "담해보세요": 5294,
      "답은": 5295,
      "당분": 5296,
      "대해보세요": 5297,
      "더욱": 5298,
      "독한": 5299,
      "돈은": 5300,
      "돌려": 5301,
      "동산": 5302,
      "됐습니다": 5303,
      "되게": 5304,
      "되돌": 5305,
      "두셨네요": 5306,
      "뒤숭": 5307,
      "뒤통수": 5308,
      "뒷담": 5309,
      "드가": 5310,
      "드레": 5311,
      "드려": 5312,
      "들까": 5313,
      "들려": 5314,
      "들으면": 5315,
      "등산": 5316,
      "등을": 5317,
      "따르": 5318,
      "때매": 5319,
      "때예요": 5320,
      "떠났": 5321,
      "떨쳐": 5322,
      "똑같아": 5323,
      "뜨려": 5324,
      "라는게": 5325,
      "랜선": 5326,
      "력은": 5327,
      "련만": 5328,
      "롭게": 5329,
      "릅니다": 5330,
      "리폼": 5331,
      "마디": 5332,
      "마자": 5333,
      "만드": 5334,
      "말걸": 5335,
      "말자": 5336,
      "말했어": 5337,
      "맘을": 5338,
      "망한": 5339,
      "망했다": 5340,
      "맞나": 5341,
      "맞아": 5342,
      "맞으면": 5343,
      "맞아요": 5344,
      "맡겨보세요": 5345,
      "매력이": 5346,
      "먹는데": 5347,
      "먹자고": 5348,
      "먼지": 5349,
      "먼지가": 5350,
      "면허": 5351,
      "명품": 5352,
      "몇일": 5353,
      "모를": 5354,
      "모쏠": 5355,
      "목이": 5356,
      "몸에": 5357,
      "몸무게": 5358,
      "못난": 5359,
      "못해서": 5360,
      "못하는게": 5361,
      "못참고": 5362,
      "무한": 5363,
      "문을": 5364,
      "문이": 5365,
      "물가": 5366,
      "뭐임": 5367,
      "뭐하는": 5368,
      "미용": 5369,
      "미화": 5370,
      "미끄러": 5371,
      "믿으세요": 5372,
      "믿음을": 5373,
      "바르고": 5374,
      "밖은": 5375,
      "밖에서": 5376,
      "반갑": 5377,
      "반년": 5378,
      "받기": 5379,
      "방문": 5380,
      "배달": 5381,
      "배울": 5382,
      "배정": 5383,
      "배터": 5384,
      "버시": 5385,
      "번씩": 5386,
      "번의": 5387,
      "벌고": 5388,
      "벽에": 5389,
      "변한": 5390,
      "보는데": 5391,
      "보니까": 5392,
      "보기만": 5393,
      "복전": 5394,
      "볼게요": 5395,
      "봄은": 5396,
      "봐보세요": 5397,
      "봤네": 5398,
      "부디": 5399,
      "분노": 5400,
      "불금": 5401,
      "비하": 5402,
      "빌어요": 5403,
      "빠졌": 5404,
      "빠지는": 5405,
      "빨래": 5406,
      "사냐": 5407,
      "사도": 5408,
      "사에": 5409,
      "사탕": 5410,
      "살찐": 5411,
      "살다보면": 5412,
      "상메": 5413,
      "상종": 5414,
      "상하지": 5415,
      "생인데": 5416,
      "생일이네": 5417,
      "서서": 5418,
      "서야": 5419,
      "서툰": 5420,
      "선에서": 5421,
      "설렜": 5422,
      "세월": 5423,
      "셨나": 5424,
      "셨겠어요": 5425,
      "속도를": 5426,
      "손에": 5427,
      "손톱": 5428,
      "손해": 5429,
      "수상": 5430,
      "수준": 5431,
      "술은": 5432,
      "술한잔": 5433,
      "시골": 5434,
      "시겠네요": 5435,
      "식단": 5436,
      "식에": 5437,
      "식은": 5438,
      "신기": 5439,
      "신이": 5440,
      "신가요": 5441,
      "심한": 5442,
      "심장이": 5443,
      "싸웠": 5444,
      "썸인": 5445,
      "쏟아": 5446,
      "쓸쓸": 5447,
      "씁쓸": 5448,
      "아마": 5449,
      "아팠": 5450,
      "안한": 5451,
      "안하지": 5452,
      "안좋은": 5453,
      "알지": 5454,
      "알콩": 5455,
      "았습니다": 5456,
      "애기": 5457,
      "애인": 5458,
      "액션": 5459,
      "야하나": 5460,
      "어깨": 5461,
      "어른": 5462,
      "어리게": 5463,
      "어렸을": 5464,
      "없겠지요": 5465,
      "었나요": 5466,
      "었으니까요": 5467,
      "연속": 5468,
      "연제": 5469,
      "연휴": 5470,
      "염탐": 5471,
      "옆에서": 5472,
      "예약": 5473,
      "오게": 5474,
      "오려": 5475,
      "오를": 5476,
      "오셨": 5477,
      "오죠": 5478,
      "오는데": 5479,
      "오라고": 5480,
      "올게": 5481,
      "옷을": 5482,
      "와닿": 5483,
      "와의": 5484,
      "왔나봐요": 5485,
      "우니": 5486,
      "웃겨": 5487,
      "웃음": 5488,
      "유행": 5489,
      "유난히": 5490,
      "유연제": 5491,
      "으며": 5492,
      "으련만": 5493,
      "은행": 5494,
      "을때": 5495,
      "의금": 5496,
      "이모": 5497,
      "이틀": 5498,
      "인걸까": 5499,
      "인테리": 5500,
      "일반": 5501,
      "일시": 5502,
      "일요": 5503,
      "입에": 5504,
      "입어도": 5505,
      "잊기": 5506,
      "잊으려고": 5507,
      "작아": 5508,
      "잔인": 5509,
      "잘해주세요": 5510,
      "잘하는게": 5511,
      "쟁취": 5512,
      "저분": 5513,
      "적어": 5514,
      "적은": 5515,
      "적이네요": 5516,
      "전기": 5517,
      "전해": 5518,
      "정적인": 5519,
      "제안": 5520,
      "졌네": 5521,
      "좋네요": 5522,
      "좋지요": 5523,
      "좋으련만": 5524,
      "주가": 5525,
      "주려고": 5526,
      "주면서": 5527,
      "주제를": 5528,
      "주식으로": 5529,
      "준다면": 5530,
      "중국": 5531,
      "중이야": 5532,
      "지낼": 5533,
      "지루": 5534,
      "지겠네요": 5535,
      "지저분": 5536,
      "질거": 5537,
      "질이": 5538,
      "질질": 5539,
      "짐을": 5540,
      "집니다": 5541,
      "짧게": 5542,
      "찍고": 5543,
      "찍어": 5544,
      "차리": 5545,
      "착잡": 5546,
      "참석": 5547,
      "참을": 5548,
      "추스": 5549,
      "축제": 5550,
      "축의금": 5551,
      "층간소음": 5552,
      "치기": 5553,
      "친해지": 5554,
      "친해질": 5555,
      "카락": 5556,
      "컴퓨": 5557,
      "코인": 5558,
      "큰일이네요": 5559,
      "키울": 5560,
      "털어": 5561,
      "테니까요": 5562,
      "특징": 5563,
      "틀린": 5564,
      "편의": 5565,
      "편하고": 5566,
      "편하겠죠": 5567,
      "포장": 5568,
      "표정": 5569,
      "프라이": 5570,
      "플라": 5571,
      "하진": 5572,
      "하신가봐요": 5573,
      "하더라고요": 5574,
      "하냐고": 5575,
      "하느냐에": 5576,
      "한계": 5577,
      "한창": 5578,
      "한켠": 5579,
      "한건가": 5580,
      "한순간": 5581,
      "할래": 5582,
      "할줄": 5583,
      "할수록": 5584,
      "함부로": 5585,
      "해보면": 5586,
      "해졌어": 5587,
      "해드릴게요": 5588,
      "했을까": 5589,
      "했나요": 5590,
      "행운": 5591,
      "행운을": 5592,
      "호칭": 5593,
      "활용": 5594,
      "휴가를": 5595,
      "흑역": 5596,
      "좋아서": 5597,
      "좋아했으면": 5598,
      "사랑해요": 5599,
      "생각으로": 5600,
      "생각해서": 5601,
      "친구네": 5602,
      "친구는": 5603,
      "친구와": 5604,
      "친구인데": 5605,
      "하고싶었던": 5606,
      "마음인가봐요": 5607,
      "너무너무": 5608,
      "연락할": 5609,
      "연락했는데": 5610,
      "연락해볼까": 5611,
      "연락두절": 5612,
      "하지도": 5613,
      "있을게요": 5614,
      "여자도": 5615,
      "남자도": 5616,
      "남자애한테": 5617,
      "만나요": 5618,
      "해야겠죠": 5619,
      "자신으로": 5620,
      "좋을거": 5621,
      "좋을지": 5622,
      "아니었을": 5623,
      "연애하는": 5624,
      "연애하면": 5625,
      "연애하는데": 5626,
      "모르겠네": 5627,
      "어떻게든": 5628,
      "어떻게해": 5629,
      "들어줄": 5630,
      "들어주세요": 5631,
      "들어왔어": 5632,
      "짝남에게": 5633,
      "정리될": 5634,
      "정리하고": 5635,
      "인데요": 5636,
      "결혼하는데": 5637,
      "기다렸": 5638,
      "기다림": 5639,
      "준비하는데": 5640,
      "보다는": 5641,
      "보는건": 5642,
      "찾아온": 5643,
      "힘든가봐요": 5644,
      "물어보면": 5645,
      "고백은": 5646,
      "고백할": 5647,
      "이라서": 5648,
      "짝사랑을": 5649,
      "하기가": 5650,
      "후회를": 5651,
      "후회해도": 5652,
      "후회하기": 5653,
      "받아서": 5654,
      "받아야": 5655,
      "사귀던": 5656,
      "시작하기": 5657,
      "시작이죠": 5658,
      "헤어지기": 5659,
      "헤어지는": 5660,
      "아닌거": 5661,
      "아닌가요": 5662,
      "가능하면": 5663,
      "가능하겠죠": 5664,
      "여행가": 5665,
      "공부할": 5666,
      "여자친구를": 5667,
      "여친이랑": 5668,
      "신경써": 5669,
      "걱정할": 5670,
      "걱정된다고": 5671,
      "싫어도": 5672,
      "해주는게": 5673,
      "해주면서": 5674,
      "남자친구를": 5675,
      "남자친구에게": 5676,
      "기억의": 5677,
      "기억에서": 5678,
      "남친이랑": 5679,
      "머리카락": 5680,
      "상처도": 5681,
      "있었을": 5682,
      "표현해": 5683,
      "카톡을": 5684,
      "카톡이": 5685,
      "카톡으로": 5686,
      "함께한": 5687,
      "함께할": 5688,
      "돌아올": 5689,
      "이었나봐요": 5690,
      "이었나봅니다": 5691,
      "누구랑": 5692,
      "보내지": 5693,
      "생겼네요": 5694,
      "어디든": 5695,
      "선택할": 5696,
      "선택이길": 5697,
      "한달하고": 5698,
      "미련도": 5699,
      "지나면": 5700,
      "때문일": 5701,
      "전화해보세요": 5702,
      "그러게": 5703,
      "인연은": 5704,
      "재미없어": 5705,
      "재미있게": 5706,
      "어려울": 5707,
      "인생이죠": 5708,
      "잘못을": 5709,
      "잘못이": 5710,
      "신경쓰여": 5711,
      "해지세요": 5712,
      "상황이네요": 5713,
      "해줘서": 5714,
      "사이로": 5715,
      "중요한데": 5716,
      "되었네": 5717,
      "되었을": 5718,
      "습관이": 5719,
      "추억에": 5720,
      "이어나가": 5721,
      "화장품": 5722,
      "기대를": 5723,
      "기대하지": 5724,
      "현실과": 5725,
      "세상이": 5726,
      "요즘은": 5727,
      "순간이네요": 5728,
      "순간이었을": 5729,
      "만남에": 5730,
      "먹어야겠다": 5731,
      "1년째": 5732,
      "언젠가는": 5733,
      "만들어서": 5734,
      "일어나는": 5735,
      "일어나서": 5736,
      "헤어짐이": 5737,
      "상대방에": 5738,
      "상대방에게": 5739,
      "보이네": 5740,
      "지내길": 5741,
      "귀찮은": 5742,
      "그리울": 5743,
      "그리움": 5744,
      "다르죠": 5745,
      "어제와": 5746,
      "재회는": 5747,
      "나가야": 5748,
      "나가볼까": 5749,
      "성공하고": 5750,
      "잊혀지지": 5751,
      "없을거예요": 5752,
      "인정하고": 5753,
      "인정해주세요": 5754,
      "되어야": 5755,
      "재밌는": 5756,
      "재밌다": 5757,
      "재밌어": 5758,
      "필요한게": 5759,
      "후폭풍은": 5760,
      "관리하는": 5761,
      "짜증날": 5762,
      "아픔은": 5763,
      "게임을": 5764,
      "가야돼": 5765,
      "하셨군요": 5766,
      "마주치는": 5767,
      "마주쳐보세요": 5768,
      "두려움을": 5769,
      "운명적인": 5770,
      "주변에서": 5771,
      "힘들었죠": 5772,
      "도전하는": 5773,
      "차이는": 5774,
      "이겨내세요": 5775,
      "자존감": 5776,
      "자존감을": 5777,
      "거짓말이": 5778,
      "연인은": 5779,
      "연인으로": 5780,
      "한다는데": 5781,
      "좋아해줬으면": 5782,
      "이상형은": 5783,
      "이상형이": 5784,
      "싸우는": 5785,
      "대화로": 5786,
      "대화하는": 5787,
      "마셔도": 5788,
      "버려야지": 5789,
      "어렵죠": 5790,
      "맞춰보세요": 5791,
      "미치겠어": 5792,
      "미치겠습니다": 5793,
      "미치겠네": 5794,
      "즐기면서": 5795,
      "받아들일": 5796,
      "당연한": 5797,
      "퇴근하고": 5798,
      "드시면": 5799,
      "미워하지": 5800,
      "예민한": 5801,
      "두려워하지": 5802,
      "그대로의": 5803,
      "기본이": 5804,
      "서운해": 5805,
      "슬프게": 5806,
      "어쩔수": 5807,
      "부담스러워하지": 5808,
      "끝내고": 5809,
      "당황했겠어요": 5810,
      "사과하세요": 5811,
      "적응해야": 5812,
      "좋았던": 5813,
      "좋았으면": 5814,
      "지우고": 5815,
      "고마운": 5816,
      "놀이동산": 5817,
      "삭제하세요": 5818,
      "오빠가": 5819,
      "피해를": 5820,
      "버텨요": 5821,
      "좋아한다는": 5822,
      "잊혀지기도": 5823,
      "아름다워요": 5824,
      "....": 5825,
      "바꿔보세요": 5826,
      "바빠도": 5827,
      "바빠서": 5828,
      "점심시간": 5829,
      "조절을": 5830,
      "존재를": 5831,
      "과정이에요": 5832,
      "바뀌게": 5833,
      "배고프": 5834,
      "애매하네요": 5835,
      "이름이": 5836,
      "좋을텐데요": 5837,
      "가까운": 5838,
      "거절의": 5839,
      "사라질": 5840,
      "상사가": 5841,
      "슬퍼하고": 5842,
      "신혼여행": 5843,
      "쓰레기야": 5844,
      "소문이": 5845,
      "있으니까": 5846,
      "있으신가봐요": 5847,
      "차별해": 5848,
      "희망이": 5849,
      "미세먼지가": 5850,
      "권태기가": 5851,
      "선톡을": 5852,
      "시계는": 5853,
      "여사친이": 5854,
      "정확하게": 5855,
      "평소에": 5856,
      "해보려고": 5857,
      "심호흡을": 5858,
      "생겨서": 5859,
      "가치관이": 5860,
      "sns를": 5861,
      "막히는": 5862,
      "바꿀까": 5863,
      "소원을": 5864,
      "걸리겠지만": 5865,
      "마실까": 5866,
      "물리적": 5867,
      "필요하다면요": 5868,
      "기원합니다": 5869,
      "낭비하지": 5870,
      "떠오르는": 5871,
      "맞추세요": 5872,
      "콩깍지가": 5873,
      "달라진게": 5874,
      "반응이": 5875,
      "보시면": 5876,
      "비난하지": 5877,
      "신중하게": 5878,
      "외국인인데": 5879,
      "한숨만": 5880,
      "나아졌길": 5881,
      "강렬한": 5882,
      "사겨도": 5883,
      "서툴러": 5884,
      "섬유유연제": 5885,
      "소모가": 5886,
      "어필해보세요": 5887,
      "줄어들": 5888,
      "막힌다": 5889,
      "서류에서": 5890,
      "잃어버렸어": 5891,
      "차갑게": 5892,
      "금수저": 5893,
      "당분간": 5894,
      "뒤숭숭": 5895,
      "드레스": 5896,
      "알콩달콩": 5897,
      "인테리어": 5898,
      "프라이버시": 5899,
      ",,": 5900,
      "12": 5901,
      "15": 5902,
      "2개월": 5903,
      "3초": 5904,
      "4일": 5905,
      "5일째": 5906,
      "AS": 5907,
      "B형": 5908,
      "as": 5909,
      "가운": 5910,
      "가자": 5911,
      "가기도": 5912,
      "가리세요": 5913,
      "가기로": 5914,
      "각질": 5915,
      "간직": 5916,
      "간다고": 5917,
      "간만에": 5918,
      "감동": 5919,
      "감출": 5920,
      "감으세요": 5921,
      "감각이": 5922,
      "갔는지": 5923,
      "강요": 5924,
      "강제": 5925,
      "갖게": 5926,
      "같음": 5927,
      "개시": 5928,
      "객관": 5929,
      "갠톡": 5930,
      "걔는": 5931,
      "거도": 5932,
      "거래": 5933,
      "걷고": 5934,
      "걷길": 5935,
      "걸음을": 5936,
      "것이죠": 5937,
      "겠대": 5938,
      "계기가": 5939,
      "고의": 5940,
      "고시원": 5941,
      "고양이": 5942,
      "골프": 5943,
      "곳까지": 5944,
      "곳이죠": 5945,
      "공유": 5946,
      "과거": 5947,
      "과연": 5948,
      "구가": 5949,
      "구두": 5950,
      "구를": 5951,
      "구별": 5952,
      "구워": 5953,
      "국도": 5954,
      "군인": 5955,
      "귀로": 5956,
      "그걸": 5957,
      "그땐": 5958,
      "그린": 5959,
      "그것도": 5960,
      "극히": 5961,
      "근데": 5962,
      "근무": 5963,
      "글쎄": 5964,
      "글자": 5965,
      "기에": 5966,
      "기르고": 5967,
      "기술이": 5968,
      "긴다": 5969,
      "길만": 5970,
      "길면": 5971,
      "길지": 5972,
      "까먹": 5973,
      "깎아": 5974,
      "꺼야": 5975,
      "꼰대": 5976,
      "꼼수를": 5977,
      "꽃길만": 5978,
      "꾸미": 5979,
      "꾹꾹": 5980,
      "끈을": 5981,
      "끊겼어": 5982,
      "끌어": 5983,
      "끝냈": 5984,
      "끝의": 5985,
      "나야": 5986,
      "나겠네요": 5987,
      "나오네": 5988,
      "나갈까": 5989,
      "나왔네": 5990,
      "나갈거예요": 5991,
      "난다면": 5992,
      "날짜": 5993,
      "날이네요": 5994,
      "남과": 5995,
      "남길": 5996,
      "남이에요": 5997,
      "남이니": 5998,
      "낫네": 5999,
      "났나봐": 6000,
      "낳을": 6001,
      "내릴": 6002,
      "내지": 6003,
      "냉면": 6004,
      "너가": 6005,
      "너의": 6006,
      "넓으": 6007,
      "넘은": 6008,
      "넘을": 6009,
      "넣을": 6010,
      "노려": 6011,
      "놀까": 6012,
      "농구": 6013,
      "농담": 6014,
      "높겠네요": 6015,
      "높이가": 6016,
      "놔둬": 6017,
      "누락": 6018,
      "눈높이가": 6019,
      "는구나": 6020,
      "늦었어요": 6021,
      "다듬": 6022,
      "다칠": 6023,
      "다하세요": 6024,
      "다는게": 6025,
      "다리가": 6026,
      "다릅니다": 6027,
      "단체": 6028,
      "단점을": 6029,
      "단맛도": 6030,
      "달라요": 6031,
      "달에는": 6032,
      "닮은": 6033,
      "답정": 6034,
      "당첨": 6035,
      "당한": 6036,
      "당하는": 6037,
      "당해요": 6038,
      "대는": 6039,
      "대답": 6040,
      "대상": 6041,
      "대수": 6042,
      "대충": 6043,
      "대피": 6044,
      "대기업": 6045,
      "덜어보세요": 6046,
      "데가": 6047,
      "데서": 6048,
      "도망": 6049,
      "독서": 6050,
      "독이": 6051,
      "돌면": 6052,
      "돌리는": 6053,
      "동력이": 6054,
      "동영상": 6055,
      "되짚": 6056,
      "되어요": 6057,
      "되네요": 6058,
      "되겠죠": 6059,
      "되려고": 6060,
      "되니까": 6061,
      "되시길": 6062,
      "되려면": 6063,
      "된다": 6064,
      "된다면": 6065,
      "두지": 6066,
      "두통": 6067,
      "두푼": 6068,
      "뒀나봐요": 6069,
      "뒤에": 6070,
      "뒷감당": 6071,
      "뒹굴": 6072,
      "드위": 6073,
      "드리는": 6074,
      "듣는": 6075,
      "들었나봐요": 6076,
      "들었겠네요": 6077,
      "따듯한": 6078,
      "땀을": 6079,
      "때요": 6080,
      "때의": 6081,
      "때죠": 6082,
      "때부터": 6083,
      "때마다": 6084,
      "떠날": 6085,
      "떨고": 6086,
      "떨린다": 6087,
      "또한": 6088,
      "똑같애": 6089,
      "뜨겁": 6090,
      "뜨리기": 6091,
      "띄는": 6092,
      "라네": 6093,
      "라니": 6094,
      "라이트": 6095,
      "랬다": 6096,
      "런지": 6097,
      "렀어": 6098,
      "레시": 6099,
      "력서": 6100,
      "력에": 6101,
      "렵니다": 6102,
      "로그": 6103,
      "롱디": 6104,
      "리드": 6105,
      "리죠": 6106,
      "리필": 6107,
      "리겠어요": 6108,
      "리적인": 6109,
      "린대로": 6110,
      "림을": 6111,
      "마른": 6112,
      "마중": 6113,
      "막막": 6114,
      "만해": 6115,
      "만화": 6116,
      "만지지": 6117,
      "많으시": 6118,
      "말해서": 6119,
      "말해주": 6120,
      "맘처럼": 6121,
      "맘같지": 6122,
      "맛있어": 6123,
      "맛있다": 6124,
      "망상": 6125,
      "망설": 6126,
      "망함": 6127,
      "맡기세요": 6128,
      "매가": 6129,
      "매력을": 6130,
      "맥이": 6131,
      "맷해보세요": 6132,
      "먹먹": 6133,
      "먹거나": 6134,
      "먹어도": 6135,
      "멈춰": 6136,
      "멋져": 6137,
      "메리": 6138,
      "면역": 6139,
      "명한": 6140,
      "명상을": 6141,
      "모으": 6142,
      "몰려": 6143,
      "몸에는": 6144,
      "못잊는": 6145,
      "무모": 6146,
      "무언": 6147,
      "무조건": 6148,
      "무의식": 6149,
      "문화": 6150,
      "뭐로": 6151,
      "뭐지": 6152,
      "뭐해": 6153,
      "뭐하면": 6154,
      "뭐하나": 6155,
      "뭘로": 6156,
      "미루": 6157,
      "믿고": 6158,
      "믿어": 6159,
      "믿지": 6160,
      "밀려": 6161,
      "밀어": 6162,
      "밀어보세요": 6163,
      "바구": 6164,
      "바쁠": 6165,
      "반장": 6166,
      "반한": 6167,
      "받네": 6168,
      "받으시": 6169,
      "받으면서": 6170,
      "발견": 6171,
      "발을": 6172,
      "밥을": 6173,
      "방금": 6174,
      "방에": 6175,
      "방향": 6176,
      "배신": 6177,
      "배울까": 6178,
      "백업": 6179,
      "버릇": 6180,
      "벅찰": 6181,
      "베트": 6182,
      "베프": 6183,
      "베풀고": 6184,
      "변신": 6185,
      "변해요": 6186,
      "병신": 6187,
      "보듬": 6188,
      "보란": 6189,
      "보신": 6190,
      "보자": 6191,
      "보려고": 6192,
      "보기로": 6193,
      "보답을": 6194,
      "봐주": 6195,
      "봐주세요": 6196,
      "부려": 6197,
      "부의": 6198,
      "부질": 6199,
      "분담해보세요": 6200,
      "불쑥": 6201,
      "불효": 6202,
      "브랜": 6203,
      "블록": 6204,
      "비용": 6205,
      "비워": 6206,
      "비세요": 6207,
      "비정상": 6208,
      "비정규직": 6209,
      "빈자리": 6210,
      "빌어": 6211,
      "빠지면": 6212,
      "뻑뻑": 6213,
      "뿌린대로": 6214,
      "사로": 6215,
      "사수": 6216,
      "사전": 6217,
      "사줘": 6218,
      "사춘": 6219,
      "사표": 6220,
      "사정을": 6221,
      "사생활이": 6222,
      "살려": 6223,
      "살쪄": 6224,
      "새가": 6225,
      "새신발": 6226,
      "샌드위": 6227,
      "생생": 6228,
      "서점": 6229,
      "서지": 6230,
      "선풍": 6231,
      "설득": 6232,
      "성이에요": 6233,
      "성적이": 6234,
      "세어": 6235,
      "셔야": 6236,
      "셨나요": 6237,
      "소가": 6238,
      "소름": 6239,
      "소화가": 6240,
      "소소한": 6241,
      "속박": 6242,
      "속으로": 6243,
      "손으로": 6244,
      "손가락": 6245,
      "수능": 6246,
      "술마시": 6247,
      "스릴": 6248,
      "승진": 6249,
      "시급": 6250,
      "시려": 6251,
      "시선을": 6252,
      "식물": 6253,
      "실천": 6254,
      "실패": 6255,
      "실행": 6256,
      "실거예요": 6257,
      "싫어요": 6258,
      "심남": 6259,
      "심이": 6260,
      "심하네": 6261,
      "심심해": 6262,
      "싶으면": 6263,
      "싸운": 6264,
      "싸웠어": 6265,
      "쌓여": 6266,
      "썸도": 6267,
      "썸타고": 6268,
      "쓰게": 6269,
      "쓰려고": 6270,
      "쓰면서": 6271,
      "쓰이는": 6272,
      "아리": 6273,
      "아물": 6274,
      "아부": 6275,
      "아울": 6276,
      "아쉬운": 6277,
      "안됐": 6278,
      "안될": 6279,
      "안부": 6280,
      "안이": 6281,
      "안하면": 6282,
      "안받아": 6283,
      "안보여": 6284,
      "안부를": 6285,
      "않겠네요": 6286,
      "않지요": 6287,
      "알까": 6288,
      "알겠어": 6289,
      "았네": 6290,
      "았으면": 6291,
      "애의": 6292,
      "애프": 6293,
      "액정": 6294,
      "야겠어": 6295,
      "양제": 6296,
      "어흥": 6297,
      "어떠세요": 6298,
      "언제가": 6299,
      "없지요": 6300,
      "없으니까요": 6301,
      "없답니다": 6302,
      "엇갈": 6303,
      "에만": 6304,
      "엠티": 6305,
      "여쭤": 6306,
      "역할": 6307,
      "연상": 6308,
      "열어": 6309,
      "열흘": 6310,
      "였나": 6311,
      "였나요": 6312,
      "영어": 6313,
      "영양제": 6314,
      "예능": 6315,
      "예비": 6316,
      "예감은": 6317,
      "오고": 6318,
      "오바": 6319,
      "오겠죠": 6320,
      "오디션": 6321,
      "옳은": 6322,
      "옷이요": 6323,
      "와도": 6324,
      "와인": 6325,
      "와플": 6326,
      "왔나봅니다": 6327,
      "왕이면": 6328,
      "왜이렇게": 6329,
      "왠지": 6330,
      "외출": 6331,
      "외국어": 6332,
      "욕해": 6333,
      "욕하고": 6334,
      "용량": 6335,
      "우정이": 6336,
      "운이": 6337,
      "울고": 6338,
      "웃는": 6339,
      "웃으면서": 6340,
      "원인": 6341,
      "원치": 6342,
      "원해보세요": 6343,
      "원한다면": 6344,
      "원동력이": 6345,
      "월세": 6346,
      "웠을": 6347,
      "웹툰": 6348,
      "으려": 6349,
      "으아": 6350,
      "으니까": 6351,
      "으려면": 6352,
      "음료": 6353,
      "의심해": 6354,
      "이것": 6355,
      "이겠네요": 6356,
      "이사를": 6357,
      "이력서": 6358,
      "이왕이면": 6359,
      "인줄": 6360,
      "인터": 6361,
      "인맥이": 6362,
      "일기": 6363,
      "일로": 6364,
      "일방": 6365,
      "일인지": 6366,
      "일하면서": 6367,
      "읽어": 6368,
      "임용": 6369,
      "입학": 6370,
      "입을까": 6371,
      "입으세요": 6372,
      "입냄새": 6373,
      "있니": 6374,
      "있대": 6375,
      "있던": 6376,
      "있겠다": 6377,
      "있거나": 6378,
      "있군요": 6379,
      "있으세요": 6380,
      "있답니다": 6381,
      "있냐고": 6382,
      "자랑": 6383,
      "자장": 6384,
      "자제": 6385,
      "자다가": 6386,
      "자야지": 6387,
      "자장면": 6388,
      "작동": 6389,
      "잘하면": 6390,
      "잘해야": 6391,
      "잘지내": 6392,
      "잘지내고": 6393,
      "잠은": 6394,
      "잡념": 6395,
      "잡히": 6396,
      "잡아보세요": 6397,
      "장갑": 6398,
      "장애": 6399,
      "장학": 6400,
      "저마다": 6401,
      "전학": 6402,
      "전하지": 6403,
      "전까지": 6404,
      "절친": 6405,
      "접는게": 6406,
      "접어야": 6407,
      "정장": 6408,
      "정정": 6409,
      "정해져": 6410,
      "져서": 6411,
      "졌어요": 6412,
      "조가": 6413,
      "졸린": 6414,
      "종료": 6415,
      "종지": 6416,
      "좋긴": 6417,
      "좋음": 6418,
      "좋대요": 6419,
      "좌절": 6420,
      "죄가": 6421,
      "주량": 6422,
      "주물": 6423,
      "주워": 6424,
      "주실거예요": 6425,
      "죽겠다": 6426,
      "죽어도": 6427,
      "줬더니": 6428,
      "즐겨": 6429,
      "즐기는": 6430,
      "증명": 6431,
      "지각": 6432,
      "지낸": 6433,
      "지속": 6434,
      "지압": 6435,
      "지친": 6436,
      "지네요": 6437,
      "지마세요": 6438,
      "지웠어": 6439,
      "지능에": 6440,
      "지극히": 6441,
      "직업": 6442,
      "직전": 6443,
      "질려": 6444,
      "질린": 6445,
      "질문": 6446,
      "짠하고": 6447,
      "짧죠": 6448,
      "째깍": 6449,
      "찍는": 6450,
      "찢어": 6451,
      "차곡": 6452,
      "차인": 6453,
      "차였는데": 6454,
      "참다": 6455,
      "참았어": 6456,
      "채워질": 6457,
      "챙기세요": 6458,
      "청결": 6459,
      "청약": 6460,
      "청춘": 6461,
      "체적으로": 6462,
      "초록": 6463,
      "총회": 6464,
      "촬영": 6465,
      "최신": 6466,
      "최저": 6467,
      "추가": 6468,
      "추적": 6469,
      "춥네": 6470,
      "취해서": 6471,
      "친절": 6472,
      "친척": 6473,
      "친해지는": 6474,
      "침묵": 6475,
      "커서": 6476,
      "컨트": 6477,
      "케익": 6478,
      "콜록": 6479,
      "킁킁": 6480,
      "타나": 6481,
      "타러": 6482,
      "타면": 6483,
      "타인": 6484,
      "탈모": 6485,
      "탔어": 6486,
      "태연": 6487,
      "터지": 6488,
      "테니": 6489,
      "텐대요": 6490,
      "톡이": 6491,
      "틀리는": 6492,
      "티콘": 6493,
      "파도": 6494,
      "파도가": 6495,
      "팍팍": 6496,
      "패션": 6497,
      "페메": 6498,
      "편안": 6499,
      "편으로": 6500,
      "편지도": 6501,
      "편안해": 6502,
      "포기가": 6503,
      "포맷해보세요": 6504,
      "폭식": 6505,
      "피로": 6506,
      "피하는": 6507,
      "필기": 6508,
      "하아": 6509,
      "학벌": 6510,
      "한건": 6511,
      "한약": 6512,
      "한푼": 6513,
      "한심해": 6514,
      "한답니다": 6515,
      "한바퀴": 6516,
      "한국도": 6517,
      "할수": 6518,
      "할지도": 6519,
      "할때는": 6520,
      "함에": 6521,
      "합리적인": 6522,
      "해로": 6523,
      "해드세요": 6524,
      "해줬어": 6525,
      "해봤는데": 6526,
      "했다면": 6527,
      "했다고": 6528,
      "향이": 6529,
      "허락": 6530,
      "허리가": 6531,
      "현타": 6532,
      "호랑이": 6533,
      "혼수": 6534,
      "확률": 6535,
      "환기": 6536,
      "황당": 6537,
      "회의": 6538,
      "훔쳐": 6539,
      "휴학": 6540,
      "흐른": 6541,
      "흐르는": 6542,
      "흘려보세요": 6543,
      "사람인": 6544,
      "사람친구": 6545,
      "사람하고": 6546,
      "좋아지는": 6547,
      "좋아지고": 6548,
      "사랑니": 6549,
      "사랑이에요": 6550,
      "사랑할까": 6551,
      "사랑인지": 6552,
      "사랑스러운": 6553,
      "사랑하니까": 6554,
      "생각도": 6555,
      "생각하게": 6556,
      "생각이네요": 6557,
      "생각들을": 6558,
      "친구라면": 6559,
      "친구들을": 6560,
      "하고싶은데": 6561,
      "너무나도": 6562,
      "이별하는": 6563,
      "연락도": 6564,
      "연락할까": 6565,
      "연락하는게": 6566,
      "연락왔어": 6567,
      "연락해봐요": 6568,
      "연락이라도": 6569,
      "연락해보는": 6570,
      "연락하라고": 6571,
      "하지말고": 6572,
      "여자들": 6573,
      "여자로": 6574,
      "여자에게": 6575,
      "남자에게": 6576,
      "남자입니다": 6577,
      "남자분들": 6578,
      "힘들까": 6579,
      "힘들겠죠": 6580,
      "힘들지만": 6581,
      "시간과": 6582,
      "시간인데": 6583,
      "시간내서": 6584,
      "좋은거": 6585,
      "사람이야": 6586,
      "싶어하는": 6587,
      "에서도": 6588,
      "있는걸까": 6589,
      "만나자": 6590,
      "만나자는": 6591,
      "오늘이에요": 6592,
      "해야겠네": 6593,
      "자신은": 6594,
      "이제서야": 6595,
      "괜찮길": 6596,
      "괜찮다": 6597,
      "괜찮겠지": 6598,
      "아니길": 6599,
      "아니네": 6600,
      "아니지": 6601,
      "연애세포": 6602,
      "마음이랑": 6603,
      "싶다면": 6604,
      "다른걸": 6605,
      "시간이네요": 6606,
      "없어졌어": 6607,
      "들어가서": 6608,
      "혼자를": 6609,
      "혼자해도": 6610,
      "당신만이": 6611,
      "들이대": 6612,
      "들이랑": 6613,
      "정리에": 6614,
      "정리해": 6615,
      "지금의": 6616,
      "지금부터": 6617,
      "결혼을": 6618,
      "결혼하고": 6619,
      "결혼해야": 6620,
      "결혼하기": 6621,
      "하나요": 6622,
      "하나죠": 6623,
      "기다리세요": 6624,
      "그런가": 6625,
      "그런지": 6626,
      "행복하세요": 6627,
      "다가가세요": 6628,
      "준비중": 6629,
      "준비할": 6630,
      "준비하느라": 6631,
      "준비하기는": 6632,
      "보다보면": 6633,
      "고민이죠": 6634,
      "고민하느라": 6635,
      "아직이라면": 6636,
      "사랑이죠": 6637,
      "사랑이라는": 6638,
      "선물하면": 6639,
      "선물이네요": 6640,
      "없는거": 6641,
      "없는지": 6642,
      "없는걸까": 6643,
      "찾아봐요": 6644,
      "찾아가는": 6645,
      "찾아오는": 6646,
      "힘든거": 6647,
      "방법도": 6648,
      "물어봐도": 6649,
      "고백하세요": 6650,
      "고백하는게": 6651,
      "이야기하는": 6652,
      "이야기하고": 6653,
      "짝녀를": 6654,
      "가는거": 6655,
      "후회만": 6656,
      "후회해": 6657,
      "후회하는": 6658,
      "후회할까": 6659,
      "사귀어": 6660,
      "시작할": 6661,
      "그녀도": 6662,
      "가능성": 6663,
      "가능한": 6664,
      "가능하죠": 6665,
      "가능한가": 6666,
      "가능하다고": 6667,
      "감정기": 6668,
      "많은가": 6669,
      "많은걸": 6670,
      "여행이네요": 6671,
      "공부하면": 6672,
      "공부하세요": 6673,
      "공부해야지": 6674,
      "하루는": 6675,
      "거라면": 6676,
      "힘드니까요": 6677,
      "힘드시겠어요": 6678,
      "여친에게": 6679,
      "이상적인": 6680,
      "다는걸": 6681,
      "걱정이야": 6682,
      "걱정하지마세요": 6683,
      "걱정되겠어요": 6684,
      "알아볼": 6685,
      "알아보는": 6686,
      "알아두세요": 6687,
      "관심사에": 6688,
      "기억에": 6689,
      "기억은": 6690,
      "기억해": 6691,
      "되는거": 6692,
      "있었어": 6693,
      "있었을지도": 6694,
      "표현하지": 6695,
      "표현해보는": 6696,
      "오래오래": 6697,
      "하다보니": 6698,
      "함께도": 6699,
      "함께하고": 6700,
      "돌아가": 6701,
      "이었어": 6702,
      "누구야": 6703,
      "이해를": 6704,
      "이해해보세요": 6705,
      "이해하고": 6706,
      "이해하기": 6707,
      "보내시길": 6708,
      "생겼을지도": 6709,
      "사랑하는지는": 6710,
      "결정했나봐요": 6711,
      "이유로": 6712,
      "따라가": 6713,
      "운동할": 6714,
      "운동해보세요": 6715,
      "운동하세요": 6716,
      "내일을": 6717,
      "선택이": 6718,
      "선택이었을": 6719,
      "아프게": 6720,
      "미련을": 6721,
      "직접적으로": 6722,
      "조심히": 6723,
      "노래가": 6724,
      "노래는": 6725,
      "않았길": 6726,
      "어떡함": 6727,
      "어떡하죠": 6728,
      "재미있어": 6729,
      "재미있나봐요": 6730,
      "쉽지가": 6731,
      "인생의": 6732,
      "인생에서": 6733,
      "잘못입니다": 6734,
      "괜찮아지고": 6735,
      "신경쓰고": 6736,
      "신경쓰면": 6737,
      "신경쓰이": 6738,
      "스트레스를": 6739,
      "스트레스야": 6740,
      "스트레스의": 6741,
      "해지길": 6742,
      "해지네": 6743,
      "그만둬": 6744,
      "달라지지": 6745,
      "달라져요": 6746,
      "처음이": 6747,
      "위로를": 6748,
      "위로해줄": 6749,
      "축하해주세요": 6750,
      "나이에": 6751,
      "나이테": 6752,
      "만났던": 6753,
      "만났든": 6754,
      "만들기": 6755,
      "만들었어요": 6756,
      "답답할": 6757,
      "답답해서": 6758,
      "되었는데": 6759,
      "습관처럼": 6760,
      "확실해지면": 6761,
      "결국엔": 6762,
      "이어질": 6763,
      "이어폰": 6764,
      "이어보고": 6765,
      "이어주는": 6766,
      "이어나가는": 6767,
      "챙겨주면": 6768,
      "챙겨드시": 6769,
      "화장이": 6770,
      "관계의": 6771,
      "잊어가는": 6772,
      "거리가": 6773,
      "말씀드려보세요": 6774,
      "정신없이": 6775,
      "정신건강에": 6776,
      "정신차리세요": 6777,
      "건강을": 6778,
      "건강하게": 6779,
      "그렇겠죠": 6780,
      "만남은": 6781,
      "만남이네요": 6782,
      "먹어야": 6783,
      "소리를": 6784,
      "나쁜거예요": 6785,
      "추천해": 6786,
      "확인하는": 6787,
      "확인해달라고": 6788,
      "다니면서": 6789,
      "아침부터": 6790,
      "마시지": 6791,
      "일어나면": 6792,
      "헤어짐은": 6793,
      "상대방의": 6794,
      "한번더": 6795,
      "한번만": 6796,
      "한번쯤": 6797,
      "다르게": 6798,
      "다르지": 6799,
      "안해먹고": 6800,
      "어느새": 6801,
      "커피가": 6802,
      "커피는": 6803,
      "부모님을": 6804,
      "떨어지는": 6805,
      "떨어뜨려": 6806,
      "바람난": 6807,
      "바람이라도": 6808,
      "나가면": 6809,
      "많았나봅니다": 6810,
      "살아가": 6811,
      "살아있음": 6812,
      "성공한": 6813,
      "성공적으로": 6814,
      "잊혀져": 6815,
      "잊혀질까": 6816,
      "기다리던": 6817,
      "핸드폰이": 6818,
      "모습도": 6819,
      "엄마랑": 6820,
      "엄마아빠": 6821,
      "모두에게": 6822,
      "문제죠": 6823,
      "문제네요": 6824,
      "시켜달라고": 6825,
      "예의일": 6826,
      "오는날": 6827,
      "가끔씩": 6828,
      "얼굴에": 6829,
      "예뻐질": 6830,
      "재밌을": 6831,
      "재밌겠어요": 6832,
      "재밌는거": 6833,
      "상관없지만": 6834,
      "소개팅하고": 6835,
      "소개팅으로": 6836,
      "떠나간": 6837,
      "무시해": 6838,
      "심해지는": 6839,
      "알바생": 6840,
      "도와달라고": 6841,
      "아픔도": 6842,
      "피곤했나봐요": 6843,
      "기다려도": 6844,
      "기다려야": 6845,
      "극복해보세요": 6846,
      "다녀도": 6847,
      "다녀왔어": 6848,
      "자리에": 6849,
      "행복해보여": 6850,
      "가족들": 6851,
      "가족한테": 6852,
      "가족들이랑": 6853,
      "끝났습니다": 6854,
      "만난다면": 6855,
      "붙잡는": 6856,
      "붙잡아": 6857,
      "하셨나봐요": 6858,
      "하셨겠어요": 6859,
      "끝이네": 6860,
      "따뜻해졌": 6861,
      "설레는": 6862,
      "외로움을": 6863,
      "두려운": 6864,
      "아는거": 6865,
      "아이디": 6866,
      "행동은": 6867,
      "놀러가세요": 6868,
      "익숙해져": 6869,
      "지났는데": 6870,
      "도전은": 6871,
      "즐거울": 6872,
      "후련하네": 6873,
      "후련하니": 6874,
      "거짓말을": 6875,
      "다행이네요": 6876,
      "연인과": 6877,
      "용기내": 6878,
      "자체만으로": 6879,
      "최고의": 6880,
      "헷갈리": 6881,
      "헷갈리네": 6882,
      "생각할게요": 6883,
      "생각할수록": 6884,
      "부족해": 6885,
      "비싸요": 6886,
      "소중합니다": 6887,
      "속이는": 6888,
      "응원할게요": 6889,
      "기간을": 6890,
      "데려가세요": 6891,
      "싸우고": 6892,
      "앞에선": 6893,
      "죽을거": 6894,
      "필요해보여요": 6895,
      "대화의": 6896,
      "버려야": 6897,
      "어렵다": 6898,
      "어머어머": 6899,
      "우산에": 6900,
      "월급은": 6901,
      "이러는": 6902,
      "바쁜일이": 6903,
      "비밀은": 6904,
      "비밀을": 6905,
      "쇼핑하고": 6906,
      "종교의": 6907,
      "청소하세요": 6908,
      "친구들한테": 6909,
      "분위기를": 6910,
      "취미네요": 6911,
      "커플링": 6912,
      "한가지만": 6913,
      "싫은데": 6914,
      "어쩌면": 6915,
      "여러명": 6916,
      "존중하고": 6917,
      "존중해주세요": 6918,
      "칭찬이네요": 6919,
      "칭찬해주고": 6920,
      "해결될": 6921,
      "해결되길": 6922,
      "10개월": 6923,
      "예민해": 6924,
      "취직하면": 6925,
      "헤아릴": 6926,
      "괜찮을거": 6927,
      "기본으로": 6928,
      "기본이죠": 6929,
      "먹었더니": 6930,
      "생긴다는": 6931,
      "쉬어가도": 6932,
      "썸녀가": 6933,
      "썸녀한테": 6934,
      "이기니": 6935,
      "키우는": 6936,
      "해졌어요": 6937,
      "기다릴게요": 6938,
      "부담스러워할까": 6939,
      "짜증나네": 6940,
      "귀여울": 6941,
      "변화도": 6942,
      "변화시켜": 6943,
      "불편한": 6944,
      "불편하겠죠": 6945,
      "사과할": 6946,
      "선생님께": 6947,
      "일주일이": 6948,
      "자유로": 6949,
      "졸업하는데": 6950,
      "졸업식에": 6951,
      "고마움을": 6952,
      "놀이공원": 6953,
      "병원가세요": 6954,
      "보냈네": 6955,
      "보냈습니다": 6956,
      "부탁드립니다": 6957,
      "삭제해보세요": 6958,
      "삭제하는게": 6959,
      "위험한": 6960,
      "위험해": 6961,
      "피해만": 6962,
      "감사하는": 6963,
      "나눠보는게": 6964,
      "무너져요": 6965,
      "부분을": 6966,
      "안타까": 6967,
      "어플로": 6968,
      "어플을": 6969,
      "거짓말은": 6970,
      "발전이": 6971,
      "벗어나는": 6972,
      "점심시간에": 6973,
      "지쳐서": 6974,
      "피부관리": 6975,
      "견디기": 6976,
      "무섭나요": 6977,
      "애매한": 6978,
      "없애주세요": 6979,
      "우연이": 6980,
      "이름이랑": 6981,
      "저녁에": 6982,
      "집에서도": 6983,
      "위로해드리는": 6984,
      "간절히": 6985,
      "간절하겠네요": 6986,
      "누군가": 6987,
      "미래를": 6988,
      "버스가": 6989,
      "비교하면": 6990,
      "시키는": 6991,
      "신고하고": 6992,
      "오해가": 6993,
      "중간에": 6994,
      "일어나세요": 6995,
      "갑작스럽": 6996,
      "갑작스러운": 6997,
      "결과가": 6998,
      "기울여": 6999,
      "깔끔해질": 7000,
      "대단하네요": 7001,
      "대단하시군요": 7002,
      "미안하다": 7003,
      "이럴까": 7004,
      "조급해지면": 7005,
      "희망은": 7006,
      "받아들여야": 7007,
      "견뎌내고": 7008,
      "깨달음": 7009,
      "남았네요": 7010,
      "더워서": 7011,
      "멀어진": 7012,
      "멀어지면": 7013,
      "시어머니": 7014,
      "야경이": 7015,
      "판단되면": 7016,
      "생각한대로": 7017,
      "결정이었을거라": 7018,
      "안타깝게": 7019,
      "근처로": 7020,
      "나올거": 7021,
      "멈추지": 7022,
      "멈추세요": 7023,
      "스키장": 7024,
      "시기네요": 7025,
      "클럽에서": 7026,
      "넘어가네": 7027,
      "모아야할": 7028,
      "산책을": 7029,
      "설렘이": 7030,
      "쓸데없는": 7031,
      "어찌해야": 7032,
      "움직이세요": 7033,
      "이불밖은": 7034,
      "제자리걸음": 7035,
      "진실된": 7036,
      "최악의": 7037,
      "치료하세요": 7038,
      "하셔야죠": 7039,
      "하루하루가": 7040,
      "고치기": 7041,
      "과식하지": 7042,
      "교양수업": 7043,
      "메뉴얼": 7044,
      "면도기": 7045,
      "목표네요": 7046,
      "보험처리": 7047,
      "빠르면": 7048,
      "아껴뒀나봐요": 7049,
      "외롭고": 7050,
      "용서하고": 7051,
      "절약되겠네요": 7052,
      "지칠만": 7053,
      "헬스장에": 7054,
      "해야하나봐": 7055,
      "프로포즈해보세요": 7056,
      "남겨서": 7057,
      "놀랐나봐요": 7058,
      "놀랐겠어요": 7059,
      "반가워요": 7060,
      "스테이크": 7061,
      "염색을": 7062,
      "유부남": 7063,
      "유부녀": 7064,
      "인공지능에": 7065,
      "인내할": 7066,
      "지진시": 7067,
      "콩깍지": 7068,
      "포근한": 7069,
      "휴식도": 7070,
      "알아차리지": 7071,
      "알아차려도": 7072,
      "기준이": 7073,
      "꼬박꼬박": 7074,
      "때로는": 7075,
      "마셨는데": 7076,
      "망가뜨리기": 7077,
      "메모하는": 7078,
      "모자라": 7079,
      "불공평해": 7080,
      "성별을": 7081,
      "센터에": 7082,
      "수면양말": 7083,
      "에너지가": 7084,
      "에너지를": 7085,
      "위해서예요": 7086,
      "의식하는": 7087,
      "잡아도": 7088,
      "해외여행": 7089,
      "좋아하시는구나": 7090,
      "보일러가": 7091,
      "간사하죠": 7092,
      "건들지": 7093,
      "깨닫다니": 7094,
      "낭만적인": 7095,
      "버티고": 7096,
      "세워보세요": 7097,
      "언니랑": 7098,
      "유효기간": 7099,
      "잇몸약": 7100,
      "좋으시네요": 7101,
      "주의하세요": 7102,
      "즐겁게": 7103,
      "하우스웨딩": 7104,
      "호의를": 7105,
      "결혼적령기": 7106,
      "아름답죠": 7107,
      "지하철에": 7108,
      "1주일": 7109,
      "단호하게": 7110,
      "동감입니다": 7111,
      "들리려고": 7112,
      "로봇이에요": 7113,
      "보름달": 7114,
      "세우지": 7115,
      "소액결": 7116,
      "소유하는": 7117,
      "수학여행": 7118,
      "심어볼까": 7119,
      "아쉬움이": 7120,
      "알뜰폰": 7121,
      "애틋한": 7122,
      "어둠에서": 7123,
      "어리석": 7124,
      "어젯밤": 7125,
      "잠재력을": 7126,
      "질러보세요": 7127,
      "찌질한": 7128,
      "초기화": 7129,
      "형편대로": 7130,
      "스타트업에": 7131,
      "두근거림을": 7132,
      "부딪혔나봐요": 7133,
      "애정표현일": 7134,
      "비행기표": 7135,
      "가볍게": 7136,
      "뒷담화": 7137,
      "들려주세요": 7138,
      "무한리필": 7139,
      "미용실": 7140,
      "비하하지는": 7141,
      "아팠으면": 7142,
      "염탐하지": 7143,
      "이모티콘": 7144,
      "지루해": 7145,
      "지저분해요": 7146,
      "친해지는게": 7147,
      "컴퓨터가": 7148,
      "편의점": 7149,
      "포장하는게": 7150,
      "연락두절돼서": 7151,
      "적응해야겠네요": 7152,
      "금수저로": 7153,
      "당분간은": 7154,
      "AS센터에": 7155,
      "각질제": 7156,
      "간직하세요": 7157,
      "개시해보세요": 7158,
      "그린라이트": 7159,
      "글쎄요": 7160,
      "낳을뿐이에요": 7161,
      "넓으신가봐요": 7162,
      "놔둬야하는데": 7163,
      "단체생활": 7164,
      "답정녀": 7165,
      "대피방법을": 7166,
      "되짚어보세요": 7167,
      "레시피": 7168,
      "만화같은": 7169,
      "망설여": 7170,
      "면역이": 7171,
      "벅찰텐대요": 7172,
      "베트남": 7173,
      "뻑뻑해": 7174,
      "살쪄도": 7175,
      "샌드위치": 7176,
      "아울렛": 7177,
      "애프터": 7178,
      "여쭤보세요": 7179,
      "원인이죠": 7180,
      "인터넷": 7181,
      "장학금": 7182,
      "저마다의": 7183,
      "정정기간을": 7184,
      "컨트롤": 7185,
      "한바퀴만": 7186,
      "호랑이보다": 7187,
      "해야겠네여": 7188,
      "챙겨드시거나": 7189,
      "따뜻해졌죠": 7190,
      "00일": 7191,
      "11": 7192,
      "15년": 7193,
      "3달": 7194,
      "6일째": 7195,
      "7개월": 7196,
      "9일째": 7197,
      ";;": 7198,
      "가량": 7199,
      "가본": 7200,
      "가시": 7201,
      "가에": 7202,
      "가죠": 7203,
      "가한": 7204,
      "가나봐요": 7205,
      "가보는": 7206,
      "가니까요": 7207,
      "가리는": 7208,
      "가거나": 7209,
      "가치가": 7210,
      "간당": 7211,
      "간섭": 7212,
      "간에": 7213,
      "갈궈": 7214,
      "갈등": 7215,
      "갑시다": 7216,
      "갔나": 7217,
      "갔네요": 7218,
      "갖자는": 7219,
      "같죠": 7220,
      "같다면": 7221,
      "거꾸": 7222,
      "거둬": 7223,
      "거든": 7224,
      "거란": 7225,
      "거니까요": 7226,
      "거두세요": 7227,
      "건들이": 7228,
      "걸이": 7229,
      "걸지도": 7230,
      "걸었어": 7231,
      "걸렸어": 7232,
      "겁나": 7233,
      "겁한": 7234,
      "겁니다": 7235,
      "것일": 7236,
      "것인가": 7237,
      "것일까": 7238,
      "견과": 7239,
      "견적": 7240,
      "경이": 7241,
      "계산": 7242,
      "계신": 7243,
      "계약": 7244,
      "고집": 7245,
      "고르는": 7246,
      "고독한": 7247,
      "곤두": 7248,
      "골랐": 7249,
      "골이": 7250,
      "공복": 7251,
      "공황": 7252,
      "공휴": 7253,
      "공감이": 7254,
      "과에서": 7255,
      "관찰": 7256,
      "구로": 7257,
      "구매": 7258,
      "구박": 7259,
      "구질": 7260,
      "구체적으로": 7261,
      "굳이": 7262,
      "그나": 7263,
      "그도": 7264,
      "그램": 7265,
      "그림": 7266,
      "그의": 7267,
      "그지": 7268,
      "그쪽": 7269,
      "그사람이": 7270,
      "그에게": 7271,
      "그것이": 7272,
      "극이": 7273,
      "근교": 7274,
      "근질": 7275,
      "기쁨": 7276,
      "기사": 7277,
      "기침": 7278,
      "기네요": 7279,
      "기만큼": 7280,
      "길래": 7281,
      "길을": 7282,
      "길거리": 7283,
      "깊었나봐요": 7284,
      "까아": 7285,
      "까먹고": 7286,
      "까먹었어": 7287,
      "깨어": 7288,
      "깨짐": 7289,
      "깨졌어": 7290,
      "꺼풀": 7291,
      "꼈어": 7292,
      "꾸죠": 7293,
      "꿈꾸": 7294,
      "끊기": 7295,
      "끊는": 7296,
      "끊어": 7297,
      "끊는게": 7298,
      "끊어야": 7299,
      "끌지": 7300,
      "끔하게": 7301,
      "끝나도": 7302,
      "끝내는": 7303,
      "끝일지도": 7304,
      "나고": 7305,
      "나란": 7306,
      "나름": 7307,
      "나보": 7308,
      "나빴": 7309,
      "나죠": 7310,
      "나겠어요": 7311,
      "나들이": 7312,
      "나니까": 7313,
      "나가지": 7314,
      "난감": 7315,
      "난다고": 7316,
      "날까": 7317,
      "날은": 7318,
      "날이에요": 7319,
      "날인데": 7320,
      "남녀": 7321,
      "남는게": 7322,
      "남기는": 7323,
      "났을": 7324,
      "났는지": 7325,
      "낮술": 7326,
      "내년": 7327,
      "내도": 7328,
      "내딛": 7329,
      "내는게": 7330,
      "내리지": 7331,
      "내버려": 7332,
      "너랑": 7333,
      "너와": 7334,
      "넋두": 7335,
      "넘게": 7336,
      "넘넘": 7337,
      "넘는": 7338,
      "노잼": 7339,
      "놀자": 7340,
      "놈의": 7341,
      "놓는": 7342,
      "놓치고": 7343,
      "놓치지": 7344,
      "누워": 7345,
      "누우면": 7346,
      "눈꺼풀": 7347,
      "느꼈": 7348,
      "는다": 7349,
      "는지도": 7350,
      "는다는": 7351,
      "늘어": 7352,
      "니깐": 7353,
      "님들": 7354,
      "다독": 7355,
      "다한": 7356,
      "다는데": 7357,
      "다갔어": 7358,
      "다되어가네": 7359,
      "달에": 7360,
      "달리세요": 7361,
      "답이야": 7362,
      "답장을": 7363,
      "당사": 7364,
      "당하고": 7365,
      "당했습니다": 7366,
      "당당히": 7367,
      "대쉬": 7368,
      "대하는": 7369,
      "대학원": 7370,
      "더군": 7371,
      "더이상": 7372,
      "던게": 7373,
      "덜덜": 7374,
      "덥다": 7375,
      "데도": 7376,
      "데리러": 7377,
      "도라": 7378,
      "도저": 7379,
      "독하고": 7380,
      "독하게": 7381,
      "돕는": 7382,
      "동차": 7383,
      "돼지": 7384,
      "됐다고": 7385,
      "되긴": 7386,
      "되실": 7387,
      "되돌아": 7388,
      "되시겠어요": 7389,
      "된다는": 7390,
      "될지": 7391,
      "됬네": 7392,
      "두렵": 7393,
      "둘다": 7394,
      "뒤돌아": 7395,
      "뒷통수": 7396,
      "드리러": 7397,
      "들게": 7398,
      "들지": 7399,
      "들어요": 7400,
      "들텐데": 7401,
      "들으며": 7402,
      "등이": 7403,
      "따져": 7404,
      "따끔하게": 7405,
      "딱히": 7406,
      "딱이죠": 7407,
      "딴짓": 7408,
      "때인": 7409,
      "때리는": 7410,
      "때리기": 7411,
      "땜에": 7412,
      "땡긴다": 7413,
      "떡볶": 7414,
      "떨떨": 7415,
      "똑같이": 7416,
      "똥차": 7417,
      "뜨끈": 7418,
      "뜨는": 7419,
      "라인": 7420,
      "란다": 7421,
      "란다면": 7422,
      "렸으면": 7423,
      "로션": 7424,
      "르몬": 7425,
      "른다": 7426,
      "름이": 7427,
      "리액션": 7428,
      "마라": 7429,
      "마트": 7430,
      "많겠지": 7431,
      "많지만": 7432,
      "말과": 7433,
      "말라": 7434,
      "말만": 7435,
      "말지": 7436,
      "말하면": 7437,
      "말할까": 7438,
      "말이죠": 7439,
      "말하는게": 7440,
      "말해야지": 7441,
      "말해보는": 7442,
      "맛없어": 7443,
      "망이지": 7444,
      "맞게": 7445,
      "맞은": 7446,
      "맞을": 7447,
      "맞이": 7448,
      "맞출": 7449,
      "맞나봐요": 7450,
      "맞다고": 7451,
      "맞나봅니다": 7452,
      "매몰": 7453,
      "매운": 7454,
      "매정": 7455,
      "먹나": 7456,
      "먹여": 7457,
      "먹기로": 7458,
      "멈출": 7459,
      "멋질": 7460,
      "멋있네요": 7461,
      "멘탈": 7462,
      "모여": 7463,
      "모처럼": 7464,
      "목욕": 7465,
      "목걸이": 7466,
      "몸과": 7467,
      "몸살": 7468,
      "몸에서": 7469,
      "못잊": 7470,
      "못자": 7471,
      "못할까": 7472,
      "못하는데": 7473,
      "못하네": 7474,
      "무지": 7475,
      "무관심": 7476,
      "묻어두": 7477,
      "물질이": 7478,
      "뭐하는지": 7479,
      "뭐하냐": 7480,
      "뭐하냐고": 7481,
      "뭘하면": 7482,
      "뭘까요": 7483,
      "미소": 7484,
      "미운": 7485,
      "미쳤": 7486,
      "믿는": 7487,
      "믿음": 7488,
      "믿었는데": 7489,
      "믿어주세요": 7490,
      "믿기지": 7491,
      "밑바닥": 7492,
      "바래": 7493,
      "바꿨어": 7494,
      "바란다면": 7495,
      "반영": 7496,
      "반이": 7497,
      "반째": 7498,
      "반에서": 7499,
      "반대로": 7500,
      "반했나봐요": 7501,
      "받음": 7502,
      "받았는데": 7503,
      "발라": 7504,
      "밤만": 7505,
      "밤새": 7506,
      "밤이": 7507,
      "밥은": 7508,
      "밥이나": 7509,
      "방비": 7510,
      "방식이": 7511,
      "방해가": 7512,
      "배불러": 7513,
      "백수": 7514,
      "뱃살": 7515,
      "버려요": 7516,
      "번만": 7517,
      "번을": 7518,
      "번째": 7519,
      "벌레": 7520,
      "벌면": 7521,
      "벗겨": 7522,
      "베리": 7523,
      "베란다": 7524,
      "벤츠": 7525,
      "변하고": 7526,
      "별의": 7527,
      "병행": 7528,
      "보드": 7529,
      "보려": 7530,
      "보수": 7531,
      "보약": 7532,
      "보임": 7533,
      "보거나": 7534,
      "보이나": 7535,
      "보셨나봐요": 7536,
      "보려구": 7537,
      "보인다": 7538,
      "보셔요": 7539,
      "볼때는": 7540,
      "봐봐요": 7541,
      "봤자": 7542,
      "봤으면": 7543,
      "봤습니다": 7544,
      "부케": 7545,
      "부팅": 7546,
      "부려보세요": 7547,
      "부리면": 7548,
      "부정적인": 7549,
      "분양": 7550,
      "분에게": 7551,
      "분인가봐요": 7552,
      "불만": 7553,
      "불순": 7554,
      "불쌍": 7555,
      "붙여": 7556,
      "블랙": 7557,
      "블루": 7558,
      "비만": 7559,
      "비쌈": 7560,
      "비와": 7561,
      "비친": 7562,
      "비트": 7563,
      "비해": 7564,
      "비혼": 7565,
      "비오는날": 7566,
      "비겁한": 7567,
      "빛이": 7568,
      "빛으로": 7569,
      "빼앗": 7570,
      "뻐근": 7571,
      "사무": 7572,
      "사계절": 7573,
      "사겼어": 7574,
      "살랑": 7575,
      "살죠": 7576,
      "살았는데": 7577,
      "살거야": 7578,
      "삶에": 7579,
      "삶은": 7580,
      "샀다": 7581,
      "샀는데": 7582,
      "상일": 7583,
      "상자를": 7584,
      "샜어": 7585,
      "서는": 7586,
      "서요": 7587,
      "서울": 7588,
      "서핑": 7589,
      "서점에서": 7590,
      "선의": 7591,
      "설렐": 7592,
      "설마": 7593,
      "섭섭": 7594,
      "성에": 7595,
      "성장을": 7596,
      "세달": 7597,
      "세탁": 7598,
      "셨어": 7599,
      "속아": 7600,
      "속지": 7601,
      "속시원": 7602,
      "손수건": 7603,
      "수십": 7604,
      "수제": 7605,
      "수천": 7606,
      "숙제": 7607,
      "숙취": 7608,
      "술자리": 7609,
      "숫자": 7610,
      "쉬다": 7611,
      "쉬면서": 7612,
      "스노": 7613,
      "스레": 7614,
      "스쳐": 7615,
      "스케": 7616,
      "슬플": 7617,
      "시방": 7618,
      "시에": 7619,
      "시지": 7620,
      "시켰": 7621,
      "시끄러워": 7622,
      "식사": 7623,
      "식욕": 7624,
      "식혀": 7625,
      "식었어": 7626,
      "실에": 7627,
      "실용": 7628,
      "심난": 7629,
      "심을": 7630,
      "심장": 7631,
      "심쿵": 7632,
      "싶고": 7633,
      "싶을": 7634,
      "싶나봐요": 7635,
      "싶지만": 7636,
      "싸울": 7637,
      "쌓인": 7638,
      "썸으로": 7639,
      "썸일까": 7640,
      "썸인가요": 7641,
      "썸이었으면": 7642,
      "쓰면": 7643,
      "쓰일": 7644,
      "쓰는게": 7645,
      "씁니다": 7646,
      "씨씨": 7647,
      "씹어": 7648,
      "아끼": 7649,
      "아날": 7650,
      "아냐": 7651,
      "아놔": 7652,
      "아래": 7653,
      "아려": 7654,
      "아시": 7655,
      "아니다": 7656,
      "안가": 7657,
      "안고": 7658,
      "안풀": 7659,
      "안좋아하는": 7660,
      "안해줘": 7661,
      "안됩니다": 7662,
      "안오지": 7663,
      "않기": 7664,
      "않으": 7665,
      "않습니다": 7666,
      "알긴": 7667,
      "았어요": 7668,
      "았더니": 7669,
      "애완": 7670,
      "야구": 7671,
      "야식": 7672,
      "약점": 7673,
      "약간의": 7674,
      "양을": 7675,
      "양치": 7676,
      "얘는": 7677,
      "어딘": 7678,
      "어언": 7679,
      "어째": 7680,
      "어두세요": 7681,
      "어이가": 7682,
      "억울": 7683,
      "얼떨떨": 7684,
      "없게": 7685,
      "없앨": 7686,
      "없습니다": 7687,
      "없다는": 7688,
      "없대요": 7689,
      "없으면서": 7690,
      "었나": 7691,
      "었는": 7692,
      "었지": 7693,
      "었지만": 7694,
      "었을까": 7695,
      "었나봅니다": 7696,
      "엉엉": 7697,
      "에이": 7698,
      "여도": 7699,
      "여의": 7700,
      "여주세요": 7701,
      "여기다": 7702,
      "여지를": 7703,
      "엮여": 7704,
      "연이": 7705,
      "연하": 7706,
      "연속이": 7707,
      "열까지": 7708,
      "였을까": 7709,
      "였는지": 7710,
      "영통": 7711,
      "영향": 7712,
      "영화를": 7713,
      "영화가": 7714,
      "예고": 7715,
      "예쁠": 7716,
      "예정": 7717,
      "예측": 7718,
      "예상하지": 7719,
      "오나": 7720,
      "오니": 7721,
      "옥상": 7722,
      "온대": 7723,
      "온다고": 7724,
      "올려보세요": 7725,
      "옵니다": 7726,
      "옷은": 7727,
      "왔나": 7728,
      "왔네요": 7729,
      "왜이": 7730,
      "왜케": 7731,
      "욕을": 7732,
      "욜로": 7733,
      "용품": 7734,
      "우습": 7735,
      "울컥": 7736,
      "웃게": 7737,
      "웃고": 7738,
      "웃으면": 7739,
      "웃는게": 7740,
      "워시": 7741,
      "원해": 7742,
      "원하지": 7743,
      "월요": 7744,
      "월요일": 7745,
      "웠던": 7746,
      "웠나봐요": 7747,
      "위축": 7748,
      "유료": 7749,
      "유통": 7750,
      "으으": 7751,
      "으라고": 7752,
      "을때는": 7753,
      "의외": 7754,
      "의존": 7755,
      "의도는": 7756,
      "이를": 7757,
      "이브": 7758,
      "이자": 7759,
      "이집": 7760,
      "이니까요": 7761,
      "이대로": 7762,
      "이면서": 7763,
      "이성이": 7764,
      "이김에": 7765,
      "이끌어": 7766,
      "인도": 7767,
      "인트": 7768,
      "인신고": 7769,
      "인고의": 7770,
      "일과": 7771,
      "일인": 7772,
      "일일": 7773,
      "일에는": 7774,
      "일기를": 7775,
      "일수록": 7776,
      "일부로": 7777,
      "임금": 7778,
      "임말": 7779,
      "입장을": 7780,
      "있음을": 7781,
      "있도록": 7782,
      "잊은": 7783,
      "잊자": 7784,
      "잊는게": 7785,
      "잊기가": 7786,
      "자다": 7787,
      "자야": 7788,
      "자야겠다": 7789,
      "자극이": 7790,
      "자동차": 7791,
      "작용": 7792,
      "작아지": 7793,
      "잔치": 7794,
      "잔소리": 7795,
      "잘한": 7796,
      "잘하게": 7797,
      "잘할까": 7798,
      "잘살고": 7799,
      "잘하니": 7800,
      "잘되고": 7801,
      "잘해주면": 7802,
      "잘자요": 7803,
      "잘하셨어요": 7804,
      "잘되니까": 7805,
      "잠들": 7806,
      "잠식": 7807,
      "잡았": 7808,
      "잡았어": 7809,
      "장점": 7810,
      "장점을": 7811,
      "재채": 7812,
      "재설계": 7813,
      "쟁이": 7814,
      "저기": 7815,
      "저만": 7816,
      "저음": 7817,
      "저장": 7818,
      "저주": 7819,
      "적인데": 7820,
      "적어도": 7821,
      "전의": 7822,
      "전할": 7823,
      "전으로": 7824,
      "전에는": 7825,
      "전기가": 7826,
      "절망": 7827,
      "접은": 7828,
      "접촉": 7829,
      "정열": 7830,
      "정하고": 7831,
      "정성이": 7832,
      "정답이": 7833,
      "정답을": 7834,
      "젖은": 7835,
      "제로": 7836,
      "제습": 7837,
      "제정신이": 7838,
      "조별": 7839,
      "졸라": 7840,
      "종종": 7841,
      "좋네": 7842,
      "좋다고": 7843,
      "좋겠습니다": 7844,
      "좋더라": 7845,
      "좋으니": 7846,
      "주길": 7847,
      "주절": 7848,
      "주체": 7849,
      "주행": 7850,
      "주는데": 7851,
      "주인공": 7852,
      "죽겠어": 7853,
      "준대": 7854,
      "줄도": 7855,
      "줄여": 7856,
      "줄일": 7857,
      "줄임말": 7858,
      "중문": 7859,
      "중이": 7860,
      "줘서": 7861,
      "즈를": 7862,
      "즐길": 7863,
      "증거": 7864,
      "증을": 7865,
      "지날": 7866,
      "지마": 7867,
      "지수": 7868,
      "지적": 7869,
      "지질": 7870,
      "지겠지": 7871,
      "지니까요": 7872,
      "지워질": 7873,
      "지부지": 7874,
      "직후": 7875,
      "진통": 7876,
      "질긴": 7877,
      "질거예요": 7878,
      "질뻔했어": 7879,
      "집앞": 7880,
      "집까지": 7881,
      "짓게": 7882,
      "짼데": 7883,
      "쪼금": 7884,
      "찍었네": 7885,
      "찍어주세요": 7886,
      "찔려": 7887,
      "차게": 7888,
      "차로": 7889,
      "찬물": 7890,
      "찰랑": 7891,
      "참겠어": 7892,
      "참다가": 7893,
      "찼어": 7894,
      "창피해": 7895,
      "찾은": 7896,
      "척해": 7897,
      "척하는게": 7898,
      "천국": 7899,
      "첫사랑을": 7900,
      "쳐서": 7901,
      "초라": 7902,
      "춥고": 7903,
      "충실": 7904,
      "취소": 7905,
      "치마": 7906,
      "치킨": 7907,
      "친군": 7908,
      "침해": 7909,
      "카공": 7910,
      "커풀": 7911,
      "컴터가": 7912,
      "크시겠어요": 7913,
      "크기만큼": 7914,
      "큰일": 7915,
      "키기": 7916,
      "키는": 7917,
      "타도": 7918,
      "탄다": 7919,
      "탈까": 7920,
      "탓하지": 7921,
      "태그": 7922,
      "톡을": 7923,
      "통이": 7924,
      "통장": 7925,
      "투잡": 7926,
      "트는": 7927,
      "트를": 7928,
      "특히": 7929,
      "틀어": 7930,
      "티나나": 7931,
      "판도라": 7932,
      "팔아보세요": 7933,
      "편린": 7934,
      "편해": 7935,
      "편하다는": 7936,
      "평범": 7937,
      "포인트": 7938,
      "폭발": 7939,
      "표출": 7940,
      "푸석": 7941,
      "풀리": 7942,
      "풀어야": 7943,
      "피고": 7944,
      "피하고": 7945,
      "피시방": 7946,
      "하객": 7947,
      "하곤": 7948,
      "하필": 7949,
      "하겠지만": 7950,
      "하라는": 7951,
      "한결": 7952,
      "한눈": 7953,
      "한대": 7954,
      "한듯": 7955,
      "한없이": 7956,
      "할게": 7957,
      "할인": 7958,
      "할거예요": 7959,
      "핫한": 7960,
      "해봐": 7961,
      "해내고": 7962,
      "했다는": 7963,
      "했었는데": 7964,
      "했는지": 7965,
      "향수가": 7966,
      "허기": 7967,
      "허허": 7968,
      "허상일": 7969,
      "헌신": 7970,
      "헛된": 7971,
      "헥헥": 7972,
      "현관": 7973,
      "현상": 7974,
      "혔어": 7975,
      "호르몬": 7976,
      "혼내": 7977,
      "혼밥": 7978,
      "혼인신고": 7979,
      "화난": 7980,
      "화학": 7981,
      "화해": 7982,
      "후배가": 7983,
      "훈훈": 7984,
      "휘둘": 7985,
      "휴유증": 7986,
      "흐려": 7987,
      "흐지부지": 7988,
      "흔적이": 7989,
      "흘리세요": 7990,
      "히는": 7991,
      "히스테": 7992,
      "힘은": 7993,
      "사람만의": 7994,
      "사람일지도": 7995,
      "좋아져": 7996,
      "좋아진": 7997,
      "좋아졌어": 7998,
      "좋아했나봐요": 7999,
      "좋아하니까": 8000,
      "좋아했지만": 8001,
      "사랑만": 8002,
      "사랑하세요": 8003,
      "사랑하게": 8004,
      "사랑보다": 8005,
      "사랑합니다": 8006,
      "사랑이야기": 8007,
      "사랑했어": 8008,
      "사랑해주는": 8009,
      "사랑받는": 8010,
      "사랑해줄": 8011,
      "사랑하나봅니다": 8012,
      "생각지": 8013,
      "생각지도": 8014,
      "생각입니다": 8015,
      "생각했던": 8016,
      "생각인지": 8017,
      "생각처럼": 8018,
      "생각없이": 8019,
      "생각하면서": 8020,
      "생각일까": 8021,
      "생각하나봐요": 8022,
      "친구에게": 8023,
      "친구들은": 8024,
      "는데는": 8025,
      "하고싶은": 8026,
      "마음껏": 8027,
      "마음이에요": 8028,
      "마음에게": 8029,
      "마음가는": 8030,
      "마음인지": 8031,
      "마음정리하세요": 8032,
      "너무하네": 8033,
      "이별할": 8034,
      "이별하면": 8035,
      "이별이에요": 8036,
      "이별준비": 8037,
      "이별하려고": 8038,
      "연락했어": 8039,
      "연락오네": 8040,
      "연락했습니다": 8041,
      "하지마": 8042,
      "여자인데": 8043,
      "남자의": 8044,
      "남자애랑": 8045,
      "힘들면": 8046,
      "힘들거라": 8047,
      "시간이에요": 8048,
      "시간낭비": 8049,
      "좋은지": 8050,
      "사람이었나봐요": 8051,
      "으로도": 8052,
      "있는거예요": 8053,
      "만나실": 8054,
      "만나기만": 8055,
      "오늘로": 8056,
      "해야겠어": 8057,
      "자신만의": 8058,
      "이제부터": 8059,
      "좋을지도": 8060,
      "괜찮지": 8061,
      "괜찮습니다": 8062,
      "아니니": 8063,
      "아니겠지": 8064,
      "아니었어": 8065,
      "연애도": 8066,
      "연애인": 8067,
      "연애상담": 8068,
      "연애할때": 8069,
      "연애였는데": 8070,
      "마음이네요": 8071,
      "필요가": 8072,
      "필요도": 8073,
      "모르겠다": 8074,
      "모르겠지만": 8075,
      "다른데": 8076,
      "시간이었을": 8077,
      "없어졌으면": 8078,
      "들어오면": 8079,
      "들어맞나봅니다": 8080,
      "짝남과": 8081,
      "짝남은": 8082,
      "헤어진지도": 8083,
      "보고만": 8084,
      "보고파": 8085,
      "당신만": 8086,
      "당신이네요": 8087,
      "다시는": 8088,
      "일이니까요": 8089,
      "일이라도": 8090,
      "정리하게": 8091,
      "정리하는데": 8092,
      "정리되길": 8093,
      "정리하길": 8094,
      "정리했습니다": 8095,
      "정리하려고": 8096,
      "결혼에": 8097,
      "결혼하": 8098,
      "결혼준비": 8099,
      "결혼이나": 8100,
      "결혼한지": 8101,
      "하나만": 8102,
      "중요하겠죠": 8103,
      "중요하니까요": 8104,
      "행복이": 8105,
      "행복하면": 8106,
      "행복했으면": 8107,
      "조금이나": 8108,
      "다가가도": 8109,
      "다가오고": 8110,
      "준비되어야": 8111,
      "고민을": 8112,
      "고민해보세요": 8113,
      "고민이네요": 8114,
      "사랑이라고": 8115,
      "사랑이었나봐요": 8116,
      "사랑이었으니까요": 8117,
      "보는것도": 8118,
      "선물해도": 8119,
      "찾아오네": 8120,
      "방법은": 8121,
      "방법이죠": 8122,
      "아무는": 8123,
      "아무런": 8124,
      "아무말도": 8125,
      "물어보거나": 8126,
      "고백이": 8127,
      "고백한": 8128,
      "고백해야": 8129,
      "고백했다": 8130,
      "고백받았어": 8131,
      "고백할까요": 8132,
      "이야기가": 8133,
      "이야기는": 8134,
      "이야기할": 8135,
      "이야기해요": 8136,
      "이야기하세요": 8137,
      "짝녀와": 8138,
      "그럴까요": 8139,
      "그럴수도": 8140,
      "싶은거": 8141,
      "싶은게": 8142,
      "짝사랑만": 8143,
      "짝사랑에서": 8144,
      "후회하면": 8145,
      "후회안할": 8146,
      "받아도": 8147,
      "사귀긴": 8148,
      "사귀다": 8149,
      "사귀세요": 8150,
      "사귀는데": 8151,
      "사귀자고": 8152,
      "사귀자는": 8153,
      "시작은": 8154,
      "시작을": 8155,
      "시작해": 8156,
      "시작하는": 8157,
      "헤어지네": 8158,
      "헤어지자는": 8159,
      "아닌가": 8160,
      "감정도": 8161,
      "여행지": 8162,
      "여행가고": 8163,
      "공부를": 8164,
      "공부하는": 8165,
      "공부할까": 8166,
      "공부하러": 8167,
      "하루일": 8168,
      "거라도": 8169,
      "이상의": 8170,
      "이상한가": 8171,
      "가고싶다": 8172,
      "걱정을": 8173,
      "걱정하면": 8174,
      "걱정마세요": 8175,
      "싫어졌어": 8176,
      "알아야": 8177,
      "알아가는": 8178,
      "데이트는": 8179,
      "데이트할": 8180,
      "데이트하고": 8181,
      "상대는": 8182,
      "상대에": 8183,
      "힘들어도": 8184,
      "기억될": 8185,
      "기억만": 8186,
      "머리로": 8187,
      "상처받는": 8188,
      "있었던": 8189,
      "있었어요": 8190,
      "있었나봅니다": 8191,
      "했던거": 8192,
      "언제부터": 8193,
      "표현하세요": 8194,
      "표현해주세요": 8195,
      "표현하기": 8196,
      "오래갈": 8197,
      "카톡할": 8198,
      "함께면": 8199,
      "돌아갈": 8200,
      "돌아와": 8201,
      "돌아가는": 8202,
      "돌아오는": 8203,
      "돌아오지": 8204,
      "돌아올까": 8205,
      "누구냐": 8206,
      "누구한테": 8207,
      "누구보다": 8208,
      "이해는": 8209,
      "이해해요": 8210,
      "보내세요": 8211,
      "보내보세요": 8212,
      "생겼지": 8213,
      "사랑하는지": 8214,
      "결정하는": 8215,
      "결정하기": 8216,
      "결정이었": 8217,
      "궁금하면": 8218,
      "궁금한게": 8219,
      "궁금증을": 8220,
      "운동은": 8221,
      "운동화": 8222,
      "어디가": 8223,
      "어디에서": 8224,
      "어디가지": 8225,
      "선택의": 8226,
      "선택으로": 8227,
      "아프기": 8228,
      "아프겠어요": 8229,
      "아프지만": 8230,
      "한달째": 8231,
      "한달이에요": 8232,
      "한달만에": 8233,
      "부담스러울": 8234,
      "미련만": 8235,
      "미련한": 8236,
      "미련없이": 8237,
      "노력해도": 8238,
      "지나고": 8239,
      "지나봐": 8240,
      "지나가는": 8241,
      "지나갑니다": 8242,
      "기도할게요": 8243,
      "때문이에요": 8244,
      "때문이겠죠": 8245,
      "전화는": 8246,
      "전화해도": 8247,
      "그러지": 8248,
      "그러니까": 8249,
      "인연에": 8250,
      "인연이죠": 8251,
      "인연이라면": 8252,
      "않았기": 8253,
      "않았을": 8254,
      "않았네요": 8255,
      "않았다면": 8256,
      "아파요": 8257,
      "아파하고": 8258,
      "아파하다가": 8259,
      "재미있는": 8260,
      "인생이에요": 8261,
      "잘못은": 8262,
      "신경쓰인": 8263,
      "신경쓰이는": 8264,
      "동안의": 8265,
      "해지고": 8266,
      "달라는": 8267,
      "달라질": 8268,
      "처음엔": 8269,
      "상황에": 8270,
      "상황일": 8271,
      "우리집": 8272,
      "만났을": 8273,
      "만들면": 8274,
      "만들죠": 8275,
      "답답하다": 8276,
      "답답할거라": 8277,
      "되었는지": 8278,
      "맞는거": 8279,
      "스럽네": 8280,
      "확실하게": 8281,
      "하면서도": 8282,
      "결국은": 8283,
      "챙겨주세요": 8284,
      "화가나네": 8285,
      "관계는": 8286,
      "관계도": 8287,
      "관계에": 8288,
      "기대는": 8289,
      "기대했는데": 8290,
      "기대치가": 8291,
      "보여도": 8292,
      "잊어버리는": 8293,
      "생각나네요": 8294,
      "세상이죠": 8295,
      "정신병": 8296,
      "정신적": 8297,
      "정신차": 8298,
      "건강한": 8299,
      "순간을": 8300,
      "의미일까": 8301,
      "가져주세요": 8302,
      "가져가면": 8303,
      "가져왔다": 8304,
      "마지막을": 8305,
      "마지막이": 8306,
      "나쁜놈": 8307,
      "나쁜건지": 8308,
      "추천드려요": 8309,
      "확인해": 8310,
      "확인하고": 8311,
      "가슴은": 8312,
      "다니고": 8313,
      "만들어봐요": 8314,
      "살고싶어": 8315,
      "아침마다": 8316,
      "마시기": 8317,
      "마시며": 8318,
      "말이예요": 8319,
      "안되나": 8320,
      "안되나봐요": 8321,
      "안되겠죠": 8322,
      "영화나": 8323,
      "영화보고": 8324,
      "영화보러": 8325,
      "헤어짐도": 8326,
      "상대방은": 8327,
      "지내요": 8328,
      "생각해봅니다": 8329,
      "귀찮게": 8330,
      "귀찮다": 8331,
      "그리움이": 8332,
      "그리움을": 8333,
      "어느정도": 8334,
      "재회했는데": 8335,
      "정도에": 8336,
      "사람들한테": 8337,
      "부모님께": 8338,
      "떨어짐": 8339,
      "바람둥": 8340,
      "아닐거예요": 8341,
      "적이면": 8342,
      "헤어지고나서": 8343,
      "나가도": 8344,
      "알려면": 8345,
      "살아서": 8346,
      "살아온": 8347,
      "살아가는": 8348,
      "살아야죠": 8349,
      "잊혀진": 8350,
      "기다리게": 8351,
      "모습만": 8352,
      "모습으로": 8353,
      "연습해": 8354,
      "연습하고": 8355,
      "인정하는": 8356,
      "인정하세요": 8357,
      "하시고": 8358,
      "하시겠어요": 8359,
      "하시겠네요": 8360,
      "이별이든": 8361,
      "되어가길": 8362,
      "모두를": 8363,
      "문제에": 8364,
      "문제인가요": 8365,
      "예의를": 8366,
      "오는지": 8367,
      "날씨도": 8368,
      "내려놓고": 8369,
      "복잡할": 8370,
      "복잡하게": 8371,
      "복잡한가봐요": 8372,
      "스스로를": 8373,
      "얼굴보고": 8374,
      "좋아할까요": 8375,
      "필요한가요": 8376,
      "눈물을": 8377,
      "상관없이": 8378,
      "것이든": 8379,
      "관리가": 8380,
      "무시당하는": 8381,
      "짜증남": 8382,
      "도와드릴게요": 8383,
      "도와줘야": 8384,
      "별로임": 8385,
      "별로네요": 8386,
      "차단도": 8387,
      "차단하고": 8388,
      "차단하세요": 8389,
      "피곤해서": 8390,
      "피곤하겠어요": 8391,
      "학교에": 8392,
      "괜찮은거": 8393,
      "자리가": 8394,
      "받아들이세요": 8395,
      "!!!": 8396,
      "솔직하고": 8397,
      "지켜주세요": 8398,
      "사랑에도": 8399,
      "마주쳤": 8400,
      "마주치지": 8401,
      "설레고": 8402,
      "외로움": 8403,
      "드는걸로": 8404,
      "아이고": 8405,
      "힘이드네": 8406,
      "놓아줄": 8407,
      "배우자": 8408,
      "배우세요": 8409,
      "배우자가": 8410,
      "주변의": 8411,
      "행동할": 8412,
      "2년의": 8413,
      "2년째": 8414,
      "성격도": 8415,
      "지났어요": 8416,
      "집착하게": 8417,
      "느껴질": 8418,
      "느껴보세요": 8419,
      "도전이": 8420,
      "도전해보세요": 8421,
      "우울증": 8422,
      "우울한": 8423,
      "주말인데": 8424,
      "주말이네요": 8425,
      "차이인": 8426,
      "하려나": 8427,
      "나아지길": 8428,
      "다를거예요": 8429,
      "버렸습니다": 8430,
      "여유롭게": 8431,
      "이겨내고": 8432,
      "끝나면": 8433,
      "연인이": 8434,
      "자체를": 8435,
      "헷갈려": 8436,
      "이상형을": 8437,
      "그분도": 8438,
      "그분에": 8439,
      "그분에게": 8440,
      "부족한가봐요": 8441,
      "부족한가": 8442,
      "먹을수록": 8443,
      "방학에": 8444,
      "방학은": 8445,
      "소식을": 8446,
      "대화해보세요": 8447,
      "마셔요": 8448,
      "마셔보세요": 8449,
      "어렵지": 8450,
      "우산을": 8451,
      "월급을": 8452,
      "이러고": 8453,
      "이러다": 8454,
      "이러면": 8455,
      "진정하세요": 8456,
      "하늘이": 8457,
      "한거니": 8458,
      "흘렀네": 8459,
      "흘렀나봐요": 8460,
      "???": 8461,
      "비밀연애": 8462,
      "쇼핑몰": 8463,
      "장난인지": 8464,
      "장난스러운": 8465,
      "전여친한테": 8466,
      "전여친이랑": 8467,
      "종교를": 8468,
      "청소는": 8469,
      "좋아하는데도": 8470,
      "연락해도될까": 8471,
      "해야할듯": 8472,
      "5년간": 8473,
      "5년연애": 8474,
      "기만해도": 8475,
      "두고두고": 8476,
      "문자를": 8477,
      "바라는게": 8478,
      "분위기가": 8479,
      "이번엔": 8480,
      "허전할": 8481,
      "허전한가봐요": 8482,
      "허전하겠어요": 8483,
      "이라면요": 8484,
      "받아들여보세요": 8485,
      "당연해요": 8486,
      "어울릴까": 8487,
      "조언이": 8488,
      "존중합니다": 8489,
      "존중해줬으면": 8490,
      "칭찬해보세요": 8491,
      "통보하는": 8492,
      "10일째": 8493,
      "예쁜데": 8494,
      "지쳤어": 8495,
      "차분하고": 8496,
      "취직할": 8497,
      "취직이나": 8498,
      "바보같이": 8499,
      "서운하겠어요": 8500,
      "서운하다고": 8501,
      "쉬어가는": 8502,
      "쉬어가세요": 8503,
      "슬프다": 8504,
      "썸녀랑": 8505,
      "키우기": 8506,
      "해져도": 8507,
      "해졌나봐요": 8508,
      "했을거라": 8509,
      "귀여운": 8510,
      "나오고": 8511,
      "나오라고": 8512,
      "나온다": 8513,
      "당황하셨겠어요": 8514,
      "떨려서": 8515,
      "배워도": 8516,
      "배워보고": 8517,
      "배워볼까": 8518,
      "배워가는": 8519,
      "일주일이네": 8520,
      "자유를": 8521,
      "적응이": 8522,
      "좋았을텐데": 8523,
      "최선이었을": 8524,
      "고마워요": 8525,
      "기운을": 8526,
      "기운이": 8527,
      "동생이": 8528,
      "동생인데": 8529,
      "동생이랑": 8530,
      "몰랐어": 8531,
      "몰랐어요": 8532,
      "배려해보세요": 8533,
      "배려해야": 8534,
      "보냈으니": 8535,
      "삭제하는": 8536,
      "생기길": 8537,
      "얘기해": 8538,
      "얘기하지": 8539,
      "어색한": 8540,
      "어색해": 8541,
      "적극적인": 8542,
      "질투가": 8543,
      "질투를": 8544,
      "질투난다고": 8545,
      "힘내요": 8546,
      "스타일에": 8547,
      "3개월째": 8548,
      "3개월만에": 8549,
      "담배를": 8550,
      "무너진": 8551,
      "무너졌어": 8552,
      "무뎌질": 8553,
      "무뎌지는": 8554,
      "본인이": 8555,
      "사실에": 8556,
      "사실을": 8557,
      "인사드리러": 8558,
      "착각이": 8559,
      "좋아한대": 8560,
      "잊혀지네": 8561,
      "연예인도": 8562,
      "4년을": 8563,
      "귀엽죠": 8564,
      "귀엽겠네요": 8565,
      "바꿔야": 8566,
      "바꿔볼까": 8567,
      "바꿔야지": 8568,
      "오지랖": 8569,
      "일상으로": 8570,
      "조절이": 8571,
      "지쳐요": 8572,
      "SNS에": 8573,
      "괴롭다": 8574,
      "면접만": 8575,
      "무섭네": 8576,
      "무섭다": 8577,
      "문득문득": 8578,
      "바뀌어": 8579,
      "반복되는": 8580,
      "의지해보세요": 8581,
      "의지해도": 8582,
      "이사하는": 8583,
      "이용하는": 8584,
      "친구로서": 8585,
      "가까이": 8586,
      "가까워질": 8587,
      "가벼워질": 8588,
      "간절한": 8589,
      "사라진": 8590,
      "상사병": 8591,
      "시키세요": 8592,
      "영원히": 8593,
      "이혼을": 8594,
      "가능할까요": 8595,
      "일어나야": 8596,
      "갑작스러": 8597,
      "개인의": 8598,
      "것만은": 8599,
      "것만으로도": 8600,
      "기울여보세요": 8601,
      "남편이네요": 8602,
      "느려졌어": 8603,
      "대단한": 8604,
      "미안하대": 8605,
      "버리네": 8606,
      "비슷하죠": 8607,
      "상태인": 8608,
      "신청해보세요": 8609,
      "역시나": 8610,
      "전부는": 8611,
      "조급해": 8612,
      "조급하게": 8613,
      "차별이": 8614,
      "3주째": 8615,
      "견뎌봐요": 8616,
      "깨달음이": 8617,
      "남사친이랑": 8618,
      "말투는": 8619,
      "몰라서": 8620,
      "무덤덤해질": 8621,
      "무덤덤해지는": 8622,
      "분명히": 8623,
      "분명하게": 8624,
      "실망하지": 8625,
      "아까운": 8626,
      "어린이집": 8627,
      "어장인거": 8628,
      "여기까지였을": 8629,
      "여사친이랑": 8630,
      "원망은": 8631,
      "정확히": 8632,
      "돌아오길": 8633,
      "겨울에는": 8634,
      "다양한": 8635,
      "로워지세요": 8636,
      "미안해하지": 8637,
      "바꾸는": 8638,
      "바꾸세요": 8639,
      "시기에요": 8640,
      "울적한": 8641,
      "울적해": 8642,
      "의심이": 8643,
      "의심하지": 8644,
      "주말이네": 8645,
      "진급할": 8646,
      "채워보세요": 8647,
      "채워줄게요": 8648,
      "클럽을": 8649,
      "힘들었을텐데": 8650,
      "가치관에": 8651,
      "달달할": 8652,
      "떨리겠어요": 8653,
      "막히네": 8654,
      "말아야": 8655,
      "반대래요": 8656,
      "받았던": 8657,
      "변덕이": 8658,
      "변덕스럽게": 8659,
      "예쁘다": 8660,
      "제자리여도": 8661,
      "페북을": 8662,
      "흘러갈": 8663,
      "냉장고에": 8664,
      "고맙다고": 8665,
      "나에게도": 8666,
      "남기고": 8667,
      "내리는게": 8668,
      "맛난거": 8669,
      "머릿속이": 8670,
      "물리적인": 8671,
      "빠르게": 8672,
      "소비를": 8673,
      "심리일까요": 8674,
      "심심한데": 8675,
      "아껴주세요": 8676,
      "외롭다고": 8677,
      "이뤄지지": 8678,
      "인기있는": 8679,
      "중독인가봐": 8680,
      "진지하게": 8681,
      "헬스장에서": 8682,
      "드라이플라": 8683,
      "배고파서": 8684,
      "감성적이": 8685,
      "개강이라니": 8686,
      "경쟁이": 8687,
      "그대의": 8688,
      "깨끗이": 8689,
      "달려있겠죠": 8690,
      "떠오르": 8691,
      "똑똑해": 8692,
      "멋지네요": 8693,
      "무거운": 8694,
      "받으려면": 8695,
      "베터리가": 8696,
      "센스가": 8697,
      "순수한": 8698,
      "여기서": 8699,
      "패턴을": 8700,
      "복잡한가요": 8701,
      "익숙해지지": 8702,
      "익숙해지지가": 8703,
      "간단하게": 8704,
      "길러보세요": 8705,
      "길러볼까": 8706,
      "다닐까": 8707,
      "먹으러": 8708,
      "먹으니까": 8709,
      "빠져나오세요": 8710,
      "애교가": 8711,
      "여우같은": 8712,
      "웬수예요": 8713,
      "웬수네요": 8714,
      "허무하네": 8715,
      "헛헛한가봐요": 8716,
      "의미부여는": 8717,
      "영화관이나": 8718,
      "일어났더니": 8719,
      "그리운가봐요": 8720,
      "더라구요": 8721,
      "기한이": 8722,
      "노후는": 8723,
      "다정한": 8724,
      "대리효도": 8725,
      "든든할": 8726,
      "못했군요": 8727,
      "상의해보세요": 8728,
      "새출발하세요": 8729,
      "올랐어": 8730,
      "유학을": 8731,
      "유효기간이": 8732,
      "지치네": 8733,
      "차례예요": 8734,
      "축복과": 8735,
      "토닥토닥": 8736,
      "풀렸길": 8737,
      "결혼적령기가": 8738,
      "상처받게": 8739,
      "자존심을": 8740,
      "태어났을까": 8741,
      "봉사활동도": 8742,
      "가늠하지": 8743,
      "간질간질": 8744,
      "나누는게": 8745,
      "너덜너덜": 8746,
      "느낀다면": 8747,
      "다되가네": 8748,
      "단순한": 8749,
      "맞춤법": 8750,
      "무릎에": 8751,
      "바디로션": 8752,
      "바디워시": 8753,
      "오르네": 8754,
      "접어두셔요": 8755,
      "조용히": 8756,
      "주름살": 8757,
      "중2병": 8758,
      "중고로": 8759,
      "지긋한": 8760,
      "지긋지긋한": 8761,
      "지겨워진": 8762,
      "책임질": 8763,
      "첫인상은": 8764,
      "추운가요": 8765,
      "혼란스러워": 8766,
      "희생양이": 8767,
      "마주치면": 8768,
      "퇴근길에": 8769,
      "화이트데이에": 8770,
      "가라앉": 8771,
      "가스비": 8772,
      "같았던": 8773,
      "그것만큼": 8774,
      "끝일줄": 8775,
      "나약한": 8776,
      "떨쳐버리세요": 8777,
      "물가가": 8778,
      "미화되기": 8779,
      "반갑습니다": 8780,
      "배터리": 8781,
      "서서히": 8782,
      "세월이": 8783,
      "시골에서": 8784,
      "오려나봐요": 8785,
      "와닿지": 8786,
      "일요일에": 8787,
      "쟁취하는": 8788,
      "제안해보세요": 8789,
      "착잡하겠어요": 8790,
      "한켠에": 8791,
      "이어나가는게": 8792,
      "뒤숭숭하네": 8793,
      "객관적으로": 8794,
      "깎아야지": 8795,
      "꾸미고": 8796,
      "모으는": 8797,
      "무모한": 8798,
      "보듬어": 8799,
      "브랜드가": 8800,
      "설득해보세요": 8801,
      "소름돋": 8802,
      "속박에서": 8803,
      "손가락이": 8804,
      "알겠어서": 8805,
      "잡념을": 8806,
      "종지부를": 8807,
      "최저임금": 8808,
      "친척들": 8809,
      "편안하게": 8810,
      "확률이": 8811,
      "훔쳐보는": 8812,
      "신경쓰이나봐요": 8813,
      "습관처럼은": 8814,
      "떨어뜨려서": 8815,
      "알바생이": 8816,
      "가족들과": 8817,
      "자유로워질": 8818,
      "결혼적령기예요": 8819,
      "그린라이트일까": 8820,
      "애프터까지": 8821,
      "가량의": 8822,
      "거꾸로": 8823,
      "견과류": 8824,
      "계산적인": 8825,
      "넋두리": 8826,
      "다독여주세요": 8827,
      "도저히": 8828,
      "따져보세요": 8829,
      "떡볶이": 8830,
      "멘탈이": 8831,
      "목욕탕": 8832,
      "미소짓게": 8833,
      "별의별": 8834,
      "비트코인": 8835,
      "비혼주의": 8836,
      "선의의": 8837,
      "수천번": 8838,
      "실용적인": 8839,
      "애완동물": 8840,
      "영향을": 8841,
      "왜이리": 8842,
      "유통기한이": 8843,
      "재채기": 8844,
      "접촉하는": 8845,
      "진통제": 8846,
      "판도라의": 8847,
      "포인트가": 8848,
      "히스테리": 8849,
      "조금이나마": 8850,
      "드라이플라워": 8851,
      ".!": 8852,
      "0일째": 8853,
      "0칼로리": 8854,
      "1도": 8855,
      "1은": 8856,
      "1지": 8857,
      "1호": 8858,
      "14년": 8859,
      "1달째": 8860,
      "1순위": 8861,
      "2번": 8862,
      "2일째": 8863,
      "2달째": 8864,
      "3박": 8865,
      "3일": 8866,
      "3달째": 8867,
      "3달이": 8868,
      "4번의": 8869,
      "5월": 8870,
      "5일": 8871,
      "6일": 8872,
      "8개월": 8873,
      "9개월": 8874,
      "?.": 8875,
      "A형": 8876,
      "AB형": 8877,
      "CC": 8878,
      "D카드": 8879,
      "O형": 8880,
      "SD카드": 8881,
      "go": 8882,
      "….": 8883,
      "가르": 8884,
      "가망": 8885,
      "가며": 8886,
      "가방": 8887,
      "가사": 8888,
      "가수": 8889,
      "가습": 8890,
      "가재": 8891,
      "가출": 8892,
      "가혹": 8893,
      "가라고": 8894,
      "가볼까": 8895,
      "가지만": 8896,
      "가리면": 8897,
      "가봤어": 8898,
      "가봅시다": 8899,
      "각한데": 8900,
      "간지": 8901,
      "간다면": 8902,
      "갈구": 8903,
      "갈래": 8904,
      "갈만한": 8905,
      "갈렸나봐요": 8906,
      "감미": 8907,
      "감상": 8908,
      "감추": 8909,
      "감한": 8910,
      "값을": 8911,
      "값이": 8912,
      "값이죠": 8913,
      "갔습니다": 8914,
      "강림": 8915,
      "강박": 8916,
      "강차": 8917,
      "강추": 8918,
      "강신청": 8919,
      "갖는": 8920,
      "같고": 8921,
      "같을까": 8922,
      "같기도": 8923,
      "같음을": 8924,
      "같다가도": 8925,
      "갚고": 8926,
      "갚을": 8927,
      "개가": 8928,
      "개야": 8929,
      "개째": 8930,
      "개당황": 8931,
      "개기름": 8932,
      "개발을": 8933,
      "갱신": 8934,
      "걔도": 8935,
      "걔랑": 8936,
      "거다": 8937,
      "거릴": 8938,
      "거슬": 8939,
      "거창": 8940,
      "거에서": 8941,
      "거리고": 8942,
      "거같네": 8943,
      "거부의": 8944,
      "거름이": 8945,
      "건너": 8946,
      "건네": 8947,
      "건물": 8948,
      "건방": 8949,
      "걷기": 8950,
      "걷다보면": 8951,
      "걸게": 8952,
      "걸레": 8953,
      "걸렸": 8954,
      "걸지": 8955,
      "걸어도": 8956,
      "걸으세요": 8957,
      "걸려요": 8958,
      "검진": 8959,
      "겁이": 8960,
      "겁이나": 8961,
      "것과": 8962,
      "것부터": 8963,
      "것이라면": 8964,
      "게탕": 8965,
      "게스트": 8966,
      "게되네": 8967,
      "겟어": 8968,
      "겟죠": 8969,
      "격식은": 8970,
      "겪은": 8971,
      "견딜": 8972,
      "견례": 8973,
      "결단": 8974,
      "결이": 8975,
      "결재": 8976,
      "겼나봐요": 8977,
      "겼다고": 8978,
      "경과": 8979,
      "경조": 8980,
      "경찰": 8981,
      "경향이": 8982,
      "계단": 8983,
      "계기를": 8984,
      "고3": 8985,
      "고구": 8986,
      "고는": 8987,
      "고데": 8988,
      "고문": 8989,
      "고비": 8990,
      "고시": 8991,
      "고와": 8992,
      "고작": 8993,
      "고파": 8994,
      "고장이": 8995,
      "고치는": 8996,
      "고르세요": 8997,
      "곡에": 8998,
      "곤증": 8999,
      "골반": 9000,
      "골인": 9001,
      "곱씹": 9002,
      "곱창": 9003,
      "곱다고": 9004,
      "곳과": 9005,
      "곳인가봐요": 9006,
      "곳이라면요": 9007,
      "공급": 9008,
      "공기": 9009,
      "공동": 9010,
      "공연": 9011,
      "공채": 9012,
      "공적인": 9013,
      "공감을": 9014,
      "과에": 9015,
      "과외": 9016,
      "과의": 9017,
      "과적": 9018,
      "과제": 9019,
      "과함": 9020,
      "과해도": 9021,
      "과일이": 9022,
      "과하죠": 9023,
      "과일을": 9024,
      "과거의": 9025,
      "과거는": 9026,
      "관념": 9027,
      "관에": 9028,
      "관절": 9029,
      "관해보세요": 9030,
      "광탈": 9031,
      "광합": 9032,
      "광고가": 9033,
      "괘씸": 9034,
      "괴로운": 9035,
      "괴물이": 9036,
      "교직": 9037,
      "교환": 9038,
      "교복이": 9039,
      "구걸": 9040,
      "구꺼": 9041,
      "구릿": 9042,
      "구만": 9043,
      "구상": 9044,
      "구죠": 9045,
      "구쳐": 9046,
      "구남친": 9047,
      "구썸남": 9048,
      "구분이": 9049,
      "구하셨": 9050,
      "구여친이랑": 9051,
      "국물": 9052,
      "국수": 9053,
      "국가요": 9054,
      "굴면": 9055,
      "궁무": 9056,
      "궈보세요": 9057,
      "권리": 9058,
      "권유": 9059,
      "권이": 9060,
      "귀차": 9061,
      "귀찬": 9062,
      "균형이": 9063,
      "그놈": 9064,
      "그때": 9065,
      "그란": 9066,
      "그후": 9067,
      "그여자": 9068,
      "그사람은": 9069,
      "그사람도": 9070,
      "그때는": 9071,
      "그것은": 9072,
      "그곳에서": 9073,
      "그치지": 9074,
      "극혐": 9075,
      "근한": 9076,
      "근황": 9077,
      "글이": 9078,
      "글에서": 9079,
      "금값": 9080,
      "금물": 9081,
      "금사": 9082,
      "금통": 9083,
      "급해": 9084,
      "급하게": 9085,
      "급이야": 9086,
      "급력이": 9087,
      "급받으세요": 9088,
      "기견": 9089,
      "기계": 9090,
      "기나": 9091,
      "기능": 9092,
      "기라": 9093,
      "기면": 9094,
      "기부": 9095,
      "기뻐": 9096,
      "기쁜": 9097,
      "기어": 9098,
      "기우": 9099,
      "기적": 9100,
      "기차": 9101,
      "기찬": 9102,
      "기특": 9103,
      "기획": 9104,
      "기니까요": 9105,
      "기대로": 9106,
      "기초대": 9107,
      "기인가봅니다": 9108,
      "기적이죠": 9109,
      "기자랑": 9110,
      "기관에": 9111,
      "긴가": 9112,
      "긴여": 9113,
      "긴지": 9114,
      "긴이별": 9115,
      "긴다는": 9116,
      "긴하긴": 9117,
      "길에": 9118,
      "깃만": 9119,
      "깅하고": 9120,
      "깊어": 9121,
      "깊이": 9122,
      "깊었을": 9123,
      "까옷": 9124,
      "까먹어": 9125,
      "깍고": 9126,
      "깎인": 9127,
      "깎아요": 9128,
      "깐깐": 9129,
      "깜깜": 9130,
      "깨는": 9131,
      "깨서": 9132,
      "깨진": 9133,
      "깨질": 9134,
      "깨지고": 9135,
      "깨졌는데": 9136,
      "꺼질": 9137,
      "꺼에요": 9138,
      "꺼지기": 9139,
      "꼬르": 9140,
      "꼬리": 9141,
      "꼬리가": 9142,
      "꼬시지": 9143,
      "꼬였는지": 9144,
      "꼬까옷": 9145,
      "꽂이": 9146,
      "꽃을": 9147,
      "꽃으로": 9148,
      "꽃바구": 9149,
      "꽃게탕": 9150,
      "꽃꽂이": 9151,
      "꾸고": 9152,
      "꾸난": 9153,
      "꾸룩": 9154,
      "꾸는데": 9155,
      "꿀꿀": 9156,
      "꿈도": 9157,
      "꿈같은": 9158,
      "꿈이었": 9159,
      "꿈처럼": 9160,
      "꿈같다": 9161,
      "꿈같았던": 9162,
      "꿨어요": 9163,
      "꿨는데": 9164,
      "꿨는지": 9165,
      "꿰메": 9166,
      "끄고": 9167,
      "끄세요": 9168,
      "끈거려": 9169,
      "끊겼": 9170,
      "끊으세요": 9171,
      "끊었으면": 9172,
      "끊겼는데": 9173,
      "끊으라고": 9174,
      "끊긴지": 9175,
      "끓이는": 9176,
      "끝인가봐요": 9177,
      "끝나서": 9178,
      "끝나가": 9179,
      "끝인가봐": 9180,
      "끝냈어": 9181,
      "끼고": 9182,
      "끼세요": 9183,
      "낌새가": 9184,
      "나갈": 9185,
      "나감": 9186,
      "나기": 9187,
      "나길": 9188,
      "나눴": 9189,
      "나라": 9190,
      "나로": 9191,
      "나바": 9192,
      "나쁨": 9193,
      "나에": 9194,
      "나옴": 9195,
      "나네요": 9196,
      "나나봐요": 9197,
      "나아요": 9198,
      "나가봐요": 9199,
      "나대로": 9200,
      "나가고": 9201,
      "나면서": 9202,
      "나가요": 9203,
      "나으세요": 9204,
      "나오는": 9205,
      "나쁘게": 9206,
      "나올까": 9207,
      "낙담": 9208,
      "낙엽": 9209,
      "낙이죠": 9210,
      "난처": 9211,
      "난데요": 9212,
      "날도": 9213,
      "날들": 9214,
      "날려": 9215,
      "날을": 9216,
      "날인": 9217,
      "날카": 9218,
      "날거예요": 9219,
      "날이야": 9220,
      "날들이": 9221,
      "날까지": 9222,
      "날인가": 9223,
      "날텐데": 9224,
      "날이었나봅니다": 9225,
      "날에만": 9226,
      "남잔": 9227,
      "남주": 9228,
      "남나봐요": 9229,
      "남겠죠": 9230,
      "남보다": 9231,
      "남이죠": 9232,
      "남았어": 9233,
      "남이라는": 9234,
      "남겨보세요": 9235,
      "남동생한테": 9236,
      "낫고": 9237,
      "낫다": 9238,
      "낫지": 9239,
      "낫겠네요": 9240,
      "났으면": 9241,
      "났나봐요": 9242,
      "났습니다": 9243,
      "났나봅니다": 9244,
      "낭만이": 9245,
      "낮춰": 9246,
      "낮잠을": 9247,
      "낮잠은": 9248,
      "내장": 9249,
      "내봐요": 9250,
      "내거나": 9251,
      "내리기": 9252,
      "내렸나봐요": 9253,
      "내냐구": 9254,
      "내야하나": 9255,
      "내키는": 9256,
      "낸다면": 9257,
      "냈는데": 9258,
      "냉동": 9259,
      "냉방비": 9260,
      "너란": 9261,
      "너만": 9262,
      "널을": 9263,
      "넓고": 9264,
      "넘었어": 9265,
      "넘겨보세요": 9266,
      "넛오": 9267,
      "넣고": 9268,
      "넣어보세요": 9269,
      "넣으세요": 9270,
      "네가": 9271,
      "네여": 9272,
      "넥타이": 9273,
      "노답": 9274,
      "노동": 9275,
      "노처": 9276,
      "노려보세요": 9277,
      "노후가": 9278,
      "녹여": 9279,
      "녹음": 9280,
      "녹차": 9281,
      "녹여보세요": 9282,
      "놀라": 9283,
      "놀려": 9284,
      "놀지": 9285,
      "놀까요": 9286,
      "놀리는": 9287,
      "놀았는데": 9288,
      "놀기만": 9289,
      "놀아서": 9290,
      "놈들": 9291,
      "높은": 9292,
      "높이": 9293,
      "높으면": 9294,
      "높겠죠": 9295,
      "높나봅니다": 9296,
      "높여보세요": 9297,
      "놓으": 9298,
      "놓은": 9299,
      "놓쳤": 9300,
      "놓침": 9301,
      "놓쳤어": 9302,
      "놓쳐서": 9303,
      "놨나봐요": 9304,
      "뇌세포": 9305,
      "누나": 9306,
      "누룽": 9307,
      "누나가": 9308,
      "눅눅": 9309,
      "눈빛": 9310,
      "눈사람": 9311,
      "눈에도": 9312,
      "눈살이": 9313,
      "눌러": 9314,
      "눕지": 9315,
      "뉴스": 9316,
      "뉴스는": 9317,
      "는거예요": 9318,
      "늘거예요": 9319,
      "늦기": 9320,
      "늦어요": 9321,
      "니즘": 9322,
      "니티": 9323,
      "닝할까": 9324,
      "다네": 9325,
      "다신": 9326,
      "다워": 9327,
      "다육": 9328,
      "다이": 9329,
      "다크": 9330,
      "다보세요": 9331,
      "다같이": 9332,
      "다했는데": 9333,
      "다치지": 9334,
      "다쳤어": 9335,
      "다했다면": 9336,
      "다그치지": 9337,
      "닥쳐": 9338,
      "단발": 9339,
      "단수": 9340,
      "단어": 9341,
      "단지": 9342,
      "단짠": 9343,
      "단수가": 9344,
      "닫고": 9345,
      "닫으세요": 9346,
      "달까": 9347,
      "달된": 9348,
      "달랐": 9349,
      "달리": 9350,
      "달할": 9351,
      "달렸나봐요": 9352,
      "달력에": 9353,
      "닭발": 9354,
      "닮아": 9355,
      "닮아서": 9356,
      "담길": 9357,
      "담담": 9358,
      "담은": 9359,
      "답례": 9360,
      "답변": 9361,
      "답인": 9362,
      "답하세요": 9363,
      "답이나": 9364,
      "답일까": 9365,
      "당구": 9366,
      "당을": 9367,
      "당함": 9368,
      "당이에요": 9369,
      "당하기": 9370,
      "당했나봐요": 9371,
      "당번을": 9372,
      "대만": 9373,
      "대빵": 9374,
      "대신": 9375,
      "대인": 9376,
      "대하고": 9377,
      "대하면": 9378,
      "대놓고": 9379,
      "대청소": 9380,
      "대부분": 9381,
      "대답이": 9382,
      "대청소를": 9383,
      "댄디": 9384,
      "댓글": 9385,
      "댓말": 9386,
      "더디": 9387,
      "더없이": 9388,
      "덕수": 9389,
      "덕질": 9390,
      "던곳": 9391,
      "던데": 9392,
      "덜어": 9393,
      "데에": 9394,
      "도염": 9395,
      "도움": 9396,
      "도피": 9397,
      "도예요": 9398,
      "도리는": 9399,
      "도자기": 9400,
      "도망가": 9401,
      "도구죠": 9402,
      "독특": 9403,
      "독학": 9404,
      "돈보다": 9405,
      "돈버는": 9406,
      "돋을": 9407,
      "돌릴": 9408,
      "돌림": 9409,
      "돌보": 9410,
      "돌싱": 9411,
      "돌이": 9412,
      "돌리고": 9413,
      "돌잔치": 9414,
      "돌담길": 9415,
      "동갑": 9416,
      "동문": 9417,
      "동상": 9418,
      "동의": 9419,
      "동진": 9420,
      "동심으로": 9421,
      "동아리": 9422,
      "동시에": 9423,
      "동전의": 9424,
      "동그란": 9425,
      "돼야": 9426,
      "됐나요": 9427,
      "됐나봐": 9428,
      "되곤": 9429,
      "되요": 9430,
      "되나봐요": 9431,
      "되기가": 9432,
      "되면서": 9433,
      "되나요": 9434,
      "되지요": 9435,
      "되가네": 9436,
      "되가는데": 9437,
      "되도록": 9438,
      "된답니다": 9439,
      "될수": 9440,
      "두기": 9441,
      "두는": 9442,
      "두는게": 9443,
      "두분이": 9444,
      "두셨군요": 9445,
      "둘을": 9446,
      "둘만의": 9447,
      "둥해": 9448,
      "뒀네요": 9449,
      "뒤처": 9450,
      "뒤따르": 9451,
      "뒷모습만": 9452,
      "뒹글": 9453,
      "드러": 9454,
      "드론": 9455,
      "드리": 9456,
      "드네요": 9457,
      "드는데": 9458,
      "드리세요": 9459,
      "드리면": 9460,
      "든다": 9461,
      "듣니": 9462,
      "듣지": 9463,
      "들로": 9464,
      "들만": 9465,
      "들여": 9466,
      "들요": 9467,
      "들음": 9468,
      "들의": 9469,
      "들켰": 9470,
      "들에게": 9471,
      "들겠지": 9472,
      "들지만": 9473,
      "들으세요": 9474,
      "들었는데": 9475,
      "들었어요": 9476,
      "듯할": 9477,
      "등록": 9478,
      "등으로": 9479,
      "디오": 9480,
      "디자": 9481,
      "디저": 9482,
      "디져": 9483,
      "디오를": 9484,
      "따듯": 9485,
      "따위": 9486,
      "따지는": 9487,
      "따야하나": 9488,
      "따돌림": 9489,
      "딸까": 9490,
      "딸기가": 9491,
      "땀나네": 9492,
      "땀난다": 9493,
      "땅을": 9494,
      "땅만큼": 9495,
      "때라고": 9496,
      "때입니다": 9497,
      "때리고": 9498,
      "땡겨": 9499,
      "땡기네": 9500,
      "떠서": 9501,
      "떠나요": 9502,
      "떠올려": 9503,
      "떠올라": 9504,
      "떠는거": 9505,
      "떡졌어": 9506,
      "떨면": 9507,
      "떨어요": 9508,
      "떨리는": 9509,
      "떨면서": 9510,
      "떨기는": 9511,
      "떨려요": 9512,
      "떴어": 9513,
      "또다시": 9514,
      "똑같지": 9515,
      "뚝뚝": 9516,
      "뚫어": 9517,
      "뛰는": 9518,
      "뜨문": 9519,
      "뜬금": 9520,
      "뜻밖": 9521,
      "뜻은": 9522,
      "뜻이": 9523,
      "뜻으로": 9524,
      "뜻하기도": 9525,
      "띄길": 9526,
      "띄어보세요": 9527,
      "띠를": 9528,
      "라구": 9529,
      "라뇨": 9530,
      "라디오를": 9531,
      "람을": 9532,
      "랑이가": 9533,
      "랭이": 9534,
      "량을": 9535,
      "러드": 9536,
      "러운": 9537,
      "러들지": 9538,
      "런치": 9539,
      "럽을": 9540,
      "렉트": 9541,
      "려니": 9542,
      "려야": 9543,
      "려지죠": 9544,
      "력소가": 9545,
      "렴하게": 9546,
      "렸을까": 9547,
      "렸으니까요": 9548,
      "례허": 9549,
      "례하지": 9550,
      "로라": 9551,
      "로망": 9552,
      "로부터": 9553,
      "론가": 9554,
      "론이죠": 9555,
      "롭지": 9556,
      "롱패": 9557,
      "료를": 9558,
      "루즈": 9559,
      "류성": 9560,
      "르기": 9561,
      "르지": 9562,
      "름신이": 9563,
      "리다": 9564,
      "리마": 9565,
      "리며": 9566,
      "리예요": 9567,
      "리카드": 9568,
      "림도": 9569,
      "마냥": 9570,
      "마려": 9571,
      "마저": 9572,
      "마찬": 9573,
      "마치": 9574,
      "마카": 9575,
      "마들이": 9576,
      "막고": 9577,
      "막상": 9578,
      "막장": 9579,
      "막말을": 9580,
      "막말이": 9581,
      "막아보세요": 9582,
      "만두": 9583,
      "만땅": 9584,
      "만보": 9585,
      "만은": 9586,
      "만져": 9587,
      "만하는": 9588,
      "만해요": 9589,
      "만드세요": 9590,
      "만하죠": 9591,
      "만이라도": 9592,
      "만한게": 9593,
      "많나봐요": 9594,
      "많겠어요": 9595,
      "많겠네요": 9596,
      "많다고": 9597,
      "많을거예요": 9598,
      "많데요": 9599,
      "말래": 9600,
      "말려": 9601,
      "말에": 9602,
      "말보다": 9603,
      "말하기": 9604,
      "말자고": 9605,
      "말하면서": 9606,
      "말이라도": 9607,
      "말조심하세요": 9608,
      "말했으면": 9609,
      "말인가요": 9610,
      "말문이": 9611,
      "말보다는": 9612,
      "말았네": 9613,
      "말랭이": 9614,
      "맘도": 9615,
      "맘은": 9616,
      "맘같아": 9617,
      "맘대로": 9618,
      "맘같으면": 9619,
      "맘에서도": 9620,
      "맛을": 9621,
      "맛있죠": 9622,
      "맛있고": 9623,
      "맛있겠네요": 9624,
      "망해도": 9625,
      "망하는건": 9626,
      "맞길": 9627,
      "맞음": 9628,
      "맞장": 9629,
      "맞는데": 9630,
      "맞겠지": 9631,
      "맞았어": 9632,
      "맞아서": 9633,
      "매세요": 9634,
      "매인가봐요": 9635,
      "매달려": 9636,
      "맥이요": 9637,
      "맴찢": 9638,
      "맺는": 9639,
      "머물": 9640,
      "머코": 9641,
      "머신이": 9642,
      "먹게": 9643,
      "먹다": 9644,
      "먹든": 9645,
      "먹방": 9646,
      "먹자": 9647,
      "먹죠": 9648,
      "먹어요": 9649,
      "먹는게": 9650,
      "먹으세요": 9651,
      "먹으려고": 9652,
      "먼데": 9653,
      "먼이": 9654,
      "멀미": 9655,
      "멀었어요": 9656,
      "멀었네요": 9657,
      "멋을": 9658,
      "멋있어": 9659,
      "멋있죠": 9660,
      "멋있게": 9661,
      "멋있는거": 9662,
      "멍때리는": 9663,
      "메라": 9664,
      "메인": 9665,
      "메랑이": 9666,
      "메이크": 9667,
      "면과": 9668,
      "면세": 9669,
      "면에": 9670,
      "면하겠네요": 9671,
      "명만": 9672,
      "명빨": 9673,
      "명언": 9674,
      "명을": 9675,
      "명확": 9676,
      "몇명": 9677,
      "몇시간": 9678,
      "몇일째": 9679,
      "모공": 9680,
      "모닝": 9681,
      "모양": 9682,
      "모음": 9683,
      "모의": 9684,
      "모질": 9685,
      "모태": 9686,
      "모호": 9687,
      "모기가": 9688,
      "모으시": 9689,
      "모발이": 9690,
      "모잘라": 9691,
      "목소": 9692,
      "목을": 9693,
      "목적": 9694,
      "목감기": 9695,
      "목적은": 9696,
      "목도리는": 9697,
      "몫이에요": 9698,
      "몫입니다": 9699,
      "몰아": 9700,
      "몰웨딩": 9701,
      "몸도": 9702,
      "몸은": 9703,
      "몸을": 9704,
      "몸일": 9705,
      "몸짓": 9706,
      "몸값을": 9707,
      "못가": 9708,
      "못났": 9709,
      "못된": 9710,
      "못믿": 9711,
      "못받": 9712,
      "못하게": 9713,
      "못하죠": 9714,
      "못자고": 9715,
      "못잊을": 9716,
      "못생긴": 9717,
      "못지우": 9718,
      "무난": 9719,
      "무료": 9720,
      "무사": 9721,
      "무죄": 9722,
      "무관심이": 9723,
      "무소음": 9724,
      "무궁무": 9725,
      "무뚝뚝": 9726,
      "문열": 9727,
      "문의": 9728,
      "문콕": 9729,
      "문질러": 9730,
      "물건": 9731,
      "물증": 9732,
      "물이라도": 9733,
      "물건들": 9734,
      "물론이죠": 9735,
      "뭐냐": 9736,
      "뭐니": 9737,
      "뭐였": 9738,
      "뭐부터": 9739,
      "뭐하면서": 9740,
      "뭘해도": 9741,
      "뮤니티": 9742,
      "미쳐": 9743,
      "미스트": 9744,
      "민망한": 9745,
      "민감한": 9746,
      "믿는데": 9747,
      "밑거름이": 9748,
      "바본": 9749,
      "바싹": 9750,
      "바니다": 9751,
      "바보는": 9752,
      "바다는": 9753,
      "바지가": 9754,
      "바보지": 9755,
      "바나나": 9756,
      "바르세요": 9757,
      "박도": 9758,
      "박씨": 9759,
      "박치기": 9760,
      "반납": 9761,
      "반짝": 9762,
      "반항": 9763,
      "반이에요": 9764,
      "반인데": 9765,
      "반했어": 9766,
      "반하는게": 9767,
      "반이라는": 9768,
      "반장을": 9769,
      "반배정": 9770,
      "받게": 9771,
      "받니": 9772,
      "받쳐": 9773,
      "받아요": 9774,
      "받겠지": 9775,
      "받지도": 9776,
      "받을까": 9777,
      "발레": 9778,
      "발급받으세요": 9779,
      "발달된": 9780,
      "발바니다": 9781,
      "밟는": 9782,
      "밟힐": 9783,
      "밤은": 9784,
      "밤인가봐요": 9785,
      "밥도": 9786,
      "밥통": 9787,
      "밥이예요": 9788,
      "밥심으로": 9789,
      "방심": 9790,
      "방안": 9791,
      "방들이": 9792,
      "방탈출": 9793,
      "방심한": 9794,
      "방면에": 9795,
      "밭길": 9796,
      "배를": 9797,
      "배움": 9798,
      "배웠": 9799,
      "배추": 9800,
      "배에서": 9801,
      "배상을": 9802,
      "배시군요": 9803,
      "백번": 9804,
      "백한다": 9805,
      "뱃돈": 9806,
      "버텼": 9807,
      "버려보세요": 9808,
      "벅스": 9809,
      "번복": 9810,
      "번은": 9811,
      "번이": 9812,
      "벌어요": 9813,
      "벌수록": 9814,
      "범죄": 9815,
      "법적": 9816,
      "법이에요": 9817,
      "법이랑": 9818,
      "벗었는데": 9819,
      "벗으니까": 9820,
      "베풀": 9821,
      "베였어": 9822,
      "벨이": 9823,
      "변기": 9824,
      "변하면": 9825,
      "변하니": 9826,
      "변한게": 9827,
      "별별": 9828,
      "별이": 9829,
      "별일": 9830,
      "별이에요": 9831,
      "별다른": 9832,
      "병이": 9833,
      "보까": 9834,
      "보안": 9835,
      "보장": 9836,
      "보재": 9837,
      "보조": 9838,
      "보죠": 9839,
      "보증": 9840,
      "보하세요": 9841,
      "보라고": 9842,
      "보았어": 9843,
      "보였으면": 9844,
      "보관해보세요": 9845,
      "보답하세요": 9846,
      "복근": 9847,
      "복붙": 9848,
      "복합": 9849,
      "복제가": 9850,
      "복스럽게": 9851,
      "복받은": 9852,
      "복원해보세요": 9853,
      "볶는": 9854,
      "볶음": 9855,
      "본다": 9856,
      "본적": 9857,
      "본받을": 9858,
      "본받으면서": 9859,
      "본거에서": 9860,
      "볼께": 9861,
      "볼링": 9862,
      "볼매인가봐요": 9863,
      "봄에": 9864,
      "봄방학": 9865,
      "봄인가봐": 9866,
      "봉지": 9867,
      "봐봐": 9868,
      "봐달라고": 9869,
      "봐주는": 9870,
      "봐야겠다": 9871,
      "봤나": 9872,
      "봤어요": 9873,
      "봤나봐요": 9874,
      "봤을때": 9875,
      "부네": 9876,
      "부는": 9877,
      "부름": 9878,
      "부산": 9879,
      "부추": 9880,
      "부한": 9881,
      "부니까요": 9882,
      "부리는": 9883,
      "부었어": 9884,
      "부르고": 9885,
      "부작용": 9886,
      "부메랑이": 9887,
      "북치기": 9888,
      "북받쳐": 9889,
      "분다": 9890,
      "분만": 9891,
      "분석": 9892,
      "분야": 9893,
      "분출": 9894,
      "분해서": 9895,
      "분이네요": 9896,
      "분담을": 9897,
      "분크림": 9898,
      "분배를": 9899,
      "불륜": 9900,
      "불하고": 9901,
      "불만이": 9902,
      "불가한": 9903,
      "불과하죠": 9904,
      "붓고": 9905,
      "붙는": 9906,
      "붙어": 9907,
      "붙이세요": 9908,
      "뷔페": 9909,
      "브런치": 9910,
      "블러": 9911,
      "비꼬": 9912,
      "비스": 9913,
      "비에": 9914,
      "비집": 9915,
      "비추": 9916,
      "비키": 9917,
      "비타": 9918,
      "비판": 9919,
      "비왔으면": 9920,
      "비오는데": 9921,
      "비틀어": 9922,
      "빈과": 9923,
      "빌게요": 9924,
      "빌리면": 9925,
      "빌릴까": 9926,
      "빌렸으니까요": 9927,
      "빙수": 9928,
      "빚이": 9929,
      "빠진": 9930,
      "빠질": 9931,
      "빡빡": 9932,
      "빨라": 9933,
      "빵꾸난": 9934,
      "빼도": 9935,
      "빼면": 9936,
      "빼니까": 9937,
      "빼놓지": 9938,
      "뻔뻔": 9939,
      "뻔하다": 9940,
      "뽀뽀": 9941,
      "뽀송": 9942,
      "뽑아": 9943,
      "뽑지말고": 9944,
      "뿌얘": 9945,
      "뿌려보세요": 9946,
      "뿌둥해": 9947,
      "뿌듯할": 9948,
      "뿐이죠": 9949,
      "뿐이예요": 9950,
      "삐져": 9951,
      "사니": 9952,
      "사서": 9953,
      "사적": 9954,
      "사주": 9955,
      "사줄": 9956,
      "사지": 9957,
      "사치": 9958,
      "사투": 9959,
      "사는데": 9960,
      "사나봐요": 9961,
      "사주세요": 9962,
      "사이라": 9963,
      "사이트": 9964,
      "사오세요": 9965,
      "사나봅니다": 9966,
      "사갈까": 9967,
      "사이라면": 9968,
      "사수가": 9969,
      "사줄까": 9970,
      "사다리": 9971,
      "사드리고": 9972,
      "사겼는데": 9973,
      "사셔야": 9974,
      "사량을": 9975,
      "사먹으세요": 9976,
      "산다": 9977,
      "산에": 9978,
      "산이에요": 9979,
      "산이네": 9980,
      "살거": 9981,
      "살게": 9982,
      "살릴": 9983,
      "살살": 9984,
      "살기가": 9985,
      "살려도": 9986,
      "살만해": 9987,
      "삶도": 9988,
      "삶이": 9989,
      "삼재": 9990,
      "삼주": 9991,
      "상화": 9992,
      "상해요": 9993,
      "상대로": 9994,
      "상상을": 9995,
      "상견례": 9996,
      "새끼": 9997,
      "새는": 9998,
      "새치가": 9999,
      "색감": 10000,
      "색다른걸": 10001,
      "샐러드": 10002,
      "생에": 10003,
      "생일이": 10004,
      "생이면": 10005,
      "생강차": 10006,
      "서글": 10007,
      "서를": 10008,
      "서먹": 10009,
      "서클": 10010,
      "서부터": 10011,
      "서적을": 10012,
      "서비스": 10013,
      "선연": 10014,
      "선천": 10015,
      "선한": 10016,
      "섣부르": 10017,
      "설팅": 10018,
      "설적으로": 10019,
      "설날인데": 10020,
      "성급": 10021,
      "성분이": 10022,
      "세금": 10023,
      "세는": 10024,
      "세수": 10025,
      "세죠": 10026,
      "세다고": 10027,
      "세더라구요": 10028,
      "세뱃돈": 10029,
      "섹스": 10030,
      "셨을거예요": 10031,
      "소극": 10032,
      "소연": 10033,
      "소용": 10034,
      "소풍": 10035,
      "소홀": 10036,
      "소기업": 10037,
      "소심한": 10038,
      "소독하고": 10039,
      "소맥이요": 10040,
      "소분해서": 10041,
      "속는": 10042,
      "속을": 10043,
      "속도가": 10044,
      "속사정을": 10045,
      "손님": 10046,
      "손목": 10047,
      "손을": 10048,
      "손이": 10049,
      "손잡": 10050,
      "손재": 10051,
      "손편": 10052,
      "손길이": 10053,
      "손맛이": 10054,
      "솔솔": 10055,
      "솜씨": 10056,
      "송장": 10057,
      "숏컷": 10058,
      "수고": 10059,
      "수로": 10060,
      "수리": 10061,
      "수만": 10062,
      "수박": 10063,
      "수수": 10064,
      "수순": 10065,
      "수줍": 10066,
      "수있어요": 10067,
      "수있을까": 10068,
      "수많은": 10069,
      "수라도": 10070,
      "수없이": 10071,
      "수다를": 10072,
      "수요일": 10073,
      "수강신청": 10074,
      "수당을": 10075,
      "수백번": 10076,
      "수분크림": 10077,
      "숙면하겠네요": 10078,
      "순진": 10079,
      "순위로": 10080,
      "순서는": 10081,
      "순결이": 10082,
      "술주": 10083,
      "술이야": 10084,
      "술마시고": 10085,
      "숨길": 10086,
      "숨쉬": 10087,
      "숨한": 10088,
      "숨기는": 10089,
      "쉬게": 10090,
      "쉬울": 10091,
      "쉬워": 10092,
      "쉬려고": 10093,
      "쉬시길": 10094,
      "쉬었다": 10095,
      "쉬셔야": 10096,
      "쉴만": 10097,
      "쉽겠어요": 10098,
      "쉽지는": 10099,
      "스런": 10100,
      "스쿼": 10101,
      "스튜": 10102,
      "스마스": 10103,
      "스몰웨딩": 10104,
      "슬슬": 10105,
      "시누": 10106,
      "시린": 10107,
      "시면": 10108,
      "시선": 10109,
      "시절": 10110,
      "시청": 10111,
      "시킬": 10112,
      "시트": 10113,
      "시나봐요": 10114,
      "시다니": 10115,
      "시선이": 10116,
      "시대는": 10117,
      "시베리": 10118,
      "시럽을": 10119,
      "식장": 10120,
      "식초": 10121,
      "식이에요": 10122,
      "식어서": 10123,
      "식비가": 10124,
      "식이요": 10125,
      "식습관이에요": 10126,
      "식습관을": 10127,
      "식도염": 10128,
      "신용": 10129,
      "신행": 10130,
      "신을까": 10131,
      "신나게": 10132,
      "신기한": 10133,
      "신선한": 10134,
      "실력": 10135,
      "실로": 10136,
      "실비": 10137,
      "실을": 10138,
      "실컷": 10139,
      "실험": 10140,
      "실력이": 10141,
      "싫네": 10142,
      "싫대": 10143,
      "싫으면": 10144,
      "싫지는": 10145,
      "싫었는데": 10146,
      "심각": 10147,
      "심란": 10148,
      "심정": 10149,
      "심플": 10150,
      "심하면": 10151,
      "심하게": 10152,
      "심하네요": 10153,
      "심하대": 10154,
      "심부름": 10155,
      "싶대": 10156,
      "싶진": 10157,
      "싶었는데": 10158,
      "싸는": 10159,
      "싸면": 10160,
      "싸서": 10161,
      "싸세요": 10162,
      "싸해도": 10163,
      "싸움이": 10164,
      "싸가지고": 10165,
      "싹한": 10166,
      "쌍커풀": 10167,
      "쌓는": 10168,
      "쌓아": 10169,
      "쌓였어": 10170,
      "쌓인다": 10171,
      "써서": 10172,
      "써야": 10173,
      "써놓고": 10174,
      "썸임": 10175,
      "썸탈": 10176,
      "썸부터": 10177,
      "썸타는데": 10178,
      "썸타다": 10179,
      "썼길": 10180,
      "썼는데": 10181,
      "썼다가": 10182,
      "쐬러": 10183,
      "쑤셔": 10184,
      "쓰기": 10185,
      "쓰네": 10186,
      "쓰다": 10187,
      "쓰디": 10188,
      "쓰여": 10189,
      "쓰이": 10190,
      "쓰세요": 10191,
      "쓰니까요": 10192,
      "쓰자고": 10193,
      "쓰이네": 10194,
      "쓰셨나봐요": 10195,
      "쓰리겠어요": 10196,
      "쓴지": 10197,
      "쓴만큼": 10198,
      "쓸모": 10199,
      "씌였나봐요": 10200,
      "씨방": 10201,
      "씨앗": 10202,
      "씰룩": 10203,
      "씻어": 10204,
      "아들": 10205,
      "아른": 10206,
      "아웃": 10207,
      "아자": 10208,
      "아재": 10209,
      "아줌": 10210,
      "아휴": 10211,
      "아세요": 10212,
      "아물어": 10213,
      "아이라": 10214,
      "아들을": 10215,
      "아있지": 10216,
      "아싸해도": 10217,
      "악수를": 10218,
      "안날": 10219,
      "안열": 10220,
      "안올": 10221,
      "안정": 10222,
      "안햇": 10223,
      "안해서": 10224,
      "안하기": 10225,
      "안하는게": 10226,
      "안했는데": 10227,
      "안했던": 10228,
      "안맞는": 10229,
      "안나와": 10230,
      "안했으면": 10231,
      "안하려": 10232,
      "안한다": 10233,
      "안가지고": 10234,
      "안오면": 10235,
      "안아서": 10236,
      "안된다고": 10237,
      "안됐네": 10238,
      "안돌아오": 10239,
      "안정을": 10240,
      "안갈거예요": 10241,
      "안읽씹": 10242,
      "안정적인": 10243,
      "앉아있지": 10244,
      "않나": 10245,
      "않다": 10246,
      "않다면": 10247,
      "않겠죠": 10248,
      "않다고": 10249,
      "않으니": 10250,
      "않으려고": 10251,
      "알거예요": 10252,
      "알아요": 10253,
      "알지만": 10254,
      "알겠습니다": 10255,
      "알람을": 10256,
      "압니다": 10257,
      "압에는": 10258,
      "앞둔": 10259,
      "앞이": 10260,
      "앞이죠": 10261,
      "앞이나": 10262,
      "앞모습을": 10263,
      "앞서서": 10264,
      "애그": 10265,
      "애니": 10266,
      "애써": 10267,
      "애야": 10268,
      "애착": 10269,
      "애기가": 10270,
      "애정이": 10271,
      "애인이": 10272,
      "애절한": 10273,
      "애국가요": 10274,
      "액형이": 10275,
      "앱이": 10276,
      "야해": 10277,
      "야한다는": 10278,
      "약초": 10279,
      "약해": 10280,
      "약해지면": 10281,
      "약먹기": 10282,
      "양지": 10283,
      "양식을": 10284,
      "양다리": 10285,
      "양면과": 10286,
      "양배추": 10287,
      "얘기가": 10288,
      "어떠": 10289,
      "어싱": 10290,
      "어쨌": 10291,
      "어제가": 10292,
      "어지고": 10293,
      "어장을": 10294,
      "언하는": 10295,
      "언어도": 10296,
      "언니가": 10297,
      "얻는다는": 10298,
      "얼어": 10299,
      "얼었어": 10300,
      "얽힌": 10301,
      "업데이트가": 10302,
      "없었": 10303,
      "없음": 10304,
      "없다가": 10305,
      "없었어": 10306,
      "없거나": 10307,
      "없나봐": 10308,
      "없었는데": 10309,
      "없었던": 10310,
      "없거든": 10311,
      "었대": 10312,
      "었다고": 10313,
      "엊그": 10314,
      "여둔": 10315,
      "여리": 10316,
      "여부": 10317,
      "여잘": 10318,
      "여기는": 10319,
      "여기만": 10320,
      "역류성": 10321,
      "연금": 10322,
      "연기": 10323,
      "연연": 10324,
      "연휴가": 10325,
      "열쇠": 10326,
      "열어보세요": 10327,
      "열받아서": 10328,
      "였길": 10329,
      "였네": 10330,
      "였지만": 10331,
      "였을거예요": 10332,
      "영역": 10333,
      "영상을": 10334,
      "영칼로리": 10335,
      "예감": 10336,
      "예를": 10337,
      "예보": 10338,
      "예감이": 10339,
      "예랑이가": 10340,
      "예식장": 10341,
      "오긴": 10342,
      "오톡": 10343,
      "오후": 10344,
      "오겠네요": 10345,
      "오나봐": 10346,
      "오르고": 10347,
      "오른다": 10348,
      "오로라": 10349,
      "오시면": 10350,
      "오싹한": 10351,
      "옥죄": 10352,
      "온전": 10353,
      "온천": 10354,
      "온다면": 10355,
      "온수로": 10356,
      "옴을": 10357,
      "옷차": 10358,
      "옷깃만": 10359,
      "와라": 10360,
      "와우": 10361,
      "와야지": 10362,
      "와주지": 10363,
      "왔을": 10364,
      "왔어요": 10365,
      "왔나봐": 10366,
      "왜그래": 10367,
      "외박": 10368,
      "외부": 10369,
      "외식": 10370,
      "외제": 10371,
      "외부의": 10372,
      "왼손잡": 10373,
      "요가": 10374,
      "요청해보세요": 10375,
      "요구하세요": 10376,
      "요구가": 10377,
      "요긴하긴": 10378,
      "욕은": 10379,
      "욕함": 10380,
      "욕하는": 10381,
      "욕했어": 10382,
      "욕망이지": 10383,
      "용증": 10384,
      "우고": 10385,
      "우길": 10386,
      "우정": 10387,
      "우먼이": 10388,
      "울면": 10389,
      "울어": 10390,
      "울어보세요": 10391,
      "울었어": 10392,
      "울었네": 10393,
      "움츠": 10394,
      "움이네요": 10395,
      "웃으로": 10396,
      "워크": 10397,
      "워지고": 10398,
      "원두": 10399,
      "원서": 10400,
      "원피": 10401,
      "원하던": 10402,
      "웠으면": 10403,
      "위를": 10404,
      "위층": 10405,
      "위대한": 10406,
      "위치가": 10407,
      "위래요": 10408,
      "윗집": 10409,
      "윗몸일": 10410,
      "유발": 10411,
      "유세": 10412,
      "유의": 10413,
      "유명한": 10414,
      "유기견": 10415,
      "유머코": 10416,
      "율적으로": 10417,
      "율주행": 10418,
      "으실": 10419,
      "으악": 10420,
      "으셨네요": 10421,
      "으키기": 10422,
      "을수": 10423,
      "음식이": 10424,
      "응시는": 10425,
      "의중": 10426,
      "의사가": 10427,
      "의자를": 10428,
      "이너": 10429,
      "이룰": 10430,
      "이른": 10431,
      "이마": 10432,
      "이발": 10433,
      "이쁘": 10434,
      "이서": 10435,
      "이수": 10436,
      "이에": 10437,
      "이치": 10438,
      "이한": 10439,
      "이후": 10440,
      "이남자": 10441,
      "이시간": 10442,
      "이기가": 10443,
      "이지요": 10444,
      "이길이": 10445,
      "이였어": 10446,
      "이너에게": 10447,
      "이진지": 10448,
      "이전과": 10449,
      "이사람이다": 10450,
      "이신가요": 10451,
      "이랬다": 10452,
      "이웃으로": 10453,
      "익숨": 10454,
      "인강": 10455,
      "인건": 10456,
      "인걸": 10457,
      "인은": 10458,
      "인척": 10459,
      "인으로": 10460,
      "인보다": 10461,
      "인거죠": 10462,
      "인사를": 10463,
      "인복이": 10464,
      "일러": 10465,
      "일링": 10466,
      "일정": 10467,
      "일하고": 10468,
      "일해요": 10469,
      "일이야": 10470,
      "일수도": 10471,
      "일인가봐요": 10472,
      "일하시": 10473,
      "일부러": 10474,
      "일정을": 10475,
      "일하든": 10476,
      "일꺼에요": 10477,
      "일부니까요": 10478,
      "읽고": 10479,
      "읽을": 10480,
      "읽히": 10481,
      "읽는다": 10482,
      "잃을": 10483,
      "임신": 10484,
      "임머신이": 10485,
      "입는": 10486,
      "입은": 10487,
      "있지는": 10488,
      "있다니": 10489,
      "있기는": 10490,
      "있겠지요": 10491,
      "있더라": 10492,
      "있대요": 10493,
      "있구나": 10494,
      "잊게": 10495,
      "잊어요": 10496,
      "잊겠어": 10497,
      "잊기는": 10498,
      "잊기로": 10499,
      "자게": 10500,
      "자금": 10501,
      "자길": 10502,
      "자나": 10503,
      "자니": 10504,
      "자만": 10505,
      "자식": 10506,
      "자세요": 10507,
      "자라도": 10508,
      "자르는": 10509,
      "자만이": 10510,
      "자야하는데": 10511,
      "자마자": 10512,
      "자료를": 10513,
      "자율주행": 10514,
      "작게": 10515,
      "작하는": 10516,
      "잔잔": 10517,
      "잔하기": 10518,
      "잔하네요": 10519,
      "잔고가": 10520,
      "잘가": 10521,
      "잘게": 10522,
      "잘된": 10523,
      "잘될": 10524,
      "잘래": 10525,
      "잘자": 10526,
      "잘하세요": 10527,
      "잘라요": 10528,
      "잘가요": 10529,
      "잘생긴": 10530,
      "잘하니까": 10531,
      "잘생겼어": 10532,
      "잘됐으면": 10533,
      "잘생겨": 10534,
      "잘하실": 10535,
      "잘생겼어요": 10536,
      "잘해야하나봐": 10537,
      "잘생겼지": 10538,
      "잘돼야": 10539,
      "잠겨": 10540,
      "잠길": 10541,
      "잠도": 10542,
      "잠기는": 10543,
      "잠겼는데": 10544,
      "잠자리에": 10545,
      "잡담": 10546,
      "잡을": 10547,
      "잡혀": 10548,
      "잡으려고": 10549,
      "잡혔어": 10550,
      "잤네": 10551,
      "잤더니": 10552,
      "장사": 10553,
      "장수": 10554,
      "장판": 10555,
      "장단점을": 10556,
      "장기자랑": 10557,
      "장만하는": 10558,
      "재택": 10559,
      "재테": 10560,
      "재가입": 10561,
      "재활용": 10562,
      "잼에게": 10563,
      "쟁여둔": 10564,
      "저것": 10565,
      "저나": 10566,
      "저요": 10567,
      "저의": 10568,
      "저축": 10569,
      "저입니다": 10570,
      "저라도": 10571,
      "저처럼": 10572,
      "저평가": 10573,
      "저와의": 10574,
      "저랬다": 10575,
      "저편으로": 10576,
      "저금통": 10577,
      "저렴하게": 10578,
      "적당": 10579,
      "적일": 10580,
      "적한": 10581,
      "적으니까요": 10582,
      "적당해요": 10583,
      "적성에": 10584,
      "전이": 10585,
      "전형": 10586,
      "전하면": 10587,
      "전하세요": 10588,
      "전인데": 10589,
      "전하는게": 10590,
      "전여자친구가": 10591,
      "전여자친구": 10592,
      "전남자친구": 10593,
      "전해질": 10594,
      "전해졌": 10595,
      "전달할": 10596,
      "전생에": 10597,
      "전순결이": 10598,
      "절할": 10599,
      "절제가": 10600,
      "접는": 10601,
      "접질": 10602,
      "정량": 10603,
      "정색": 10604,
      "정치": 10605,
      "정화": 10606,
      "정으로": 10607,
      "정해서": 10608,
      "정들었나봐요": 10609,
      "정글에서": 10610,
      "정동진": 10611,
      "정수리": 10612,
      "젖어": 10613,
      "젖었어": 10614,
      "제길": 10615,
      "제철": 10616,
      "젝트": 10617,
      "졌다": 10618,
      "졌겠죠": 10619,
      "졌나봅니다": 10620,
      "조교": 10621,
      "조를": 10622,
      "조리": 10623,
      "조취": 10624,
      "조깅하고": 10625,
      "조명빨": 10626,
      "존경": 10627,
      "존댓말": 10628,
      "졸게": 10629,
      "종아리": 10630,
      "종목을": 10631,
      "종이에": 10632,
      "좋다가": 10633,
      "좋거나": 10634,
      "좋았어": 10635,
      "좋으면서": 10636,
      "좋더라도": 10637,
      "좋겠다고": 10638,
      "죄는": 10639,
      "죄송": 10640,
      "주눅": 10641,
      "주라": 10642,
      "주러": 10643,
      "주룩": 10644,
      "주소": 10645,
      "주식": 10646,
      "주에": 10647,
      "주위": 10648,
      "주인": 10649,
      "주나봐요": 10650,
      "주당이에요": 10651,
      "주시다니": 10652,
      "죽는": 10653,
      "죽지": 10654,
      "죽는게": 10655,
      "죽었다": 10656,
      "죽인다": 10657,
      "준것": 10658,
      "준생인데": 10659,
      "줄에": 10660,
      "줄을": 10661,
[...]
