{
  "version": "1.0",
  "truncation": null,
  "padding": null,
  "added_tokens": [],
  "normalizer": null,
  "pre_tokenizer": {
    "type": "Whitespace"
  },
  "post_processor": null,
  "decoder": null,
  "model": {
    "type": "WordPiece",
    "unk_token": "[UNK]",
    "continuing_subword_prefix": "##",
    "max_input_chars_per_word": 100,
    "vocab": {
      "!": 0,
      "\"": 1,
      "#": 2,
      "$": 3,
      "%": 4,
      "&": 5,
      "'": 6,
      "(": 7,
      ")": 8,
      "*": 9,
      "+": 10,
      ",": 11,
      "-": 12,
      ".": 13,
      "/": 14,
      "0": 15,
      "1": 16,
      "2": 17,
      "3": 18,
      "4": 19,
      "5": 20,
      "6": 21,
      "7": 22,
      "8": 23,
      "9": 24,
      ":": 25,
      ";": 26,
      "<": 27,
      "=": 28,
      ">": 29,
      "?": 30,
      "@": 31,
      "A": 32,
      "B": 33,
      "C": 34,
      "D": 35,
      "E": 36,
      "F": 37,
      "G": 38,
      "H": 39,
      "I": 40,
      "J": 41,
      "K": 42,
      "L": 43,
      "M": 44,
      "N": 45,
      "O": 46,
      "P": 47,
      "Q": 48,
      "R": 49,
      "S": 50,
      "T": 51,
      "U": 52,
      "V": 53,
      "W": 54,
      "X": 55,
      "Y": 56,
      "Z": 57,
      "[": 58,
      "\\": 59,
      "]": 60,
      "^": 61,
      "_": 62,
      "`": 63,
      "a": 64,
      "b": 65,
      "c": 66,
      "d": 67,
      "e": 68,
      "f": 69,
      "g": 70,
      "h": 71,
      "i": 72,
      "j": 73,
      "k": 74,
      "l": 75,
      "m": 76,
      "n": 77,
      "o": 78,
      "p": 79,
      "q": 80,
      "r": 81,
      "s": 82,
      "t": 83,
      "u": 84,
      "v": 85,
      "w": 86,
      "x": 87,
      "y": 88,
      "z": 89,
      "{": 90,
      "|": 91,
      "}": 92,
      "~": 93,
      "¤": 94,
      "©": 95,
      "¯": 96,
      "°": 97,
      "±": 98,
      "²": 99,
      "³": 100,
      "´": 101,
      "µ": 102,
      "·": 103,
      "¿": 104,
      "À": 105,
      "×": 106,
      "à": 107,
      "ç": 108,
      "è": 109,
      "é": 110,
      "ë": 111,
      "ì": 112,
      "ó": 113,
      "÷": 114,
      "Ā": 115,
      "ā": 116,
      "ě": 117,
      "ī": 118,
      "ň": 119,
      "ǎ": 120,
      "ʒ": 121,
      "˃": 122,
      "ˈ": 123,
      "ː": 124,
      "˙": 125,
      "̄": 126,
      "̆": 127,
      "̈": 128,
      "̊": 129,
      "̌": 130,
      "̐": 131,
      "Δ": 132,
      "α": 133,
      "μ": 134,
      "А": 135,
      "Я": 136,
      "е": 137,
      "к": 138,
      "м": 139,
      "н": 140,
      "о": 141,
      "п": 142,
      "р": 143,
      "с": 144,
      "ᄃ": 145,
      "ᄋ": 146,
      "ᄌ": 147,
      "ᄒ": 148,
      "ᅥ": 149,
      "ᅮ": 150,
      "ᅵ": 151,
      "ᆍ": 152,
      "ᆞ": 153,
      "ᆢ": 154,
      "ᇣ": 155,
      "ᇿ": 156,
      "ᐃ": 157,
      "ᠮ": 158,
      "ᡝ": 159,
      "ᡤ": 160,
      "ᡩ": 161,
      "ᡳ": 162,
      "ᡵ": 163,
      "​": 164,
      "‍": 165,
      "‑": 166,
      "–": 167,
      "—": 168,
      "―": 169,
      "‘": 170,
      "’": 171,
      "“": 172,
      "”": 173,
      "•": 174,
      "․": 175,
      "‥": 176,
      "…": 177,
      "‧": 178,
      "″": 179,
      "‵": 180,
      "‶": 181,
      "※": 182,
      "⁃": 183,
      "⁎": 184,
      "⁜": 185,
      "₄": 186,
      "₊": 187,
      "₩": 188,
      "⃞": 189,
      "⃣": 190,
      "℃": 191,
      "™": 192,
      "⅓": 193,
      "Ⅰ": 194,
      "Ⅱ": 195,
      "Ⅲ": 196,
      "Ⅳ": 197,
      "Ⅴ": 198,
      "ⅰ": 199,
      "ⅱ": 200,
      "ⅲ": 201,
      "ⅳ": 202,
      "ⅴ": 203,
      "ⅵ": 204,
      "↑": 205,
      "→": 206,
      "↓": 207,
      "↔": 208,
      "↞": 209,
      "↠": 210,
      "⇉": 211,
      "⇋": 212,
      "⇌": 213,
      "⇒": 214,
      "⇔": 215,
      "⇛": 216,
      "⇨": 217,
      "∎": 218,
      "∘": 219,
      "∙": 220,
      "∠": 221,
      "∣": 222,
      "∵": 223,
      "∼": 224,
      "∽": 225,
      "≠": 226,
      "≪": 227,
      "≫": 228,
      "⊙": 229,
      "⋅": 230,
      "⋇": 231,
      "⌜": 232,
      "⌟": 233,
      "⏩": 234,
      "⏪": 235,
      "⏭": 236,
      "①": 237,
      "②": 238,
      "③": 239,
      "④": 240,
      "⑤": 241,
      "⑥": 242,
      "⑦": 243,
      "⑧": 244,
      "⑨": 245,
      "⑩": 246,
      "⑪": 247,
      "⑫": 248,
      "⑬": 249,
      "⑭": 250,
      "⑮": 251,
      "⑯": 252,
      "⑰": 253,
      "⑱": 254,
      "⑴": 255,
      "⑵": 256,
      "⑶": 257,
      "⑷": 258,
      "⑸": 259,
      "⑹": 260,
      "⑼": 261,
      "⑽": 262,
      "⑾": 263,
      "⑿": 264,
      "Ⓐ": 265,
      "Ⓑ": 266,
      "ⓐ": 267,
      "ⓑ": 268,
      "ⓒ": 269,
      "ⓛ": 270,
      "ⓝ": 271,
      "⓫": 272,
      "⓬": 273,
      "⓵": 274,
      "⓶": 275,
      "⓷": 276,
      "⓸": 277,
      "⓹": 278,
      "⓺": 279,
      "⓻": 280,
      "⓼": 281,
      "─": 282,
      "┗": 283,
      "█": 284,
      "■": 285,
      "□": 286,
      "▣": 287,
      "▪": 288,
      "▫": 289,
      "▲": 290,
      "△": 291,
      "▶": 292,
      "▷": 293,
      "▸": 294,
      "▼": 295,
      "◀": 296,
      "◁": 297,
      "◆": 298,
      "◇": 299,
      "◈": 300,
      "◉": 301,
      "○": 302,
      "◎": 303,
      "●": 304,
      "◦": 305,
      "◯": 306,
      "★": 307,
      "☆": 308,
      "☎": 309,
      "☏": 310,
      "☚": 311,
      "☛": 312,
      "☜": 313,
      "☞": 314,
      "☢": 315,
      "☰": 316,
      "☱": 317,
      "☳": 318,
      "☴": 319,
      "☶": 320,
      "☷": 321,
      "☹": 322,
      "☻": 323,
      "♀": 324,
      "♂": 325,
      "♠": 326,
      "♡": 327,
      "♣": 328,
      "♤": 329,
      "♥": 330,
      "♦": 331,
      "♩": 332,
      "♪": 333,
      "♬": 334,
      "⚠": 335,
      "⚫": 336,
      "⛔": 337,
      "✅": 338,
      "✊": 339,
      "✔": 340,
      "✴": 341,
      "❊": 342,
      "❍": 343,
      "❏": 344,
      "❤": 345,
      "❶": 346,
      "❷": 347,
      "❸": 348,
      "❹": 349,
      "❺": 350,
      "❻": 351,
      "❼": 352,
      "❾": 353,
      "❿": 354,
      "➀": 355,
      "➁": 356,
      "➂": 357,
      "➃": 358,
      "➄": 359,
      "➅": 360,
      "➑": 361,
      "➡": 362,
      "⟩": 363,
      "⟹": 364,
      "⦁": 365,
      "⦙": 366,
      "⬛": 367,
      "⭐": 368,
      "⭕": 369,
      "、": 370,
      "。": 371,
      "〃": 372,
      "〈": 373,
      "〉": 374,
      "《": 375,
      "》": 376,
      "「": 377,
      "」": 378,
      "『": 379,
      "』": 380,
      "【": 381,
      "】": 382,
      "〓": 383,
      "〔": 384,
      "〕": 385,
      "〖": 386,
      "〗": 387,
      "〘": 388,
      "〙": 389,
      "〚": 390,
      "〛": 391,
      "〜": 392,
      "〞": 393,
      "い": 394,
      "う": 395,
      "こ": 396,
      "ご": 397,
      "し": 398,
      "す": 399,
      "つ": 400,
      "と": 401,
      "の": 402,
      "ひ": 403,
      "ぼ": 404,
      "み": 405,
      "む": 406,
      "め": 407,
      "ゅ": 408,
      "ア": 409,
      "イ": 410,
      "オ": 411,
      "カ": 412,
      "グ": 413,
      "ス": 414,
      "タ": 415,
      "ト": 416,
      "ド": 417,
      "メ": 418,
      "ラ": 419,
      "リ": 420,
      "ン": 421,
      "ヶ": 422,
      "・": 423,
      "ー": 424,
      "ㄱ": 425,
      "ㄲ": 426,
      "ㄳ": 427,
      "ㄴ": 428,
      "ㄷ": 429,
      "ㄸ": 430,
      "ㄹ": 431,
      "ㅁ": 432,
      "ㅂ": 433,
      "ㅃ": 434,
      "ㅅ": 435,
      "ㅆ": 436,
      "ㅇ": 437,
      "ㅈ": 438,
      "ㅉ": 439,
      "ㅊ": 440,
      "ㅋ": 441,
      "ㅌ": 442,
      "ㅍ": 443,
      "ㅎ": 444,
      "ㅏ": 445,
      "ㅐ": 446,
      "ㅑ": 447,
      "ㅒ": 448,
      "ㅓ": 449,
      "ㅔ": 450,
      "ㅕ": 451,
      "ㅖ": 452,
      "ㅗ": 453,
      "ㅘ": 454,
      "ㅚ": 455,
      "ㅛ": 456,
      "ㅜ": 457,
      "ㅝ": 458,
      "ㅠ": 459,
      "ㅡ": 460,
      "ㅢ": 461,
      "ㅣ": 462,
      "ㅸ": 463,
      "ㅿ": 464,
      "ㆁ": 465,
      "ㆆ": 466,
      "ㆍ": 467,
      "㈜": 468,
      "㉠": 469,
      "㉡": 470,
      "㉢": 471,
      "㉣": 472,
      "㉤": 473,
      "㉰": 474,
      "㎍": 475,
      "㎎": 476,
      "㎏": 477,
      "㎐": 478,
      "㎛": 479,
      "㎜": 480,
      "㎝": 481,
      "㎞": 482,
      "㎠": 483,
      "㎡": 484,
      "㎢": 485,
      "㎥": 486,
      "㏊": 487,
      "一": 488,
      "丁": 489,
      "七": 490,
      "万": 491,
      "三": 492,
      "上": 493,
      "下": 494,
      "不": 495,
      "丑": 496,
      "且": 497,
      "世": 498,
      "丙": 499,
      "业": 500,
      "东": 501,
      "两": 502,
      "个": 503,
      "中": 504,
      "丹": 505,
      "为": 506,
      "主": 507,
      "义": 508,
      "之": 509,
      "乎": 510,
      "乙": 511,
      "九": 512,
      "也": 513,
      "亂": 514,
      "了": 515,
      "事": 516,
      "二": 517,
      "于": 518,
      "五": 519,
      "井": 520,
      "亚": 521,
      "些": 522,
      "亞": 523,
      "亡": 524,
      "亥": 525,
      "京": 526,
      "人": 527,
      "什": 528,
      "仁": 529,
      "今": 530,
      "介": 531,
      "从": 532,
      "仔": 533,
      "他": 534,
      "代": 535,
      "令": 536,
      "以": 537,
      "们": 538,
      "仰": 539,
      "件": 540,
      "任": 541,
      "企": 542,
      "伊": 543,
      "休": 544,
      "会": 545,
      "似": 546,
      "但": 547,
      "位": 548,
      "低": 549,
      "住": 550,
      "何": 551,
      "佛": 552,
      "作": 553,
      "佳": 554,
      "使": 555,
      "來": 556,
      "例": 557,
      "供": 558,
      "侮": 559,
      "俊": 560,
      "俗": 561,
      "保": 562,
      "俠": 563,
      "信": 564,
      "修": 565,
      "俱": 566,
      "俸": 567,
      "個": 568,
      "倍": 569,
      "倒": 570,
      "倭": 571,
      "假": 572,
      "偏": 573,
      "做": 574,
      "停": 575,
      "傀": 576,
      "傍": 577,
      "備": 578,
      "傳": 579,
      "債": 580,
      "傷": 581,
      "僚": 582,
      "僞": 583,
      "價": 584,
      "億": 585,
      "償": 586,
      "元": 587,
      "兄": 588,
      "先": 589,
      "光": 590,
      "兒": 591,
      "入": 592,
      "內": 593,
      "全": 594,
      "兩": 595,
      "兪": 596,
      "八": 597,
      "公": 598,
      "六": 599,
      "兰": 600,
      "共": 601,
      "关": 602,
      "兵": 603,
      "其": 604,
      "典": 605,
      "再": 606,
      "冥": 607,
      "况": 608,
      "准": 609,
      "几": 610,
      "凡": 611,
      "出": 612,
      "分": 613,
      "切": 614,
      "刑": 615,
      "初": 616,
      "判": 617,
      "別": 618,
      "利": 619,
      "到": 620,
      "制": 621,
      "券": 622,
      "刻": 623,
      "則": 624,
      "前": 625,
      "剔": 626,
      "剖": 627,
      "副": 628,
      "劇": 629,
      "力": 630,
      "功": 631,
      "加": 632,
      "劣": 633,
      "助": 634,
      "劫": 635,
      "勇": 636,
      "動": 637,
      "務": 638,
      "勝": 639,
      "勢": 640,
      "勤": 641,
      "勳": 642,
      "化": 643,
      "北": 644,
      "匪": 645,
      "區": 646,
      "十": 647,
      "千": 648,
      "午": 649,
      "华": 650,
      "卑": 651,
      "協": 652,
      "卖": 653,
      "南": 654,
      "博": 655,
      "卯": 656,
      "印": 657,
      "危": 658,
      "即": 659,
      "厚": 660,
      "原": 661,
      "去": 662,
      "參": 663,
      "又": 664,
      "及": 665,
      "友": 666,
      "反": 667,
      "发": 668,
      "叔": 669,
      "取": 670,
      "受": 671,
      "叛": 672,
      "叡": 673,
      "口": 674,
      "古": 675,
      "只": 676,
      "叫": 677,
      "可": 678,
      "台": 679,
      "史": 680,
      "右": 681,
      "司": 682,
      "合": 683,
      "吉": 684,
      "同": 685,
      "名": 686,
      "向": 687,
      "君": 688,
      "否": 689,
      "吳": 690,
      "吾": 691,
      "呆": 692,
      "告": 693,
      "周": 694,
      "味": 695,
      "命": 696,
      "和": 697,
      "員": 698,
      "哲": 699,
      "唐": 700,
      "唯": 701,
      "唱": 702,
      "唾": 703,
      "商": 704,
      "問": 705,
      "善": 706,
      "喆": 707,
      "喜": 708,
      "喩": 709,
      "喪": 710,
      "嘲": 711,
      "嚴": 712,
      "四": 713,
      "回": 714,
      "因": 715,
      "固": 716,
      "国": 717,
      "國": 718,
      "園": 719,
      "圓": 720,
      "圖": 721,
      "團": 722,
      "土": 723,
      "在": 724,
      "圭": 725,
      "地": 726,
      "均": 727,
      "坑": 728,
      "坤": 729,
      "城": 730,
      "域": 731,
      "執": 732,
      "基": 733,
      "堂": 734,
      "堆": 735,
      "報": 736,
      "場": 737,
      "塵": 738,
      "境": 739,
      "壓": 740,
      "士": 741,
      "壬": 742,
      "壽": 743,
      "备": 744,
      "夏": 745,
      "外": 746,
      "多": 747,
      "夜": 748,
      "夢": 749,
      "大": 750,
      "天": 751,
      "太": 752,
      "失": 753,
      "奉": 754,
      "奎": 755,
      "契": 756,
      "奪": 757,
      "女": 758,
      "她": 759,
      "好": 760,
      "如": 761,
      "妇": 762,
      "妓": 763,
      "妙": 764,
      "妥": 765,
      "妻": 766,
      "始": 767,
      "姐": 768,
      "姓": 769,
      "委": 770,
      "姜": 771,
      "姪": 772,
      "姬": 773,
      "威": 774,
      "娘": 775,
      "婚": 776,
      "嫁": 777,
      "嫖": 778,
      "嫡": 779,
      "子": 780,
      "字": 781,
      "存": 782,
      "孝": 783,
      "孤": 784,
      "孫": 785,
      "學": 786,
      "宇": 787,
      "守": 788,
      "安": 789,
      "宋": 790,
      "完": 791,
      "宗": 792,
      "官": 793,
      "宙": 794,
      "定": 795,
      "客": 796,
      "宣": 797,
      "室": 798,
      "害": 799,
      "家": 800,
      "容": 801,
      "宿": 802,
      "寃": 803,
      "寅": 804,
      "富": 805,
      "察": 806,
      "實": 807,
      "寨": 808,
      "審": 809,
      "寬": 810,
      "寺": 811,
      "尊": 812,
      "對": 813,
      "導": 814,
      "小": 815,
      "少": 816,
      "尙": 817,
      "就": 818,
      "尹": 819,
      "尾": 820,
      "局": 821,
      "屋": 822,
      "山": 823,
      "島": 824,
      "崎": 825,
      "崔": 826,
      "嶺": 827,
      "川": 828,
      "州": 829,
      "工": 830,
      "左": 831,
      "差": 832,
      "己": 833,
      "已": 834,
      "巳": 835,
      "市": 836,
      "希": 837,
      "帝": 838,
      "師": 839,
      "帶": 840,
      "干": 841,
      "平": 842,
      "年": 843,
      "并": 844,
      "幼": 845,
      "幽": 846,
      "庆": 847,
      "序": 848,
      "店": 849,
      "庚": 850,
      "府": 851,
      "度": 852,
      "座": 853,
      "庫": 854,
      "廉": 855,
      "廢": 856,
      "廣": 857,
      "弄": 858,
      "弊": 859,
      "式": 860,
      "弔": 861,
      "引": 862,
      "张": 863,
      "張": 864,
      "強": 865,
      "强": 866,
      "弼": 867,
      "当": 868,
      "彗": 869,
      "形": 870,
      "彰": 871,
      "影": 872,
      "役": 873,
      "很": 874,
      "律": 875,
      "後": 876,
      "徐": 877,
      "徒": 878,
      "得": 879,
      "從": 880,
      "復": 881,
      "德": 882,
      "心": 883,
      "必": 884,
      "忍": 885,
      "志": 886,
      "忘": 887,
      "忠": 888,
      "念": 889,
      "思": 890,
      "性": 891,
      "怨": 892,
      "怪": 893,
      "恥": 894,
      "恨": 895,
      "恩": 896,
      "息": 897,
      "悔": 898,
      "患": 899,
      "悲": 900,
      "情": 901,
      "惠": 902,
      "惡": 903,
      "惰": 904,
      "想": 905,
      "意": 906,
      "愚": 907,
      "愛": 908,
      "感": 909,
      "愧": 910,
      "態": 911,
      "慣": 912,
      "慧": 913,
      "慶": 914,
      "慾": 915,
      "憂": 916,
      "憤": 917,
      "憲": 918,
      "應": 919,
      "懼": 920,
      "戊": 921,
      "戌": 922,
      "成": 923,
      "我": 924,
      "戒": 925,
      "或": 926,
      "戰": 927,
      "房": 928,
      "所": 929,
      "手": 930,
      "才": 931,
      "打": 932,
      "扮": 933,
      "承": 934,
      "抉": 935,
      "把": 936,
      "投": 937,
      "抗": 938,
      "折": 939,
      "报": 940,
      "抹": 941,
      "拜": 942,
      "择": 943,
      "持": 944,
      "指": 945,
      "按": 946,
      "挫": 947,
      "捏": 948,
      "捨": 949,
      "排": 950,
      "推": 951,
      "描": 952,
      "提": 953,
      "換": 954,
      "握": 955,
      "揮": 956,
      "援": 957,
      "搜": 958,
      "摘": 959,
      "摩": 960,
      "撻": 961,
      "據": 962,
      "擧": 963,
      "攪": 964,
      "支": 965,
      "收": 966,
      "改": 967,
      "攻": 968,
      "政": 969,
      "故": 970,
      "敎": 971,
      "救": 972,
      "敗": 973,
      "敢": 974,
      "敬": 975,
      "数": 976,
      "整": 977,
      "敵": 978,
      "敷": 979,
      "數": 980,
      "斂": 981,
      "文": 982,
      "斗": 983,
      "料": 984,
      "斥": 985,
      "斬": 986,
      "新": 987,
      "斷": 988,
      "方": 989,
      "於": 990,
      "施": 991,
      "族": 992,
      "无": 993,
      "日": 994,
      "旬": 995,
      "时": 996,
      "昇": 997,
      "昊": 998,
      "昌": 999,
      "明": 1000,
      "易": 1001,
      "星": 1002,
      "映": 1003,
      "春": 1004,
      "昧": 1005,
      "昭": 1006,
      "是": 1007,
      "時": 1008,
      "晋": 1009,
      "晤": 1010,
      "普": 1011,
      "景": 1012,
      "智": 1013,
      "暗": 1014,
      "暮": 1015,
      "暴": 1016,
      "曉": 1017,
      "曰": 1018,
      "更": 1019,
      "書": 1020,
      "曾": 1021,
      "月": 1022,
      "有": 1023,
      "服": 1024,
      "望": 1025,
      "朝": 1026,
      "期": 1027,
      "木": 1028,
      "未": 1029,
      "末": 1030,
      "本": 1031,
      "札": 1032,
      "朱": 1033,
      "朴": 1034,
      "李": 1035,
      "材": 1036,
      "村": 1037,
      "杖": 1038,
      "来": 1039,
      "東": 1040,
      "松": 1041,
      "板": 1042,
      "枋": 1043,
      "林": 1044,
      "柏": 1045,
      "某": 1046,
      "柤": 1047,
      "柱": 1048,
      "柳": 1049,
      "査": 1050,
      "校": 1051,
      "株": 1052,
      "样": 1053,
      "核": 1054,
      "根": 1055,
      "格": 1056,
      "條": 1057,
      "棄": 1058,
      "棒": 1059,
      "植": 1060,
      "椎": 1061,
      "椿": 1062,
      "業": 1063,
      "極": 1064,
      "榮": 1065,
      "構": 1066,
      "槪": 1067,
      "槿": 1068,
      "樂": 1069,
      "模": 1070,
      "樹": 1071,
      "樽": 1072,
      "橋": 1073,
      "機": 1074,
      "檀": 1075,
      "檢": 1076,
      "權": 1077,
      "欠": 1078,
      "次": 1079,
      "欧": 1080,
      "欺": 1081,
      "歌": 1082,
      "歎": 1083,
      "歐": 1084,
      "歡": 1085,
      "止": 1086,
      "正": 1087,
      "此": 1088,
      "歲": 1089,
      "歷": 1090,
      "歸": 1091,
      "死": 1092,
      "殃": 1093,
      "殷": 1094,
      "殺": 1095,
      "母": 1096,
      "比": 1097,
      "氏": 1098,
      "民": 1099,
      "氣": 1100,
      "水": 1101,
      "永": 1102,
      "求": 1103,
      "汚": 1104,
      "江": 1105,
      "汤": 1106,
      "汲": 1107,
      "沒": 1108,
      "没": 1109,
      "油": 1110,
      "治": 1111,
      "況": 1112,
      "泌": 1113,
      "法": 1114,
      "注": 1115,
      "泰": 1116,
      "泳": 1117,
      "洑": 1118,
      "洗": 1119,
      "洙": 1120,
      "洞": 1121,
      "洲": 1122,
      "派": 1123,
      "流": 1124,
      "浜": 1125,
      "浣": 1126,
      "浦": 1127,
      "浴": 1128,
      "海": 1129,
      "淑": 1130,
      "淚": 1131,
      "淫": 1132,
      "深": 1133,
      "淳": 1134,
      "淸": 1135,
      "渡": 1136,
      "温": 1137,
      "測": 1138,
      "港": 1139,
      "湖": 1140,
      "湾": 1141,
      "源": 1142,
      "溢": 1143,
      "溫": 1144,
      "溶": 1145,
      "滄": 1146,
      "滅": 1147,
      "滯": 1148,
      "滿": 1149,
      "漂": 1150,
      "演": 1151,
      "漢": 1152,
      "漲": 1153,
      "澈": 1154,
      "澤": 1155,
      "澳": 1156,
      "濟": 1157,
      "濠": 1158,
      "濯": 1159,
      "火": 1160,
      "災": 1161,
      "炅": 1162,
      "炙": 1163,
      "炭": 1164,
      "炳": 1165,
      "烈": 1166,
      "無": 1167,
      "然": 1168,
      "煙": 1169,
      "熙": 1170,
      "營": 1171,
      "燭": 1172,
      "燮": 1173,
      "爭": 1174,
      "爲": 1175,
      "爵": 1176,
      "父": 1177,
      "牋": 1178,
      "牙": 1179,
      "牛": 1180,
      "牧": 1181,
      "物": 1182,
      "牲": 1183,
      "犧": 1184,
      "犬": 1185,
      "犯": 1186,
      "状": 1187,
      "狀": 1188,
      "狂": 1189,
      "狗": 1190,
      "狡": 1191,
      "猾": 1192,
      "獄": 1193,
      "獨": 1194,
      "玄": 1195,
      "玉": 1196,
      "王": 1197,
      "玟": 1198,
      "现": 1199,
      "玲": 1200,
      "珍": 1201,
      "珠": 1202,
      "班": 1203,
      "現": 1204,
      "球": 1205,
      "理": 1206,
      "琮": 1207,
      "琴": 1208,
      "瑕": 1209,
      "瑚": 1210,
      "瑛": 1211,
      "璿": 1212,
      "瓘": 1213,
      "瓦": 1214,
      "甚": 1215,
      "生": 1216,
      "産": 1217,
      "甥": 1218,
      "用": 1219,
      "田": 1220,
      "由": 1221,
      "甲": 1222,
      "申": 1223,
      "电": 1224,
      "男": 1225,
      "界": 1226,
      "畓": 1227,
      "略": 1228,
      "異": 1229,
      "當": 1230,
      "疇": 1231,
      "疑": 1232,
      "疵": 1233,
      "病": 1234,
      "症": 1235,
      "痛": 1236,
      "痲": 1237,
      "痴": 1238,
      "痹": 1239,
      "癒": 1240,
      "癸": 1241,
      "登": 1242,
      "發": 1243,
      "白": 1244,
      "百": 1245,
      "的": 1246,
      "益": 1247,
      "盜": 1248,
      "監": 1249,
      "盤": 1250,
      "盧": 1251,
      "盲": 1252,
      "直": 1253,
      "相": 1254,
      "盾": 1255,
      "看": 1256,
      "眞": 1257,
      "眼": 1258,
      "着": 1259,
      "瞞": 1260,
      "瞬": 1261,
      "矛": 1262,
      "知": 1263,
      "短": 1264,
      "石": 1265,
      "砲": 1266,
      "破": 1267,
      "硏": 1268,
      "硬": 1269,
      "礎": 1270,
      "示": 1271,
      "社": 1272,
      "神": 1273,
      "票": 1274,
      "祭": 1275,
      "禁": 1276,
      "福": 1277,
      "禧": 1278,
      "禪": 1279,
      "秀": 1280,
      "私": 1281,
      "秉": 1282,
      "秋": 1283,
      "种": 1284,
      "科": 1285,
      "租": 1286,
      "称": 1287,
      "移": 1288,
      "稀": 1289,
      "稅": 1290,
      "稱": 1291,
      "穆": 1292,
      "積": 1293,
      "究": 1294,
      "空": 1295,
      "窦": 1296,
      "立": 1297,
      "競": 1298,
      "笑": 1299,
      "笠": 1300,
      "笭": 1301,
      "筆": 1302,
      "等": 1303,
      "筏": 1304,
      "答": 1305,
      "策": 1306,
      "筵": 1307,
      "算": 1308,
      "簿": 1309,
      "籍": 1310,
      "紀": 1311,
      "約": 1312,
      "紅": 1313,
      "納": 1314,
      "純": 1315,
      "級": 1316,
      "累": 1317,
      "終": 1318,
      "組": 1319,
      "結": 1320,
      "絡": 1321,
      "給": 1322,
      "統": 1323,
      "經": 1324,
      "維": 1325,
      "緖": 1326,
      "線": 1327,
      "縛": 1328,
      "縣": 1329,
      "織": 1330,
      "繼": 1331,
      "續": 1332,
      "经": 1333,
      "绝": 1334,
      "罪": 1335,
      "置": 1336,
      "罰": 1337,
      "罵": 1338,
      "罷": 1339,
      "羅": 1340,
      "羊": 1341,
      "美": 1342,
      "羞": 1343,
      "群": 1344,
      "義": 1345,
      "習": 1346,
      "翼": 1347,
      "老": 1348,
      "考": 1349,
      "者": 1350,
      "耳": 1351,
      "耽": 1352,
      "聖": 1353,
      "聲": 1354,
      "職": 1355,
      "聽": 1356,
      "肅": 1357,
      "肉": 1358,
      "育": 1359,
      "肴": 1360,
      "背": 1361,
      "胎": 1362,
      "胡": 1363,
      "能": 1364,
      "脈": 1365,
      "脊": 1366,
      "脫": 1367,
      "腦": 1368,
      "腹": 1369,
      "膏": 1370,
      "膾": 1371,
      "自": 1372,
      "至": 1373,
      "致": 1374,
      "臺": 1375,
      "與": 1376,
      "興": 1377,
      "舊": 1378,
      "舍": 1379,
      "舞": 1380,
      "舟": 1381,
      "航": 1382,
      "般": 1383,
      "良": 1384,
      "花": 1385,
      "苛": 1386,
      "苦": 1387,
      "英": 1388,
      "范": 1389,
      "荒": 1390,
      "荣": 1391,
      "荷": 1392,
      "莫": 1393,
      "营": 1394,
      "萬": 1395,
      "落": 1396,
      "葉": 1397,
      "蒙": 1398,
      "蒼": 1399,
      "蓋": 1400,
      "蓮": 1401,
      "蔑": 1402,
      "蔘": 1403,
      "蔚": 1404,
      "蔽": 1405,
      "薄": 1406,
      "薛": 1407,
      "藏": 1408,
      "藤": 1409,
      "藥": 1410,
      "藩": 1411,
      "蘇": 1412,
      "蘭": 1413,
      "虎": 1414,
      "處": 1415,
      "虛": 1416,
      "虹": 1417,
      "蛙": 1418,
      "蝶": 1419,
      "蠢": 1420,
      "蠻": 1421,
      "血": 1422,
      "行": 1423,
      "衍": 1424,
      "術": 1425,
      "衣": 1426,
      "表": 1427,
      "袋": 1428,
      "袖": 1429,
      "被": 1430,
      "裁": 1431,
      "裂": 1432,
      "裔": 1433,
      "補": 1434,
      "裝": 1435,
      "褒": 1436,
      "襟": 1437,
      "西": 1438,
      "要": 1439,
      "覆": 1440,
      "見": 1441,
      "視": 1442,
      "親": 1443,
      "覺": 1444,
      "覽": 1445,
      "觀": 1446,
      "见": 1447,
      "解": 1448,
      "觸": 1449,
      "言": 1450,
      "計": 1451,
      "訊": 1452,
      "討": 1453,
      "託": 1454,
      "記": 1455,
      "訟": 1456,
      "設": 1457,
      "許": 1458,
      "訴": 1459,
      "診": 1460,
      "詐": 1461,
      "試": 1462,
      "詩": 1463,
      "詬": 1464,
      "話": 1465,
      "誅": 1466,
      "誌": 1467,
      "認": 1468,
      "語": 1469,
      "誠": 1470,
      "誤": 1471,
      "說": 1472,
      "誼": 1473,
      "調": 1474,
      "談": 1475,
      "請": 1476,
      "論": 1477,
      "諱": 1478,
      "諸": 1479,
      "謀": 1480,
      "謝": 1481,
      "謹": 1482,
      "證": 1483,
      "譜": 1484,
      "警": 1485,
      "議": 1486,
      "護": 1487,
      "讀": 1488,
      "變": 1489,
      "讓": 1490,
      "讹": 1491,
      "设": 1492,
      "话": 1493,
      "说": 1494,
      "豚": 1495,
      "豪": 1496,
      "貞": 1497,
      "負": 1498,
      "財": 1499,
      "貢": 1500,
      "貧": 1501,
      "販": 1502,
      "貪": 1503,
      "責": 1504,
      "買": 1505,
      "費": 1506,
      "資": 1507,
      "賊": 1508,
      "賢": 1509,
      "賣": 1510,
      "賦": 1511,
      "質": 1512,
      "賭": 1513,
      "贼": 1514,
      "赚": 1515,
      "赫": 1516,
      "走": 1517,
      "起": 1518,
      "超": 1519,
      "越": 1520,
      "趙": 1521,
      "足": 1522,
      "趾": 1523,
      "路": 1524,
      "跳": 1525,
      "踏": 1526,
      "踪": 1527,
      "身": 1528,
      "車": 1529,
      "軍": 1530,
      "軟": 1531,
      "載": 1532,
      "轉": 1533,
      "轡": 1534,
      "较": 1535,
      "辛": 1536,
      "辭": 1537,
      "辰": 1538,
      "辱": 1539,
      "農": 1540,
      "过": 1541,
      "近": 1542,
      "还": 1543,
      "这": 1544,
      "远": 1545,
      "违": 1546,
      "述": 1547,
      "送": 1548,
      "逃": 1549,
      "逆": 1550,
      "选": 1551,
      "透": 1552,
      "逐": 1553,
      "通": 1554,
      "造": 1555,
      "進": 1556,
      "逸": 1557,
      "運": 1558,
      "遍": 1559,
      "過": 1560,
      "道": 1561,
      "遠": 1562,
      "適": 1563,
      "遲": 1564,
      "選": 1565,
      "遺": 1566,
      "邁": 1567,
      "邊": 1568,
      "邑": 1569,
      "邦": 1570,
      "邪": 1571,
      "部": 1572,
      "都": 1573,
      "鄕": 1574,
      "鄭": 1575,
      "鄰": 1576,
      "酉": 1577,
      "酒": 1578,
      "釋": 1579,
      "里": 1580,
      "重": 1581,
      "野": 1582,
      "量": 1583,
      "金": 1584,
      "釜": 1585,
      "針": 1586,
      "銀": 1587,
      "錄": 1588,
      "錢": 1589,
      "錫": 1590,
      "鍾": 1591,
      "鎔": 1592,
      "鏞": 1593,
      "鏡": 1594,
      "鐘": 1595,
      "错": 1596,
      "長": 1597,
      "門": 1598,
      "開": 1599,
      "閏": 1600,
      "間": 1601,
      "閔": 1602,
      "閣": 1603,
      "閥": 1604,
      "關": 1605,
      "问": 1606,
      "间": 1607,
      "闻": 1608,
      "阪": 1609,
      "阿": 1610,
      "附": 1611,
      "陆": 1612,
      "限": 1613,
      "院": 1614,
      "除": 1615,
      "险": 1616,
      "陰": 1617,
      "陳": 1618,
      "陽": 1619,
      "隊": 1620,
      "隐": 1621,
      "隣": 1622,
      "隱": 1623,
      "雄": 1624,
      "集": 1625,
      "難": 1626,
      "雨": 1627,
      "電": 1628,
      "需": 1629,
      "霓": 1630,
      "露": 1631,
      "靈": 1632,
      "靑": 1633,
      "非": 1634,
      "面": 1635,
      "革": 1636,
      "鞭": 1637,
      "韓": 1638,
      "韩": 1639,
      "音": 1640,
      "頂": 1641,
      "順": 1642,
      "頗": 1643,
      "領": 1644,
      "頭": 1645,
      "頸": 1646,
      "額": 1647,
      "願": 1648,
      "顚": 1649,
      "類": 1650,
      "顧": 1651,
      "顯": 1652,
      "風": 1653,
      "风": 1654,
      "飞": 1655,
      "食": 1656,
      "養": 1657,
      "餘": 1658,
      "首": 1659,
      "香": 1660,
      "馬": 1661,
      "駁": 1662,
      "駐": 1663,
      "騷": 1664,
      "马": 1665,
      "骨": 1666,
      "體": 1667,
      "高": 1668,
      "鬪": 1669,
      "鬼": 1670,
      "魂": 1671,
      "魄": 1672,
      "魏": 1673,
      "魔": 1674,
      "魚": 1675,
      "鮮": 1676,
      "鳥": 1677,
      "鳩": 1678,
      "鳴": 1679,
      "麻": 1680,
      "黄": 1681,
      "默": 1682,
      "黙": 1683,
      "黨": 1684,
      "鼎": 1685,
      "齋": 1686,
      "龍": 1687,
      "龜": 1688,
      "꙼": 1689,
      "가": 1690,
      "각": 1691,
      "갂": 1692,
      "간": 1693,
      "갇": 1694,
      "갈": 1695,
      "갉": 1696,
      "감": 1697,
      "갑": 1698,
      "값": 1699,
      "갓": 1700,
      "갔": 1701,
      "강": 1702,
      "갖": 1703,
      "갗": 1704,
      "갘": 1705,
      "같": 1706,
      "갚": 1707,
      "갛": 1708,
      "개": 1709,
      "객": 1710,
      "갠": 1711,
      "갢": 1712,
      "갤": 1713,
      "갬": 1714,
      "갭": 1715,
      "갯": 1716,
      "갰": 1717,
      "갱": 1718,
      "갲": 1719,
      "갶": 1720,
      "갸": 1721,
      "갹": 1722,
      "걀": 1723,
      "걍": 1724,
      "걑": 1725,
      "걔": 1726,
      "걘": 1727,
      "걨": 1728,
      "거": 1729,
      "걱": 1730,
      "걲": 1731,
      "건": 1732,
      "걷": 1733,
      "걸": 1734,
      "검": 1735,
      "겁": 1736,
      "겂": 1737,
      "것": 1738,
      "겄": 1739,
      "겅": 1740,
      "겆": 1741,
      "겉": 1742,
      "겊": 1743,
      "겋": 1744,
      "게": 1745,
      "겍": 1746,
      "겐": 1747,
      "겓": 1748,
      "겔": 1749,
      "겜": 1750,
      "겟": 1751,
      "겠": 1752,
      "겡": 1753,
      "겥": 1754,
      "겦": 1755,
      "겧": 1756,
      "겨": 1757,
      "격": 1758,
      "겪": 1759,
      "견": 1760,
      "결": 1761,
      "겸": 1762,
      "겹": 1763,
      "겻": 1764,
      "겼": 1765,
      "경": 1766,
      "겿": 1767,
      "곀": 1768,
      "곁": 1769,
      "곃": 1770,
      "계": 1771,
      "곆": 1772,
      "곗": 1773,
      "곘": 1774,
      "곙": 1775,
      "곟": 1776,
      "고": 1777,
      "곡": 1778,
      "곤": 1779,
      "곧": 1780,
      "골": 1781,
      "곪": 1782,
      "곯": 1783,
      "곰": 1784,
      "곱": 1785,
      "곳": 1786,
      "공": 1787,
      "곶": 1788,
      "곸": 1789,
      "곹": 1790,
      "곺": 1791,
      "곻": 1792,
      "과": 1793,
      "곽": 1794,
      "관": 1795,
      "괂": 1796,
      "괄": 1797,
      "괌": 1798,
      "괍": 1799,
      "광": 1800,
      "괕": 1801,
      "괘": 1802,
      "괜": 1803,
      "괞": 1804,
      "괭": 1805,
      "괴": 1806,
      "괵": 1807,
      "괸": 1808,
      "괼": 1809,
      "굉": 1810,
      "교": 1811,
      "굑": 1812,
      "굔": 1813,
      "굣": 1814,
      "굥": 1815,
      "구": 1816,
      "국": 1817,
      "굮": 1818,
      "군": 1819,
      "굲": 1820,
      "굳": 1821,
      "굴": 1822,
      "굵": 1823,
      "굶": 1824,
      "굷": 1825,
      "굻": 1826,
      "굼": 1827,
      "굽": 1828,
      "굿": 1829,
      "궁": 1830,
      "궂": 1831,
      "궃": 1832,
      "궄": 1833,
      "궅": 1834,
      "궈": 1835,
      "권": 1836,
      "궐": 1837,
      "궜": 1838,
      "궝": 1839,
      "궤": 1840,
      "궨": 1841,
      "궴": 1842,
      "귀": 1843,
      "귁": 1844,
      "귄": 1845,
      "귈": 1846,
      "귓": 1847,
      "규": 1848,
      "귝": 1849,
      "균": 1850,
      "귤": 1851,
      "귱": 1852,
      "그": 1853,
      "극": 1854,
      "근": 1855,
      "귾": 1856,
      "귿": 1857,
      "글": 1858,
      "긁": 1859,
      "긇": 1860,
      "금": 1861,
      "급": 1862,
      "긊": 1863,
      "긋": 1864,
      "긌": 1865,
      "긍": 1866,
      "긎": 1867,
      "긒": 1868,
      "긔": 1869,
      "긕": 1870,
      "긘": 1871,
      "긧": 1872,
      "기": 1873,
      "긱": 1874,
      "긴": 1875,
      "길": 1876,
      "김": 1877,
      "깁": 1878,
      "깃": 1879,
      "깄": 1880,
      "깅": 1881,
      "깆": 1882,
      "깉": 1883,
      "깊": 1884,
      "깋": 1885,
      "까": 1886,
      "깍": 1887,
      "깎": 1888,
      "깐": 1889,
      "깔": 1890,
      "깜": 1891,
      "깝": 1892,
      "깟": 1893,
      "깠": 1894,
      "깡": 1895,
      "깢": 1896,
      "깤": 1897,
      "깥": 1898,
      "깨": 1899,
      "깬": 1900,
      "깰": 1901,
      "깹": 1902,
      "깻": 1903,
      "깼": 1904,
      "깽": 1905,
      "꺄": 1906,
      "꺔": 1907,
      "꺠": 1908,
      "꺼": 1909,
      "꺽": 1910,
      "꺾": 1911,
      "껀": 1912,
      "껃": 1913,
      "껄": 1914,
      "껌": 1915,
      "껍": 1916,
      "껏": 1917,
      "껐": 1918,
      "껑": 1919,
      "께": 1920,
      "껜": 1921,
      "껬": 1922,
      "껭": 1923,
      "껴": 1924,
      "껵": 1925,
      "껶": 1926,
      "꼇": 1927,
      "꼈": 1928,
      "꼐": 1929,
      "꼬": 1930,
      "꼭": 1931,
      "꼰": 1932,
      "꼴": 1933,
      "꼼": 1934,
      "꼽": 1935,
      "꼿": 1936,
      "꽁": 1937,
      "꽂": 1938,
      "꽃": 1939,
      "꽅": 1940,
      "꽈": 1941,
      "꽉": 1942,
      "꽊": 1943,
      "꽐": 1944,
      "꽝": 1945,
      "꽤": 1946,
      "꽥": 1947,
      "꽹": 1948,
      "꾀": 1949,
      "꾄": 1950,
      "꾐": 1951,
      "꾜": 1952,
      "꾸": 1953,
      "꾹": 1954,
      "꾼": 1955,
      "꾾": 1956,
      "꾿": 1957,
      "꿀": 1958,
      "꿁": 1959,
      "꿂": 1960,
      "꿇": 1961,
      "꿈": 1962,
      "꿉": 1963,
      "꿋": 1964,
      "꿍": 1965,
      "꿎": 1966,
      "꿏": 1967,
      "꿔": 1968,
      "꿘": 1969,
      "꿧": 1970,
      "꿨": 1971,
      "꿩": 1972,
      "꿰": 1973,
      "꿴": 1974,
      "뀌": 1975,
      "뀐": 1976,
      "뀔": 1977,
      "뀜": 1978,
      "뀝": 1979,
      "뀠": 1980,
      "끄": 1981,
      "끈": 1982,
      "끊": 1983,
      "끋": 1984,
      "끌": 1985,
      "끍": 1986,
      "끓": 1987,
      "끔": 1988,
      "끕": 1989,
      "끗": 1990,
      "끙": 1991,
      "끚": 1992,
      "끝": 1993,
      "끼": 1994,
      "끽": 1995,
      "낀": 1996,
      "낄": 1997,
      "낌": 1998,
      "낍": 1999,
      "낑": 2000,
      "나": 2001,
      "낙": 2002,
      "낚": 2003,
      "난": 2004,
      "낞": 2005,
      "낟": 2006,
      "날": 2007,
      "낡": 2008,
      "낦": 2009,
      "낧": 2010,
      "남": 2011,
      "납": 2012,
      "낫": 2013,
      "났": 2014,
      "낭": 2015,
      "낮": 2016,
      "낯": 2017,
      "낱": 2018,
      "낳": 2019,
      "내": 2020,
      "낵": 2021,
      "낸": 2022,
      "낼": 2023,
      "냄": 2024,
      "냅": 2025,
      "냇": 2026,
      "냈": 2027,
      "냉": 2028,
      "냐": 2029,
      "냔": 2030,
      "냘": 2031,
      "냠": 2032,
      "냡": 2033,
      "냥": 2034,
      "냦": 2035,
      "냫": 2036,
      "냬": 2037,
      "넀": 2038,
      "너": 2039,
      "넉": 2040,
      "넋": 2041,
      "넌": 2042,
      "넎": 2043,
      "널": 2044,
      "넑": 2045,
      "넒": 2046,
      "넓": 2047,
      "넔": 2048,
      "넖": 2049,
      "넗": 2050,
      "넘": 2051,
      "넙": 2052,
      "넚": 2053,
      "넛": 2054,
      "넜": 2055,
      "넝": 2056,
      "넢": 2057,
      "넣": 2058,
      "네": 2059,
      "넥": 2060,
      "넨": 2061,
      "넬": 2062,
      "넴": 2063,
      "넵": 2064,
      "넷": 2065,
      "넸": 2066,
      "넹": 2067,
      "녀": 2068,
      "녁": 2069,
      "년": 2070,
      "념": 2071,
      "녓": 2072,
      "녔": 2073,
      "녕": 2074,
      "녘": 2075,
      "녜": 2076,
      "녱": 2077,
      "노": 2078,
      "녹": 2079,
      "논": 2080,
      "녿": 2081,
      "놀": 2082,
      "놁": 2083,
      "놈": 2084,
      "놉": 2085,
      "놋": 2086,
      "농": 2087,
      "놎": 2088,
      "놏": 2089,
      "높": 2090,
      "놓": 2091,
      "놔": 2092,
      "놥": 2093,
      "놧": 2094,
      "놨": 2095,
      "놯": 2096,
      "뇄": 2097,
      "뇌": 2098,
      "뇨": 2099,
      "뇬": 2100,
      "뇸": 2101,
      "뇽": 2102,
      "눂": 2103,
      "누": 2104,
      "눅": 2105,
      "눈": 2106,
      "눌": 2107,
      "눔": 2108,
      "눕": 2109,
      "눗": 2110,
      "눙": 2111,
      "눞": 2112,
      "눟": 2113,
      "눠": 2114,
      "눤": 2115,
      "눴": 2116,
      "눼": 2117,
      "뉘": 2118,
      "뉜": 2119,
      "뉠": 2120,
      "뉩": 2121,
      "뉴": 2122,
      "늄": 2123,
      "늉": 2124,
      "늏": 2125,
      "느": 2126,
      "늑": 2127,
      "는": 2128,
      "늕": 2129,
      "늗": 2130,
      "늘": 2131,
      "늙": 2132,
      "늚": 2133,
      "늠": 2134,
      "늡": 2135,
      "늣": 2136,
      "능": 2137,
      "늦": 2138,
      "늧": 2139,
      "늨": 2140,
      "늪": 2141,
      "늫": 2142,
      "늬": 2143,
      "니": 2144,
      "닉": 2145,
      "닌": 2146,
      "닏": 2147,
      "닐": 2148,
      "님": 2149,
      "닙": 2150,
      "닛": 2151,
      "닜": 2152,
      "닝": 2153,
      "닞": 2154,
      "닠": 2155,
      "다": 2156,
      "닥": 2157,
      "닦": 2158,
      "단": 2159,
      "닫": 2160,
      "달": 2161,
      "닭": 2162,
      "닮": 2163,
      "닯": 2164,
      "닳": 2165,
      "담": 2166,
      "답": 2167,
      "닷": 2168,
      "당": 2169,
      "닺": 2170,
      "닻": 2171,
      "닼": 2172,
      "닽": 2173,
      "닾": 2174,
      "닿": 2175,
      "대": 2176,
      "댁": 2177,
      "댄": 2178,
      "댇": 2179,
      "댈": 2180,
      "댐": 2181,
      "댑": 2182,
      "댓": 2183,
      "댔": 2184,
      "댕": 2185,
      "댖": 2186,
      "댗": 2187,
      "댜": 2188,
      "댱": 2189,
      "댸": 2190,
      "더": 2191,
      "덕": 2192,
      "던": 2193,
      "덛": 2194,
      "덜": 2195,
      "덞": 2196,
      "덟": 2197,
      "덤": 2198,
      "덥": 2199,
      "덧": 2200,
      "덩": 2201,
      "덪": 2202,
      "덫": 2203,
      "덭": 2204,
      "덮": 2205,
      "덯": 2206,
      "데": 2207,
      "덱": 2208,
      "덴": 2209,
      "델": 2210,
      "뎀": 2211,
      "뎁": 2212,
      "뎃": 2213,
      "뎄": 2214,
      "뎅": 2215,
      "뎆": 2216,
      "뎇": 2217,
      "뎊": 2218,
      "뎌": 2219,
      "뎐": 2220,
      "뎟": 2221,
      "뎠": 2222,
      "뎨": 2223,
      "도": 2224,
      "독": 2225,
      "돈": 2226,
      "돋": 2227,
      "돌": 2228,
      "돔": 2229,
      "돕": 2230,
      "돗": 2231,
      "동": 2232,
      "돚": 2233,
      "돛": 2234,
      "돟": 2235,
      "돠": 2236,
      "돡": 2237,
      "돤": 2238,
      "돨": 2239,
      "돱": 2240,
      "돴": 2241,
      "돵": 2242,
      "돼": 2243,
      "됀": 2244,
      "됄": 2245,
      "됌": 2246,
      "됍": 2247,
      "됏": 2248,
      "됐": 2249,
      "되": 2250,
      "된": 2251,
      "될": 2252,
      "됨": 2253,
      "됩": 2254,
      "됫": 2255,
      "됬": 2256,
      "됭": 2257,
      "됮": 2258,
      "됯": 2259,
      "됴": 2260,
      "둉": 2261,
      "두": 2262,
      "둑": 2263,
      "둔": 2264,
      "둗": 2265,
      "둘": 2266,
      "둠": 2267,
      "둡": 2268,
      "둣": 2269,
      "둥": 2270,
      "둬": 2271,
      "둰": 2272,
      "둴": 2273,
      "둿": 2274,
      "뒀": 2275,
      "뒈": 2276,
      "뒤": 2277,
      "뒷": 2278,
      "뒹": 2279,
      "뒺": 2280,
      "듀": 2281,
      "듈": 2282,
      "듐": 2283,
      "드": 2284,
      "득": 2285,
      "듟": 2286,
      "든": 2287,
      "듣": 2288,
      "들": 2289,
      "듦": 2290,
      "듧": 2291,
      "듫": 2292,
      "듬": 2293,
      "듭": 2294,
      "듯": 2295,
      "듰": 2296,
      "등": 2297,
      "듲": 2298,
      "듵": 2299,
      "듸": 2300,
      "듹": 2301,
      "듼": 2302,
      "딉": 2303,
      "디": 2304,
      "딕": 2305,
      "딘": 2306,
      "딛": 2307,
      "딜": 2308,
      "딤": 2309,
      "딥": 2310,
      "딧": 2311,
      "딨": 2312,
      "딩": 2313,
      "딪": 2314,
      "딫": 2315,
      "딯": 2316,
      "따": 2317,
      "딱": 2318,
      "딲": 2319,
      "딴": 2320,
      "딸": 2321,
      "땀": 2322,
      "땃": 2323,
      "땄": 2324,
      "땅": 2325,
      "땋": 2326,
      "때": 2327,
      "땍": 2328,
      "땐": 2329,
      "땔": 2330,
      "땜": 2331,
      "땝": 2332,
      "땟": 2333,
      "땠": 2334,
      "땡": 2335,
      "땨": 2336,
      "땰": 2337,
      "떄": 2338,
      "떈": 2339,
      "떌": 2340,
      "떔": 2341,
      "떗": 2342,
      "떙": 2343,
      "떠": 2344,
      "떡": 2345,
      "떤": 2346,
      "떧": 2347,
      "떨": 2348,
      "떫": 2349,
      "떯": 2350,
      "떰": 2351,
      "떱": 2352,
      "떳": 2353,
      "떴": 2354,
      "떵": 2355,
      "떻": 2356,
      "떼": 2357,
      "떽": 2358,
      "뗀": 2359,
      "뗄": 2360,
      "뗌": 2361,
      "뗍": 2362,
      "뗏": 2363,
      "뗐": 2364,
      "뗗": 2365,
      "뗘": 2366,
      "뗜": 2367,
      "뗠": 2368,
      "뗬": 2369,
      "뗳": 2370,
      "뗴": 2371,
      "또": 2372,
      "똑": 2373,
      "똒": 2374,
      "똘": 2375,
      "똠": 2376,
      "똥": 2377,
      "똫": 2378,
      "똬": 2379,
      "뙇": 2380,
      "뙤": 2381,
      "뚜": 2382,
      "뚝": 2383,
      "뚞": 2384,
      "뚣": 2385,
      "뚤": 2386,
      "뚦": 2387,
      "뚫": 2388,
      "뚭": 2389,
      "뚯": 2390,
      "뚱": 2391,
      "뛰": 2392,
      "뛱": 2393,
      "뛴": 2394,
      "뛸": 2395,
      "뜀": 2396,
      "뜁": 2397,
      "뜨": 2398,
      "뜩": 2399,
      "뜬": 2400,
      "뜯": 2401,
      "뜰": 2402,
      "뜷": 2403,
      "뜸": 2404,
      "뜹": 2405,
      "뜻": 2406,
      "뜽": 2407,
      "뜾": 2408,
      "띁": 2409,
      "띄": 2410,
      "띈": 2411,
      "띌": 2412,
      "띔": 2413,
      "띕": 2414,
      "띗": 2415,
      "띠": 2416,
      "띡": 2417,
      "띤": 2418,
      "띨": 2419,
      "띰": 2420,
      "띱": 2421,
      "띵": 2422,
      "라": 2423,
      "락": 2424,
      "란": 2425,
      "랃": 2426,
      "랄": 2427,
      "람": 2428,
      "랍": 2429,
      "랏": 2430,
      "랐": 2431,
      "랑": 2432,
      "랖": 2433,
      "랗": 2434,
      "래": 2435,
      "랙": 2436,
      "랜": 2437,
      "랠": 2438,
      "램": 2439,
      "랩": 2440,
      "랫": 2441,
      "랬": 2442,
      "랭": 2443,
      "랴": 2444,
      "략": 2445,
      "랸": 2446,
      "랼": 2447,
      "럄": 2448,
      "럅": 2449,
      "량": 2450,
      "럐": 2451,
      "러": 2452,
      "럭": 2453,
      "런": 2454,
      "럲": 2455,
      "럴": 2456,
      "럻": 2457,
      "럼": 2458,
      "럽": 2459,
      "럾": 2460,
      "럿": 2461,
      "렀": 2462,
      "렁": 2463,
      "렆": 2464,
      "렇": 2465,
      "레": 2466,
      "렉": 2467,
      "렌": 2468,
      "렐": 2469,
      "렘": 2470,
      "렙": 2471,
      "렛": 2472,
      "렜": 2473,
      "렝": 2474,
      "렣": 2475,
      "려": 2476,
      "력": 2477,
      "렧": 2478,
      "련": 2479,
      "렬": 2480,
      "렴": 2481,
      "렵": 2482,
      "렷": 2483,
      "렸": 2484,
      "령": 2485,
      "렺": 2486,
      "렿": 2487,
      "례": 2488,
      "롁": 2489,
      "로": 2490,
      "록": 2491,
      "론": 2492,
      "롤": 2493,
      "롬": 2494,
      "롭": 2495,
      "롯": 2496,
      "롱": 2497,
      "롸": 2498,
      "롼": 2499,
      "뢀": 2500,
      "뢍": 2501,
      "뢰": 2502,
      "룁": 2503,
      "료": 2504,
      "룍": 2505,
      "룐": 2506,
      "룔": 2507,
      "룡": 2508,
      "루": 2509,
      "룩": 2510,
      "룬": 2511,
      "룰": 2512,
      "룸": 2513,
      "룹": 2514,
      "룻": 2515,
      "룽": 2516,
      "뤄": 2517,
      "뤌": 2518,
      "뤗": 2519,
      "뤘": 2520,
      "뤼": 2521,
      "륐": 2522,
      "류": 2523,
      "륙": 2524,
      "륜": 2525,
      "률": 2526,
      "륨": 2527,
      "륭": 2528,
      "르": 2529,
      "륵": 2530,
      "른": 2531,
      "륻": 2532,
      "를": 2533,
      "륿": 2534,
      "름": 2535,
      "릅": 2536,
      "릇": 2537,
      "릉": 2538,
      "릍": 2539,
      "릎": 2540,
      "릏": 2541,
      "릐": 2542,
      "릠": 2543,
      "리": 2544,
      "릭": 2545,
      "린": 2546,
      "릴": 2547,
      "릷": 2548,
      "림": 2549,
      "립": 2550,
      "릿": 2551,
      "맀": 2552,
      "링": 2553,
      "맂": 2554,
      "맆": 2555,
      "맇": 2556,
      "마": 2557,
      "막": 2558,
      "맊": 2559,
      "만": 2560,
      "많": 2561,
      "맏": 2562,
      "말": 2563,
      "맑": 2564,
      "맗": 2565,
      "맘": 2566,
      "맙": 2567,
      "맛": 2568,
      "맜": 2569,
      "망": 2570,
      "맞": 2571,
      "맟": 2572,
      "맠": 2573,
      "맡": 2574,
      "맢": 2575,
      "맣": 2576,
      "매": 2577,
      "맥": 2578,
      "맨": 2579,
      "맫": 2580,
      "맬": 2581,
      "맴": 2582,
      "맵": 2583,
      "맷": 2584,
      "맸": 2585,
      "맹": 2586,
      "맺": 2587,
      "맻": 2588,
      "먀": 2589,
      "먄": 2590,
      "먈": 2591,
      "먕": 2592,
      "먙": 2593,
      "먝": 2594,
      "머": 2595,
      "먹": 2596,
      "먺": 2597,
      "먼": 2598,
      "먾": 2599,
      "멀": 2600,
      "멈": 2601,
      "멉": 2602,
      "멊": 2603,
      "멋": 2604,
      "멍": 2605,
      "멎": 2606,
      "멏": 2607,
      "멓": 2608,
      "메": 2609,
      "멕": 2610,
      "멘": 2611,
      "멜": 2612,
      "멤": 2613,
      "멧": 2614,
      "멩": 2615,
      "멫": 2616,
      "며": 2617,
      "멱": 2618,
      "면": 2619,
      "멸": 2620,
      "멿": 2621,
      "몀": 2622,
      "몃": 2623,
      "몄": 2624,
      "명": 2625,
      "몆": 2626,
      "몇": 2627,
      "몋": 2628,
      "몌": 2629,
      "몟": 2630,
      "모": 2631,
      "목": 2632,
      "몪": 2633,
      "몫": 2634,
      "몬": 2635,
      "몯": 2636,
      "몰": 2637,
      "몱": 2638,
      "몴": 2639,
      "몸": 2640,
      "몹": 2641,
      "못": 2642,
      "몼": 2643,
      "몽": 2644,
      "몾": 2645,
      "몿": 2646,
      "뫃": 2647,
      "뫄": 2648,
      "뫈": 2649,
      "뫠": 2650,
      "뫼": 2651,
      "묀": 2652,
      "묏": 2653,
      "묘": 2654,
      "묙": 2655,
      "묜": 2656,
      "묫": 2657,
      "묭": 2658,
      "무": 2659,
      "묵": 2660,
      "묶": 2661,
      "문": 2662,
      "묹": 2663,
      "묻": 2664,
      "물": 2665,
      "묽": 2666,
      "묾": 2667,
      "뭄": 2668,
      "뭅": 2669,
      "뭇": 2670,
      "뭉": 2671,
      "뭋": 2672,
      "뭍": 2673,
      "뭏": 2674,
      "뭐": 2675,
      "뭔": 2676,
      "뭘": 2677,
      "뭟": 2678,
      "뭠": 2679,
      "뭡": 2680,
      "뭣": 2681,
      "뭤": 2682,
      "뮈": 2683,
      "뮌": 2684,
      "뮙": 2685,
      "뮛": 2686,
      "뮤": 2687,
      "뮥": 2688,
      "뮨": 2689,
      "뮬": 2690,
      "뮴": 2691,
      "뮹": 2692,
      "므": 2693,
      "믄": 2694,
      "믇": 2695,
      "믈": 2696,
      "믐": 2697,
      "믑": 2698,
      "믓": 2699,
      "믜": 2700,
      "미": 2701,
      "믹": 2702,
      "민": 2703,
      "믽": 2704,
      "믾": 2705,
      "믿": 2706,
      "밀": 2707,
      "밈": 2708,
      "밉": 2709,
      "밊": 2710,
      "밋": 2711,
      "밌": 2712,
      "밍": 2713,
      "밎": 2714,
      "및": 2715,
      "밑": 2716,
      "밓": 2717,
      "바": 2718,
      "박": 2719,
      "밖": 2720,
      "반": 2721,
      "밚": 2722,
      "받": 2723,
      "발": 2724,
      "밝": 2725,
      "밞": 2726,
      "밟": 2727,
      "밠": 2728,
      "밢": 2729,
      "밣": 2730,
      "밤": 2731,
      "밥": 2732,
      "밦": 2733,
      "밧": 2734,
      "밨": 2735,
      "방": 2736,
      "밪": 2737,
      "밬": 2738,
      "밭": 2739,
      "밮": 2740,
      "배": 2741,
      "백": 2742,
      "밴": 2743,
      "밷": 2744,
      "밸": 2745,
      "뱀": 2746,
      "뱁": 2747,
      "뱃": 2748,
      "뱄": 2749,
      "뱅": 2750,
      "뱉": 2751,
      "뱌": 2752,
      "뱎": 2753,
      "뱓": 2754,
      "뱔": 2755,
      "뱡": 2756,
      "버": 2757,
      "벅": 2758,
      "번": 2759,
      "벋": 2760,
      "벌": 2761,
      "벍": 2762,
      "벏": 2763,
      "범": 2764,
      "법": 2765,
      "벗": 2766,
      "벙": 2767,
      "벚": 2768,
      "벛": 2769,
      "베": 2770,
      "벡": 2771,
      "벤": 2772,
      "벧": 2773,
      "벨": 2774,
      "벱": 2775,
      "벳": 2776,
      "벵": 2777,
      "벹": 2778,
      "벼": 2779,
      "벽": 2780,
      "변": 2781,
      "별": 2782,
      "볅": 2783,
      "볌": 2784,
      "볍": 2785,
      "볐": 2786,
      "병": 2787,
      "볓": 2788,
      "볔": 2789,
      "볕": 2790,
      "볘": 2791,
      "보": 2792,
      "복": 2793,
      "볶": 2794,
      "본": 2795,
      "볼": 2796,
      "봄": 2797,
      "봅": 2798,
      "봇": 2799,
      "봈": 2800,
      "봉": 2801,
      "봍": 2802,
      "봐": 2803,
      "봘": 2804,
      "봡": 2805,
      "봣": 2806,
      "봤": 2807,
      "봽": 2808,
      "뵁": 2809,
      "뵈": 2810,
      "뵌": 2811,
      "뵐": 2812,
      "뵙": 2813,
      "뵜": 2814,
      "뵤": 2815,
      "뵹": 2816,
      "부": 2817,
      "북": 2818,
      "붂": 2819,
      "분": 2820,
      "붇": 2821,
      "불": 2822,
      "붉": 2823,
      "붋": 2824,
      "붍": 2825,
      "붏": 2826,
      "붐": 2827,
      "붑": 2828,
      "붓": 2829,
      "붕": 2830,
      "붘": 2831,
      "붙": 2832,
      "붚": 2833,
      "붛": 2834,
      "붸": 2835,
      "뷔": 2836,
      "뷰": 2837,
      "뷱": 2838,
      "뷴": 2839,
      "뷸": 2840,
      "븅": 2841,
      "브": 2842,
      "븍": 2843,
      "븐": 2844,
      "블": 2845,
      "븟": 2846,
      "븡": 2847,
      "븥": 2848,
      "븰": 2849,
      "비": 2850,
      "빅": 2851,
      "빆": 2852,
      "빈": 2853,
      "빋": 2854,
      "빌": 2855,
      "빏": 2856,
      "빔": 2857,
      "빕": 2858,
      "빗": 2859,
      "빙": 2860,
      "빚": 2861,
      "빛": 2862,
      "빠": 2863,
      "빡": 2864,
      "빢": 2865,
      "빤": 2866,
      "빧": 2867,
      "빨": 2868,
      "빰": 2869,
      "빱": 2870,
      "빳": 2871,
      "빴": 2872,
      "빵": 2873,
      "빻": 2874,
      "빼": 2875,
      "빽": 2876,
      "뺀": 2877,
      "뺃": 2878,
      "뺄": 2879,
      "뺌": 2880,
      "뺍": 2881,
      "뺏": 2882,
      "뺐": 2883,
      "뺑": 2884,
      "뺒": 2885,
      "뺕": 2886,
      "뺠": 2887,
      "뺨": 2888,
      "뺴": 2889,
      "뺸": 2890,
      "뻄": 2891,
      "뻇": 2892,
      "뻐": 2893,
      "뻑": 2894,
      "뻔": 2895,
      "뻗": 2896,
      "뻘": 2897,
      "뻟": 2898,
      "뻡": 2899,
      "뻣": 2900,
      "뻤": 2901,
      "뻥": 2902,
      "뻦": 2903,
      "뻩": 2904,
      "뻬": 2905,
      "뻭": 2906,
      "뼈": 2907,
      "뼉": 2908,
      "뼘": 2909,
      "뼛": 2910,
      "뼝": 2911,
      "뽀": 2912,
      "뽁": 2913,
      "뽂": 2914,
      "뽄": 2915,
      "뽐": 2916,
      "뽑": 2917,
      "뽕": 2918,
      "뽙": 2919,
      "뽝": 2920,
      "뾰": 2921,
      "뿌": 2922,
      "뿍": 2923,
      "뿐": 2924,
      "뿔": 2925,
      "뿜": 2926,
      "뿝": 2927,
      "쁀": 2928,
      "쁘": 2929,
      "쁜": 2930,
      "쁠": 2931,
      "쁨": 2932,
      "쁩": 2933,
      "삐": 2934,
      "삑": 2935,
      "삔": 2936,
      "삥": 2937,
      "사": 2938,
      "삭": 2939,
      "삮": 2940,
      "삯": 2941,
      "산": 2942,
      "삲": 2943,
      "살": 2944,
      "삵": 2945,
      "삶": 2946,
      "삷": 2947,
      "삺": 2948,
      "삻": 2949,
      "삼": 2950,
      "삽": 2951,
      "삿": 2952,
      "샀": 2953,
      "상": 2954,
      "샅": 2955,
      "샆": 2956,
      "샇": 2957,
      "새": 2958,
      "색": 2959,
      "샊": 2960,
      "샌": 2961,
      "샐": 2962,
      "샘": 2963,
      "샙": 2964,
      "샛": 2965,
      "샜": 2966,
      "생": 2967,
      "샤": 2968,
      "샥": 2969,
      "샨": 2970,
      "샬": 2971,
      "샴": 2972,
      "샵": 2973,
      "샷": 2974,
      "샹": 2975,
      "샾": 2976,
      "섀": 2977,
      "서": 2978,
      "석": 2979,
      "섞": 2980,
      "선": 2981,
      "섣": 2982,
      "설": 2983,
      "섥": 2984,
      "섪": 2985,
      "섬": 2986,
      "섭": 2987,
      "섯": 2988,
      "섰": 2989,
      "성": 2990,
      "섲": 2991,
      "섴": 2992,
      "섶": 2993,
      "세": 2994,
      "섹": 2995,
      "센": 2996,
      "셀": 2997,
      "셈": 2998,
      "셉": 2999,
      "셋": 3000,
      "셌": 3001,
      "셍": 3002,
      "셒": 3003,
      "셔": 3004,
      "셕": 3005,
      "션": 3006,
      "셛": 3007,
      "셜": 3008,
      "셤": 3009,
      "셧": 3010,
      "셨": 3011,
      "셩": 3012,
      "셰": 3013,
      "셸": 3014,
      "솄": 3015,
      "소": 3016,
      "속": 3017,
      "솎": 3018,
      "손": 3019,
      "솓": 3020,
      "솔": 3021,
      "솜": 3022,
      "솝": 3023,
      "솟": 3024,
      "송": 3025,
      "솤": 3026,
      "솥": 3027,
      "솨": 3028,
      "솬": 3029,
      "솰": 3030,
      "솽": 3031,
      "쇄": 3032,
      "쇠": 3033,
      "쇨": 3034,
      "쇳": 3035,
      "쇻": 3036,
      "쇼": 3037,
      "쇽": 3038,
      "숀": 3039,
      "숄": 3040,
      "숍": 3041,
      "숏": 3042,
      "숑": 3043,
      "숖": 3044,
      "수": 3045,
      "숙": 3046,
      "순": 3047,
      "숟": 3048,
      "술": 3049,
      "숨": 3050,
      "숩": 3051,
      "숫": 3052,
      "숭": 3053,
      "숯": 3054,
      "숱": 3055,
      "숲": 3056,
      "숳": 3057,
      "숴": 3058,
      "숸": 3059,
      "숼": 3060,
      "쉅": 3061,
      "쉈": 3062,
      "쉐": 3063,
      "쉑": 3064,
      "쉘": 3065,
      "쉬": 3066,
      "쉰": 3067,
      "쉴": 3068,
      "쉼": 3069,
      "쉽": 3070,
      "쉿": 3071,
      "슈": 3072,
      "슉": 3073,
      "슐": 3074,
      "슘": 3075,
      "슛": 3076,
      "슝": 3077,
      "스": 3078,
      "슥": 3079,
      "슨": 3080,
      "슬": 3081,
      "슭": 3082,
      "슴": 3083,
      "습": 3084,
      "슶": 3085,
      "슷": 3086,
      "승": 3087,
      "슺": 3088,
      "슽": 3089,
      "싀": 3090,
      "싑": 3091,
      "시": 3092,
      "식": 3093,
      "싟": 3094,
      "신": 3095,
      "싢": 3096,
      "싣": 3097,
      "실": 3098,
      "싥": 3099,
      "싦": 3100,
      "싨": 3101,
      "싫": 3102,
      "심": 3103,
      "십": 3104,
      "싯": 3105,
      "싰": 3106,
      "싱": 3107,
      "싲": 3108,
      "싴": 3109,
      "싶": 3110,
      "싷": 3111,
      "싸": 3112,
      "싹": 3113,
      "싼": 3114,
      "쌀": 3115,
      "쌇": 3116,
      "쌈": 3117,
      "쌉": 3118,
      "쌋": 3119,
      "쌌": 3120,
      "쌍": 3121,
      "쌓": 3122,
      "쌔": 3123,
      "쌘": 3124,
      "쌜": 3125,
      "쌤": 3126,
      "쌥": 3127,
      "쌧": 3128,
      "쌩": 3129,
      "쌯": 3130,
      "쌰": 3131,
      "썅": 3132,
      "썜": 3133,
      "썡": 3134,
      "써": 3135,
      "썩": 3136,
      "썪": 3137,
      "썬": 3138,
      "썰": 3139,
      "썸": 3140,
      "썹": 3141,
      "썻": 3142,
      "썼": 3143,
      "썽": 3144,
      "쎄": 3145,
      "쎅": 3146,
      "쎈": 3147,
      "쎌": 3148,
      "쎕": 3149,
      "쎠": 3150,
      "쎤": 3151,
      "쎳": 3152,
      "쎴": 3153,
      "쏘": 3154,
      "쏙": 3155,
      "쏜": 3156,
      "쏟": 3157,
      "쏠": 3158,
      "쏨": 3159,
      "쏩": 3160,
      "쏫": 3161,
      "쏱": 3162,
      "쏳": 3163,
      "쏴": 3164,
      "쐇": 3165,
      "쐈": 3166,
      "쐐": 3167,
      "쐬": 3168,
      "쐴": 3169,
      "쑈": 3170,
      "쑤": 3171,
      "쑥": 3172,
      "쑨": 3173,
      "쑫": 3174,
      "쑬": 3175,
      "쒀": 3176,
      "쒸": 3177,
      "쓔": 3178,
      "쓰": 3179,
      "쓱": 3180,
      "쓴": 3181,
      "쓸": 3182,
      "씀": 3183,
      "씁": 3184,
      "씅": 3185,
      "씋": 3186,
      "씌": 3187,
      "씨": 3188,
      "씩": 3189,
      "씬": 3190,
      "씯": 3191,
      "씰": 3192,
      "씸": 3193,
      "씹": 3194,
      "씻": 3195,
      "씼": 3196,
      "씽": 3197,
      "앂": 3198,
      "아": 3199,
      "악": 3200,
      "안": 3201,
      "앉": 3202,
      "않": 3203,
      "앋": 3204,
      "알": 3205,
      "앎": 3206,
      "앓": 3207,
      "암": 3208,
      "압": 3209,
      "앖": 3210,
      "앗": 3211,
      "았": 3212,
      "앙": 3213,
      "앚": 3214,
      "앝": 3215,
      "앞": 3216,
      "앟": 3217,
      "애": 3218,
      "액": 3219,
      "앤": 3220,
      "앨": 3221,
      "앰": 3222,
      "앱": 3223,
      "앲": 3224,
      "앳": 3225,
      "앴": 3226,
      "앵": 3227,
      "야": 3228,
      "약": 3229,
      "앾": 3230,
      "얀": 3231,
      "얂": 3232,
      "얄": 3233,
      "얇": 3234,
      "얌": 3235,
      "얍": 3236,
      "얏": 3237,
      "얐": 3238,
      "양": 3239,
      "얕": 3240,
      "얗": 3241,
      "얘": 3242,
      "얙": 3243,
      "얩": 3244,
      "어": 3245,
      "억": 3246,
      "얶": 3247,
      "얷": 3248,
      "언": 3249,
      "얹": 3250,
      "얺": 3251,
      "얻": 3252,
      "얼": 3253,
      "얽": 3254,
      "얾": 3255,
      "엃": 3256,
      "엄": 3257,
      "업": 3258,
      "없": 3259,
      "엇": 3260,
      "었": 3261,
      "엉": 3262,
      "엊": 3263,
      "엌": 3264,
      "엎": 3265,
      "엏": 3266,
      "에": 3267,
      "엑": 3268,
      "엔": 3269,
      "엗": 3270,
      "엘": 3271,
      "엠": 3272,
      "엡": 3273,
      "엣": 3274,
      "엤": 3275,
      "엥": 3276,
      "엦": 3277,
      "여": 3278,
      "역": 3279,
      "엮": 3280,
      "연": 3281,
      "엳": 3282,
      "열": 3283,
      "엶": 3284,
      "엷": 3285,
      "염": 3286,
      "엽": 3287,
      "엾": 3288,
      "엿": 3289,
      "였": 3290,
      "영": 3291,
      "옂": 3292,
      "옃": 3293,
      "옄": 3294,
      "옅": 3295,
      "옆": 3296,
      "옇": 3297,
      "예": 3298,
      "옌": 3299,
      "옐": 3300,
      "옘": 3301,
      "옙": 3302,
      "옛": 3303,
      "옜": 3304,
      "옟": 3305,
      "오": 3306,
      "옥": 3307,
      "온": 3308,
      "올": 3309,
      "옭": 3310,
      "옮": 3311,
      "옯": 3312,
      "옰": 3313,
      "옳": 3314,
      "옴": 3315,
      "옵": 3316,
      "옶": 3317,
      "옷": 3318,
      "옸": 3319,
      "옹": 3320,
      "옻": 3321,
      "옿": 3322,
      "와": 3323,
      "왁": 3324,
      "완": 3325,
      "왈": 3326,
      "왐": 3327,
      "왑": 3328,
      "왓": 3329,
      "왔": 3330,
      "왕": 3331,
      "왜": 3332,
      "왝": 3333,
      "왠": 3334,
      "왭": 3335,
      "외": 3336,
      "왹": 3337,
      "왼": 3338,
      "욉": 3339,
      "욋": 3340,
      "욌": 3341,
      "욍": 3342,
      "요": 3343,
      "욕": 3344,
      "욗": 3345,
      "욘": 3346,
      "욜": 3347,
      "욤": 3348,
      "욥": 3349,
      "욧": 3350,
      "용": 3351,
      "욪": 3352,
      "욬": 3353,
      "욭": 3354,
      "욯": 3355,
      "우": 3356,
      "욱": 3357,
      "운": 3358,
      "욷": 3359,
      "울": 3360,
      "욺": 3361,
      "움": 3362,
      "웁": 3363,
      "웃": 3364,
      "웅": 3365,
      "웈": 3366,
      "웉": 3367,
      "워": 3368,
      "웍": 3369,
      "원": 3370,
      "웑": 3371,
      "웒": 3372,
      "월": 3373,
      "웜": 3374,
      "웝": 3375,
      "웟": 3376,
      "웠": 3377,
      "웡": 3378,
      "웥": 3379,
      "웨": 3380,
      "웩": 3381,
      "웬": 3382,
      "웰": 3383,
      "웹": 3384,
      "위": 3385,
      "윅": 3386,
      "윈": 3387,
      "윌": 3388,
      "윗": 3389,
      "윘": 3390,
      "윙": 3391,
      "유": 3392,
      "육": 3393,
      "윤": 3394,
      "율": 3395,
      "윰": 3396,
      "윱": 3397,
      "윳": 3398,
      "융": 3399,
      "으": 3400,
      "윽": 3401,
      "윾": 3402,
      "은": 3403,
      "읂": 3404,
      "읃": 3405,
      "을": 3406,
      "읅": 3407,
      "읆": 3408,
      "읇": 3409,
      "읊": 3410,
      "읋": 3411,
      "음": 3412,
      "읍": 3413,
      "읎": 3414,
      "읏": 3415,
      "응": 3416,
      "읕": 3417,
      "읖": 3418,
      "읗": 3419,
      "의": 3420,
      "읙": 3421,
      "읜": 3422,
      "읠": 3423,
      "읨": 3424,
      "읫": 3425,
      "읬": 3426,
      "이": 3427,
      "익": 3428,
      "읶": 3429,
      "인": 3430,
      "읹": 3431,
      "읺": 3432,
      "일": 3433,
      "읽": 3434,
      "읿": 3435,
      "잀": 3436,
      "잃": 3437,
      "임": 3438,
      "입": 3439,
      "잆": 3440,
      "잇": 3441,
      "있": 3442,
      "잉": 3443,
      "잊": 3444,
      "잋": 3445,
      "잌": 3446,
      "잍": 3447,
      "잎": 3448,
      "잏": 3449,
      "자": 3450,
      "작": 3451,
      "잔": 3452,
      "잖": 3453,
      "잗": 3454,
      "잘": 3455,
      "잚": 3456,
      "잛": 3457,
      "잜": 3458,
      "잠": 3459,
      "잡": 3460,
      "잢": 3461,
      "잣": 3462,
      "잤": 3463,
      "장": 3464,
      "잦": 3465,
      "잧": 3466,
      "잨": 3467,
      "잪": 3468,
      "재": 3469,
      "잭": 3470,
      "잰": 3471,
      "잴": 3472,
      "잼": 3473,
      "잽": 3474,
      "잿": 3475,
      "쟀": 3476,
      "쟁": 3477,
      "쟂": 3478,
      "쟈": 3479,
      "쟌": 3480,
      "쟎": 3481,
      "쟙": 3482,
      "쟝": 3483,
      "쟤": 3484,
      "저": 3485,
      "적": 3486,
      "전": 3487,
      "젅": 3488,
      "절": 3489,
      "젊": 3490,
      "젋": 3491,
      "젏": 3492,
      "점": 3493,
      "접": 3494,
      "젓": 3495,
      "젔": 3496,
      "정": 3497,
      "젖": 3498,
      "젘": 3499,
      "젛": 3500,
      "제": 3501,
      "젝": 3502,
      "젞": 3503,
      "젠": 3504,
      "젤": 3505,
      "젬": 3506,
      "젭": 3507,
      "젯": 3508,
      "젱": 3509,
      "져": 3510,
      "젹": 3511,
      "젼": 3512,
      "졀": 3513,
      "졉": 3514,
      "졋": 3515,
      "졌": 3516,
      "졍": 3517,
      "졓": 3518,
      "졔": 3519,
      "졘": 3520,
      "조": 3521,
      "족": 3522,
      "졳": 3523,
      "존": 3524,
      "졷": 3525,
      "졸": 3526,
      "좀": 3527,
      "좁": 3528,
      "좃": 3529,
      "좄": 3530,
      "종": 3531,
      "좆": 3532,
      "좇": 3533,
      "좋": 3534,
      "좌": 3535,
      "좍": 3536,
      "좐": 3537,
      "좔": 3538,
      "좨": 3539,
      "좽": 3540,
      "죄": 3541,
      "죅": 3542,
      "죈": 3543,
      "죌": 3544,
      "죔": 3545,
      "죕": 3546,
      "죗": 3547,
      "죙": 3548,
      "죚": 3549,
      "죠": 3550,
      "죳": 3551,
      "죵": 3552,
      "죹": 3553,
      "주": 3554,
      "죽": 3555,
      "준": 3556,
      "줄": 3557,
      "줌": 3558,
      "줍": 3559,
      "줏": 3560,
      "중": 3561,
      "줒": 3562,
      "줘": 3563,
      "줜": 3564,
      "줫": 3565,
      "줬": 3566,
      "줴": 3567,
      "쥐": 3568,
      "쥑": 3569,
      "쥔": 3570,
      "쥘": 3571,
      "쥣": 3572,
      "쥤": 3573,
      "쥬": 3574,
      "쥰": 3575,
      "쥴": 3576,
      "즁": 3577,
      "즈": 3578,
      "즉": 3579,
      "즌": 3580,
      "즐": 3581,
      "즘": 3582,
      "즙": 3583,
      "증": 3584,
      "즣": 3585,
      "즤": 3586,
      "즥": 3587,
      "즨": 3588,
      "즬": 3589,
      "즹": 3590,
      "지": 3591,
      "직": 3592,
      "진": 3593,
      "짇": 3594,
      "질": 3595,
      "짊": 3596,
      "짋": 3597,
      "짐": 3598,
      "집": 3599,
      "짒": 3600,
      "짓": 3601,
      "짔": 3602,
      "징": 3603,
      "짖": 3604,
      "짗": 3605,
      "짙": 3606,
      "짚": 3607,
      "짛": 3608,
      "짜": 3609,
      "짝": 3610,
      "짞": 3611,
      "짠": 3612,
      "짢": 3613,
      "짤": 3614,
      "짥": 3615,
      "짦": 3616,
      "짧": 3617,
      "짪": 3618,
      "짫": 3619,
      "짬": 3620,
      "짭": 3621,
      "짮": 3622,
      "짰": 3623,
      "짱": 3624,
      "짲": 3625,
      "째": 3626,
      "짹": 3627,
      "짼": 3628,
      "쨀": 3629,
      "쨉": 3630,
      "쨋": 3631,
      "쨌": 3632,
      "쨍": 3633,
      "쨓": 3634,
      "쨔": 3635,
      "쨩": 3636,
      "쨰": 3637,
      "쩃": 3638,
      "쩌": 3639,
      "쩍": 3640,
      "쩐": 3641,
      "쩔": 3642,
      "쩜": 3643,
      "쩝": 3644,
      "쩡": 3645,
      "쩧": 3646,
      "쩨": 3647,
      "쩻": 3648,
      "쪄": 3649,
      "쪕": 3650,
      "쪘": 3651,
      "쪼": 3652,
      "쪽": 3653,
      "쫀": 3654,
      "쫄": 3655,
      "쫌": 3656,
      "쫍": 3657,
      "쫏": 3658,
      "쫑": 3659,
      "쫒": 3660,
      "쫓": 3661,
      "쫗": 3662,
      "쫘": 3663,
      "쫙": 3664,
      "쫚": 3665,
      "쬐": 3666,
      "쬬": 3667,
      "쭈": 3668,
      "쭉": 3669,
      "쭐": 3670,
      "쭘": 3671,
      "쭙": 3672,
      "쭝": 3673,
      "쭞": 3674,
      "쭤": 3675,
      "쭸": 3676,
      "쮸": 3677,
      "쯔": 3678,
      "쯕": 3679,
      "쯤": 3680,
      "쯧": 3681,
      "쯩": 3682,
      "찌": 3683,
      "찍": 3684,
      "찎": 3685,
      "찐": 3686,
      "찔": 3687,
      "찗": 3688,
      "찛": 3689,
      "찜": 3690,
      "찝": 3691,
      "찟": 3692,
      "찡": 3693,
      "찢": 3694,
      "찣": 3695,
      "찤": 3696,
      "찧": 3697,
      "차": 3698,
      "착": 3699,
      "찬": 3700,
      "찮": 3701,
      "찯": 3702,
      "찰": 3703,
      "찱": 3704,
      "참": 3705,
      "찹": 3706,
      "찻": 3707,
      "찼": 3708,
      "창": 3709,
      "찾": 3710,
      "찿": 3711,
      "채": 3712,
      "책": 3713,
      "챈": 3714,
      "챌": 3715,
      "챔": 3716,
      "챕": 3717,
      "챗": 3718,
      "챘": 3719,
      "챙": 3720,
      "챠": 3721,
      "챡": 3722,
      "챦": 3723,
      "챨": 3724,
      "챵": 3725,
      "처": 3726,
      "척": 3727,
      "천": 3728,
      "첞": 3729,
      "첟": 3730,
      "철": 3731,
      "첢": 3732,
      "첧": 3733,
      "첨": 3734,
      "첩": 3735,
      "첫": 3736,
      "첬": 3737,
      "청": 3738,
      "첮": 3739,
      "첯": 3740,
      "첱": 3741,
      "체": 3742,
      "첵": 3743,
      "첸": 3744,
      "첼": 3745,
      "쳄": 3746,
      "쳇": 3747,
      "쳉": 3748,
      "쳐": 3749,
      "쳑": 3750,
      "쳔": 3751,
      "쳘": 3752,
      "쳣": 3753,
      "쳤": 3754,
      "쳥": 3755,
      "쳬": 3756,
      "초": 3757,
      "촉": 3758,
      "촌": 3759,
      "촐": 3760,
      "촘": 3761,
      "촛": 3762,
      "총": 3763,
      "촞": 3764,
      "촟": 3765,
      "촣": 3766,
      "촤": 3767,
      "촬": 3768,
      "최": 3769,
      "쵤": 3770,
      "쵸": 3771,
      "춏": 3772,
      "추": 3773,
      "축": 3774,
      "춘": 3775,
      "출": 3776,
      "춣": 3777,
      "춤": 3778,
      "춥": 3779,
      "춧": 3780,
      "충": 3781,
      "춪": 3782,
      "춯": 3783,
      "춰": 3784,
      "췄": 3785,
      "췌": 3786,
      "취": 3787,
      "췩": 3788,
      "췬": 3789,
      "췼": 3790,
      "츄": 3791,
      "츅": 3792,
      "츌": 3793,
      "츠": 3794,
      "측": 3795,
      "츤": 3796,
      "츨": 3797,
      "츰": 3798,
      "층": 3799,
      "츼": 3800,
      "칀": 3801,
      "치": 3802,
      "칙": 3803,
      "친": 3804,
      "칠": 3805,
      "칡": 3806,
      "침": 3807,
      "칩": 3808,
      "칫": 3809,
      "칭": 3810,
      "칮": 3811,
      "칲": 3812,
      "카": 3813,
      "칵": 3814,
      "칸": 3815,
      "칼": 3816,
      "캄": 3817,
      "캅": 3818,
      "캉": 3819,
      "캍": 3820,
      "캐": 3821,
      "캔": 3822,
      "캘": 3823,
      "캠": 3824,
      "캡": 3825,
      "캣": 3826,
      "캥": 3827,
      "캬": 3828,
      "캭": 3829,
      "컈": 3830,
      "커": 3831,
      "컥": 3832,
      "컨": 3833,
      "컫": 3834,
      "컬": 3835,
      "컴": 3836,
      "컵": 3837,
      "컷": 3838,
      "컸": 3839,
      "컹": 3840,
      "컽": 3841,
      "케": 3842,
      "켁": 3843,
      "켄": 3844,
      "켈": 3845,
      "켐": 3846,
      "켑": 3847,
      "켓": 3848,
      "켔": 3849,
      "켕": 3850,
      "켚": 3851,
      "켛": 3852,
      "켜": 3853,
      "켝": 3854,
      "켞": 3855,
      "켠": 3856,
      "켤": 3857,
      "켬": 3858,
      "켭": 3859,
      "켯": 3860,
      "켰": 3861,
      "켱": 3862,
      "켷": 3863,
      "켸": 3864,
      "코": 3865,
      "콕": 3866,
      "콘": 3867,
      "콜": 3868,
      "콝": 3869,
      "콤": 3870,
      "콥": 3871,
      "콧": 3872,
      "콩": 3873,
      "콰": 3874,
      "콱": 3875,
      "콴": 3876,
      "콸": 3877,
      "쾅": 3878,
      "쾈": 3879,
      "쾌": 3880,
      "쾰": 3881,
      "쿄": 3882,
      "쿌": 3883,
      "쿠": 3884,
      "쿡": 3885,
      "쿤": 3886,
      "쿨": 3887,
      "쿰": 3888,
      "쿱": 3889,
      "쿵": 3890,
      "쿼": 3891,
      "쿽": 3892,
      "퀀": 3893,
      "퀄": 3894,
      "퀘": 3895,
      "퀴": 3896,
      "퀵": 3897,
      "퀸": 3898,
      "퀼": 3899,
      "큄": 3900,
      "큐": 3901,
      "큘": 3902,
      "크": 3903,
      "큭": 3904,
      "큰": 3905,
      "클": 3906,
      "큼": 3907,
      "큽": 3908,
      "킁": 3909,
      "킄": 3910,
      "킅": 3911,
      "킝": 3912,
      "키": 3913,
      "킥": 3914,
      "킨": 3915,
      "킬": 3916,
      "킴": 3917,
      "킵": 3918,
      "킷": 3919,
      "킹": 3920,
      "타": 3921,
      "탁": 3922,
      "탄": 3923,
      "탇": 3924,
      "탈": 3925,
      "탉": 3926,
      "탐": 3927,
      "탑": 3928,
      "탓": 3929,
      "탔": 3930,
      "탕": 3931,
      "탘": 3932,
      "탚": 3933,
      "태": 3934,
      "택": 3935,
      "탠": 3936,
      "탣": 3937,
      "탤": 3938,
      "탬": 3939,
      "탭": 3940,
      "탯": 3941,
      "탰": 3942,
      "탱": 3943,
      "탴": 3944,
      "탸": 3945,
      "탹": 3946,
      "탼": 3947,
      "턔": 3948,
      "턕": 3949,
      "터": 3950,
      "턱": 3951,
      "턴": 3952,
      "털": 3953,
      "텀": 3954,
      "텁": 3955,
      "텃": 3956,
      "텄": 3957,
      "텅": 3958,
      "텆": 3959,
      "텋": 3960,
      "테": 3961,
      "텍": 3962,
      "텐": 3963,
      "텔": 3964,
      "템": 3965,
      "텝": 3966,
      "텟": 3967,
      "텡": 3968,
      "텨": 3969,
      "텻": 3970,
      "텼": 3971,
      "텽": 3972,
      "톄": 3973,
      "톈": 3974,
      "토": 3975,
      "톡": 3976,
      "톤": 3977,
      "톨": 3978,
      "톰": 3979,
      "톱": 3980,
      "톳": 3981,
      "통": 3982,
      "톻": 3983,
      "톼": 3984,
      "퇘": 3985,
      "퇴": 3986,
      "퇸": 3987,
      "툐": 3988,
      "툥": 3989,
      "투": 3990,
      "툭": 3991,
      "툰": 3992,
      "툴": 3993,
      "툻": 3994,
      "툼": 3995,
      "툽": 3996,
      "퉁": 3997,
      "퉈": 3998,
      "퉐": 3999,
      "퉜": 4000,
      "퉤": 4001,
      "퉷": 4002,
      "튀": 4003,
      "튄": 4004,
      "튈": 4005,
      "튔": 4006,
      "튕": 4007,
      "튜": 4008,
      "튤": 4009,
      "튬": 4010,
      "트": 4011,
      "특": 4012,
      "튼": 4013,
      "튿": 4014,
      "틀": 4015,
      "틈": 4016,
      "틉": 4017,
      "틋": 4018,
      "틍": 4019,
      "틑": 4020,
      "틔": 4021,
      "티": 4022,
      "틱": 4023,
      "틴": 4024,
      "틸": 4025,
      "팀": 4026,
      "팁": 4027,
      "팅": 4028,
      "파": 4029,
      "팍": 4030,
      "팎": 4031,
      "판": 4032,
      "팔": 4033,
      "팛": 4034,
      "팜": 4035,
      "팝": 4036,
      "팟": 4037,
      "팠": 4038,
      "팡": 4039,
      "팥": 4040,
      "팦": 4041,
      "패": 4042,
      "팩": 4043,
      "팬": 4044,
      "팰": 4045,
      "팸": 4046,
      "팻": 4047,
      "팼": 4048,
      "팽": 4049,
      "퍄": 4050,
      "퍈": 4051,
      "퍠": 4052,
      "퍡": 4053,
      "퍤": 4054,
      "퍼": 4055,
      "퍽": 4056,
      "펀": 4057,
      "펄": 4058,
      "펌": 4059,
      "펍": 4060,
      "펐": 4061,
      "펑": 4062,
      "페": 4063,
      "펙": 4064,
      "펜": 4065,
      "펠": 4066,
      "펨": 4067,
      "펫": 4068,
      "펭": 4069,
      "펴": 4070,
      "편": 4071,
      "펼": 4072,
      "폄": 4073,
      "폅": 4074,
      "폇": 4075,
      "폈": 4076,
      "평": 4077,
      "폍": 4078,
      "폐": 4079,
      "폑": 4080,
      "포": 4081,
      "폭": 4082,
      "폰": 4083,
      "폳": 4084,
      "폴": 4085,
      "폼": 4086,
      "퐁": 4087,
      "퐐": 4088,
      "푀": 4089,
      "표": 4090,
      "푝": 4091,
      "푠": 4092,
      "푯": 4093,
      "푶": 4094,
      "푸": 4095,
      "푹": 4096,
      "푼": 4097,
      "풀": 4098,
      "품": 4099,
      "풉": 4100,
      "풋": 4101,
      "풍": 4102,
      "퓌": 4103,
      "퓨": 4104,
      "퓰": 4105,
      "퓸": 4106,
      "퓹": 4107,
      "프": 4108,
      "픈": 4109,
      "플": 4110,
      "픔": 4111,
      "픕": 4112,
      "픙": 4113,
      "피": 4114,
      "픽": 4115,
      "핀": 4116,
      "필": 4117,
      "핌": 4118,
      "핍": 4119,
      "핏": 4120,
      "핑": 4121,
      "하": 4122,
      "학": 4123,
      "핛": 4124,
      "한": 4125,
      "핞": 4126,
      "핟": 4127,
      "할": 4128,
      "핡": 4129,
      "핢": 4130,
      "핤": 4131,
      "핥": 4132,
      "핦": 4133,
      "핧": 4134,
      "함": 4135,
      "합": 4136,
      "핪": 4137,
      "핫": 4138,
      "핬": 4139,
      "항": 4140,
      "핮": 4141,
      "핱": 4142,
      "핲": 4143,
      "핳": 4144,
      "해": 4145,
      "핵": 4146,
      "핸": 4147,
      "핻": 4148,
      "핼": 4149,
      "햄": 4150,
      "햅": 4151,
      "햇": 4152,
      "했": 4153,
      "행": 4154,
      "햊": 4155,
      "햋": 4156,
      "햍": 4157,
      "햏": 4158,
      "햐": 4159,
      "햑": 4160,
      "햔": 4161,
      "햘": 4162,
      "햝": 4163,
      "햠": 4164,
      "햡": 4165,
      "햤": 4166,
      "향": 4167,
      "햬": 4168,
      "햿": 4169,
      "헀": 4170,
      "헁": 4171,
      "허": 4172,
      "헉": 4173,
      "헌": 4174,
      "헏": 4175,
      "헐": 4176,
      "험": 4177,
      "헙": 4178,
      "헛": 4179,
      "헜": 4180,
      "헝": 4181,
      "헡": 4182,
      "헣": 4183,
      "헤": 4184,
      "헥": 4185,
      "헨": 4186,
      "헬": 4187,
      "헷": 4188,
      "헸": 4189,
      "헹": 4190,
      "혀": 4191,
      "혁": 4192,
      "현": 4193,
      "혅": 4194,
      "혈": 4195,
      "혐": 4196,
      "협": 4197,
      "혓": 4198,
      "혔": 4199,
      "형": 4200,
      "혜": 4201,
      "혤": 4202,
      "혱": 4203,
      "호": 4204,
      "혹": 4205,
      "혼": 4206,
      "홀": 4207,
      "홇": 4208,
      "홈": 4209,
      "홉": 4210,
      "홋": 4211,
      "홍": 4212,
      "홑": 4213,
      "화": 4214,
      "확": 4215,
      "환": 4216,
      "활": 4217,
      "홤": 4218,
      "홥": 4219,
      "홧": 4220,
      "황": 4221,
      "홯": 4222,
      "홰": 4223,
      "횃": 4224,
      "횅": 4225,
      "회": 4226,
      "획": 4227,
      "횐": 4228,
      "횔": 4229,
      "횟": 4230,
      "횡": 4231,
      "횢": 4232,
      "효": 4233,
      "횽": 4234,
      "후": 4235,
      "훅": 4236,
      "훈": 4237,
      "훉": 4238,
      "훌": 4239,
      "훑": 4240,
      "훓": 4241,
      "훔": 4242,
      "훗": 4243,
      "훙": 4244,
      "훠": 4245,
      "훤": 4246,
      "훨": 4247,
      "훰": 4248,
      "훵": 4249,
      "훼": 4250,
      "휀": 4251,
      "휄": 4252,
      "휑": 4253,
      "휘": 4254,
      "휙": 4255,
      "휜": 4256,
      "휠": 4257,
      "휨": 4258,
      "휩": 4259,
      "휭": 4260,
      "휴": 4261,
      "휵": 4262,
      "휼": 4263,
      "흄": 4264,
      "흉": 4265,
      "흐": 4266,
      "흑": 4267,
      "흔": 4268,
      "흗": 4269,
      "흘": 4270,
      "흙": 4271,
      "흠": 4272,
      "흡": 4273,
      "흥": 4274,
      "흩": 4275,
      "흪": 4276,
      "흫": 4277,
      "희": 4278,
      "흭": 4279,
      "흰": 4280,
      "흳": 4281,
      "흴": 4282,
      "히": 4283,
      "힉": 4284,
      "힌": 4285,
      "힐": 4286,
      "힑": 4287,
      "힘": 4288,
      "힙": 4289,
      "힜": 4290,
      "힝": 4291,
      "힢": 4292,
      "ힹ": 4293,
      "퟇": 4294,
      "": 4295,
      "": 4296,
      "": 4297,
      "": 4298,
      "": 4299,
      "": 4300,
      "": 4301,
      "": 4302,
      "": 4303,
      "": 4304,
      "": 4305,
      "": 4306,
      "": 4307,
      "": 4308,
      "": 4309,
      "": 4310,
      "": 4311,
      "": 4312,
      "": 4313,
      "": 4314,
      "更": 4315,
      "車": 4316,
      "金": 4317,
      "羅": 4318,
      "樂": 4319,
      "落": 4320,
      "浪": 4321,
      "勞": 4322,
      "爐": 4323,
      "盧": 4324,
      "老": 4325,
      "露": 4326,
      "祿": 4327,
      "論": 4328,
      "陋": 4329,
      "樂": 4330,
      "北": 4331,
      "不": 4332,
      "沈": 4333,
      "兩": 4334,
      "良": 4335,
      "女": 4336,
      "年": 4337,
      "連": 4338,
      "烈": 4339,
      "怜": 4340,
      "領": 4341,
      "惡": 4342,
      "龍": 4343,
      "柳": 4344,
      "六": 4345,
      "利": 4346,
      "李": 4347,
      "理": 4348,
      "離": 4349,
      "隣": 4350,
      "立": 4351,
      "茶": 4352,
      "️": 4353,
      "﹡": 4354,
      "﻿": 4355,
      "！": 4356,
      "＂": 4357,
      "＃": 4358,
      "％": 4359,
      "＆": 4360,
      "（": 4361,
      "）": 4362,
      "＊": 4363,
      "，": 4364,
      "１": 4365,
      "：": 4366,
      "；": 4367,
      "＜": 4368,
      "＞": 4369,
      "？": 4370,
      "Ｘ": 4371,
      "［": 4372,
      "］": 4373,
      "ｍ": 4374,
      "～": 4375,
      "｢": 4376,
      "｣": 4377,
      "･": 4378,
      "￦": 4379,
      "￭": 4380,
      "￮": 4381,
      "￼": 4382,
      "𖤐": 4383,
      "🇰": 4384,
      "🇵": 4385,
      "🇷": 4386,
      "🌋": 4387,
      "🌏": 4388,
      "🌞": 4389,
      "🌟": 4390,
      "🌶": 4391,
      "🍀": 4392,
      "🍁": 4393,
      "🍌": 4394,
      "🍠": 4395,
      "🎅": 4396,
      "🎈": 4397,
      "🎎": 4398,
      "🎵": 4399,
      "🎶": 4400,
      "🏓": 4401,
      "🏻": 4402,
      "🏼": 4403,
      "🏿": 4404,
      "🐕": 4405,
      "🐱": 4406,
      "🐶": 4407,
      "👈": 4408,
      "👉": 4409,
      "👊": 4410,
      "👍": 4411,
      "👎": 4412,
      "👦": 4413,
      "👧": 4414,
      "👨": 4415,
      "👩": 4416,
      "👴": 4417,
      "👵": 4418,
      "👹": 4419,
      "👿": 4420,
      "💑": 4421,
      "💔": 4422,
      "💖": 4423,
      "💚": 4424,
      "💛": 4425,
      "💜": 4426,
      "💡": 4427,
      "💥": 4428,
      "💩": 4429,
      "💻": 4430,
      "📛": 4431,
      "🔊": 4432,
      "🔥": 4433,
      "🔴": 4434,
      "🔵": 4435,
      "🕑": 4436,
      "🕚": 4437,
      "🕯": 4438,
      "🕹": 4439,
      "🖕": 4440,
      "😁": 4441,
      "😂": 4442,
      "😃": 4443,
      "😄": 4444,
      "😆": 4445,
      "😉": 4446,
      "😊": 4447,
      "😐": 4448,
      "😖": 4449,
      "😘": 4450,
      "😞": 4451,
      "😠": 4452,
      "😡": 4453,
      "😣": 4454,
      "😤": 4455,
      "😥": 4456,
      "😧": 4457,
      "😩": 4458,
      "😫": 4459,
      "😭": 4460,
      "😰": 4461,
      "😱": 4462,
      "😵": 4463,
      "🙂": 4464,
      "🙄": 4465,
      "🙏": 4466,
      "🚉": 4467,
      "🚋": 4468,
      "🚨": 4469,
      "🚫": 4470,
      "🛑": 4471,
      "🤗": 4472,
      "🤝": 4473,
      "🤧": 4474,
      "🤬": 4475,
      "🤮": 4476,
      "🤰": 4477,
      "🤱": 4478,
      "🤹": 4479,
      "🥝": 4480,
      "🧓": 4481,
      "🧥": 4482,
      "󰊱": 4483,
      "󰊲": 4484,
      "󰊳": 4485,
      "󰊴": 4486,
      "󰊵": 4487,
      "󰠛": 4488,
      "󰡐": 4489,
      "󰡑": 4490,
      "󰡒": 4491,
      "󰡓": 4492,
      "##출": 4493,
      "##보": 4494,
      "##다": 4495,
      "##기": 4496,
      "##에": 4497,
      "##타": 4498,
      "##시": 4499,
      "##위": 4500,
      "##해": 4501,
      "##논": 4502,
      "##쟁": 4503,
      "##으": 4504,
      "##로": 4505,
      "##입": 4506,
      "##을": 4507,
      "##하": 4508,
      "##여": 4509,
      "##인": 4510,
      "##주": 4511,
      "##민": 4512,
      "##어": 4513,
      "##느": 4514,
      "##택": 4515,
      "##안": 4516,
      "##되": 4517,
      "##고": 4518,
      "##스": 4519,
      "##토": 4520,
      "##랑": 4521,
      "##독": 4522,
      "##자": 4523,
      "##없": 4524,
      "##는": 4525,
      "##반": 4526,
      "##의": 4527,
      "##혼": 4528,
      "##숙": 4529,
      "##려": 4530,
      "##간": 4531,
      "##란": 4532,
      "##용": 4533,
      "##할": 4534,
      "##수": 4535,
      "##있": 4536,
      "##도": 4537,
      "##록": 4538,
      "##세": 4539,
      "##틸": 4540,
      "##렌": 4541,
      "##렬": 4542,
      "##먹": 4543,
      "##엇": 4544,
      "##데": 4545,
      "##아": 4546,
      "##지": 4547,
      "##나": 4548,
      "##요": 4549,
      "##진": 4550,
      "##익": 4551,
      "##제": 4552,
      "##가": 4553,
      "##접": 4554,
      "##준": 4555,
      "##셨": 4556,
      "##네": 4557,
      "##박": 4558,
      "##북": 4559,
      "##사": 4560,
      "##업": 4561,
      "##를": 4562,
      "##게": 4563,
      "##품": 4564,
      "##이": 4565,
      "##라": 4566,
      "##포": 4567,
      "##만": 4568,
      "##액": 4569,
      "##환": 4570,
      "##실": 4571,
      "##결": 4572,
      "##증": 4573,
      "##리": 4574,
      "##들": 4575,
      "##부": 4576,
      "##었": 4577,
      "##면": 4578,
      "##형": 4579,
      "##참": 4580,
      "##글": 4581,
      "##내": 4582,
      "##방": 4583,
      "##법": 4584,
      "##밖": 4585,
      "##장": 4586,
      "##년": 4587,
      "##은": 4588,
      "##녀": 4589,
      "##올": 4590,
      "##대": 4591,
      "##학": 4592,
      "##병": 4593,
      "##원": 4594,
      "##서": 4595,
      "##드": 4596,
      "##냐": 4597,
      "##거": 4598,
      "##죠": 4599,
      "##0": 4600,
      "##개": 4601,
      "##피": 4602,
      "##생": 4603,
      "##활": 4604,
      "##회": 4605,
      "##계": 4606,
      "##폭": 4607,
      "##력": 4608,
      "##상": 4609,
      "##담": 4610,
      "##소": 4611,
      "##받": 4612,
      "##꺼": 4613,
      "##같": 4614,
      "##습": 4615,
      "##니": 4616,
      "##배": 4617,
      "##천": 4618,
      "##권": 4619,
      "##뿐": 4620,
      "##였": 4621,
      "##질": 4622,
      "##득": 4623,
      "##예": 4624,
      "##산": 4625,
      "##절": 4626,
      "##약": 4627,
      "##적": 4628,
      "##립": 4629,
      "##금": 4630,
      "##구": 4631,
      "##건": 4632,
      "##흥": 4633,
      "##영": 4634,
      "##별": 4635,
      "##관": 4636,
      "##퇴": 4637,
      "##린": 4638,
      "##것": 4639,
      "##둘": 4640,
      "##때": 4641,
      "##뎌": 4642,
      "##야": 4643,
      "##물": 4644,
      "##죄": 4645,
      "##봉": 4646,
      "##정": 4647,
      "##백": 4648,
      "##달": 4649,
      "##등": 4650,
      "##공": 4651,
      "##전": 4652,
      "##말": 4653,
      "##르": 4654,
      "##련": 4655,
      "##4": 4656,
      "##1": 4657,
      "##8": 4658,
      "##명": 4659,
      "##탁": 4660,
      "##한": 4661,
      "##7": 4662,
      "##큽": 4663,
      "##된": 4664,
      "##유": 4665,
      "##국": 4666,
      "##당": 4667,
      "##모": 4668,
      "##두": 4669,
      "##께": 4670,
      "##색": 4671,
      "##했": 4672,
      "##6": 4673,
      "##터": 4674,
      "##족": 4675,
      "##분": 4676,
      "##겨": 4677,
      "##3": 4678,
      "##5": 4679,
      "##m": 4680,
      "##싶": 4681,
      "##마": 4682,
      "##씬": 4683,
      "##격": 4684,
      "##낮": 4685,
      "##처": 4686,
      "##히": 4687,
      "##죽": 4688,
      "##교": 4689,
      "##까": 4690,
      "##트": 4691,
      "##뜩": 4692,
      "##페": 4693,
      "##미": 4694,
      "##욕": 4695,
      "##며": 4696,
      "##;": 4697,
      "##.": 4698,
      "##함": 4699,
      "##갔": 4700,
      "##밝": 4701,
      "##혔": 4702,
      "##론": 4703,
      "##강": 4704,
      "##험": 4705,
      "##과": 4706,
      "##돈": 4707,
      "##종": 4708,
      "##괴": 4709,
      "##켜": 4710,
      "##놓": 4711,
      "##행": 4712,
      "##체": 4713,
      "##슬": 4714,
      "##털": 4715,
      "##툼": 4716,
      "##래": 4717,
      "##책": 4718,
      "##답": 4719,
      "##태": 4720,
      "##십": 4721,
      "##확": 4722,
      "##신": 4723,
      "##후": 4724,
      "##X": 4725,
      "##류": 4726,
      "##o": 4727,
      "##g": 4728,
      "##i": 4729,
      "##n": 4730,
      "##J": 4731,
      "##희": 4732,
      "##딸": 4733,
      "##동": 4734,
      "##망": 4735,
      "##급": 4736,
      "##오": 4737,
      "##았": 4738,
      "##던": 4739,
      "##혀": 4740,
      "##난": 4741,
      "##버": 4742,
      "##능": 4743,
      "##떨": 4744,
      "##취": 4745,
      "##성": 4746,
      "##평": 4747,
      "##일": 4748,
      "##써": 4749,
      "##2": 4750,
      "##님": 4751,
      "##황": 4752,
      "##러": 4753,
      "##울": 4754,
      "##짜": 4755,
      "##우": 4756,
      "##월": 4757,
      "##조": 4758,
      "##작": 4759,
      "##바": 4760,
      "##V": 4761,
      "##r": 4762,
      "##온": 4763,
      "##럼": 4764,
      "##번": 4765,
      "##치": 4766,
      "##응": 4767,
      "##합": 4768,
      "##임": 4769,
      "##겠": 4770,
      "##발": 4771,
      "##근": 4772,
      "##풀": 4773,
      "##짓": 4774,
      "##술": 4775,
      "##채": 4776,
      "##선": 4777,
      "##각": 4778,
      "##경": 4779,
      "##쯤": 4780,
      "##9": 4781,
      "##료": 4782,
      "##않": 4783,
      "##엄": 4784,
      "##좀": 4785,
      "##차": 4786,
      "##애": 4787,
      "##ㅔ": 4788,
      "##왕": 4789,
      "##재": 4790,
      "##통": 4791,
      "##점": 4792,
      "##억": 4793,
      "##잔": 4794,
      "##속": 4795,
      "##레": 4796,
      "##노": 4797,
      "##퍼": 4798,
      "##갑": 4799,
      "##매": 4800,
      "##획": 4801,
      "##집": 4802,
      "##혜": 4803,
      "##와": 4804,
      "##겼": 4805,
      "##휴": 4806,
      "##직": 4807,
      "##른": 4808,
      "##골": 4809,
      "##불": 4810,
      "##혁": 4811,
      "##비": 4812,
      "##칙": 4813,
      "##룹": 4814,
      "##홈": 4815,
      "##△": 4816,
      "##승": 4817,
      "##씨": 4818,
      "##군": 4819,
      "##음": 4820,
      "##악": 4821,
      "##냥": 4822,
      "##변": 4823,
      "##운": 4824,
      "##벌": 4825,
      "##초": 4826,
      "##범": 4827,
      "##쓰": 4828,
      "##셔": 4829,
      "##릭": 4830,
      "##혐": 4831,
      "##덕": 4832,
      "##씀": 4833,
      "##넷": 4834,
      "##키": 4835,
      "##졸": 4836,
      "##감": 4837,
      "##길": 4838,
      "##송": 4839,
      "##폐": 4840,
      "##찌": 4841,
      "##남": 4842,
      "##무": 4843,
      "##축": 4844,
      "##됐": 4845,
      "##볼": 4846,
      "##더": 4847,
      "##첩": 4848,
      "##호": 4849,
      "##좌": 4850,
      "##젠": 4851,
      "##테": 4852,
      "##션": 4853,
      "##텝": 4854,
      "##든": 4855,
      "##져": 4856,
      "##걸": 4857,
      "##화": 4858,
      "##역": 4859,
      "##필": 4860,
      "##청": 4861,
      "##또": 4862,
      "##끼": 4863,
      "##복": 4864,
      "##판": 4865,
      "##편": 4866,
      "##연": 4867,
      "##랙": 4868,
      "##둔": 4869,
      "##떻": 4870,
      "##줄": 4871,
      "##딴": 4872,
      "##식": 4873,
      "##닌": 4874,
      "##투": 4875,
      "##순": 4876,
      "##듯": 4877,
      "##단": 4878,
      "##워": 4879,
      "##렉": 4880,
      "##귀": 4881,
      "##렀": 4882,
      "##읍": 4883,
      "##M": 4884,
      "##O": 4885,
      "##령": 4886,
      "##머": 4887,
      "##벽": 4888,
      "##너": 4889,
      "##봅": 4890,
      "##침": 4891,
      "##중": 4892,
      "##째": 4893,
      "##랐": 4894,
      "##육": 4895,
      "##뛰": 4896,
      "##람": 4897,
      "##랍": 4898,
      "##찬": 4899,
      "##왔": 4900,
      "##닐": 4901,
      "##문": 4902,
      "##움": 4903,
      "##쳤": 4904,
      "##슷": 4905,
      "##딩": 4906,
      "##찮": 4907,
      "##댔": 4908,
      "##디": 4909,
      "##양": 4910,
      "##칼": 4911,
      "##림": 4912,
      "##ㆍ": 4913,
      "##졌": 4914,
      "##못": 4915,
      "##늘": 4916,
      "##밸": 4917,
      "##컫": 4918,
      "##*": 4919,
      "##렵": 4920,
      "##락": 4921,
      "##봐": 4922,
      "##율": 4923,
      "##값": 4924,
      "##케": 4925,
      "##런": 4926,
      "##파": 4927,
      "##측": 4928,
      "##끝": 4929,
      "##석": 4930,
      "##메": 4931,
      "##렸": 4932,
      "##옵": 4933,
      "##열": 4934,
      "##표": 4935,
      "##밟": 4936,
      "##납": 4937,
      "##설": 4938,
      "##팀": 4939,
      "##킵": 4940,
      "##랏": 4941,
      "##심": 4942,
      "##븐": 4943,
      "##외": 4944,
      "##읽": 4945,
      "##날": 4946,
      "##풍": 4947,
      "##존": 4948,
      "##닮": 4949,
      "##괼": 4950,
      "##겁": 4951,
      "##막": 4952,
      "##먼": 4953,
      "##멈": 4954,
      "##추": 4955,
      "##농": 4956,
      "##객": 4957,
      "##깐": 4958,
      "##l": 4959,
      "##검": 4960,
      "##핀": 4961,
      "##브": 4962,
      "##저": 4963,
      "##알": 4964,
      "##될": 4965,
      "##킬": 4966,
      "##갱": 4967,
      "##광": 4968,
      "##c": 4969,
      "##쪽": 4970,
      "##맹": 4971,
      "##킹": 4972,
      "##씩": 4973,
      "##w": 4974,
      "##I": 4975,
      "##S": 4976,
      "##A": 4977,
      "##략": 4978,
      "##률": 4979,
      "##압": 4980,
      "##붓": 4981,
      "##본": 4982,
      "##褒": 4983,
      "##잖": 4984,
      "##촉": 4985,
      "##베": 4986,
      "##ㅡ": 4987,
      "##돼": 4988,
      "##얼": 4989,
      "##굴": 4990,
      "##탄": 4991,
      "##k": 4992,
      "##e": 4993,
      "##t": 4994,
      "##s": 4995,
      "##힐": 4996,
      "##릴": 4997,
      "##따": 4998,
      "##싸": 4999,
      "##엘": 5000,
      "##허": 5001,
      "##곡": 5002,
      "##살": 5003,
      "##캐": 5004,
      "##륙": 5005,
      "##갈": 5006,
      "##왁": 5007,
      "##윈": 5008,
      "##효": 5009,
      "##p": 5010,
      "##흡": 5011,
      "##김": 5012,
      "##빠": 5013,
      "##됩": 5014,
      "##티": 5015,
      "##름": 5016,
      "##꾼": 5017,
      "##혹": 5018,
      "##꺽": 5019,
      "##헌": 5020,
      "##프": 5021,
      "##언": 5022,
      "##돌": 5023,
      "##암": 5024,
      "##철": 5025,
      "##낄": 5026,
      "##큼": 5027,
      "##y": 5028,
      "##_": 5029,
      "##d": 5030,
      "##쇄": 5031,
      "##손": 5032,
      "##펴": 5033,
      "##봤": 5034,
      "##융": 5035,
      "##끌": 5036,
      "##뺏": 5037,
      "##앞": 5038,
      "##특": 5039,
      "##그": 5040,
      "##램": 5041,
      "##맞": 5042,
      "##숨": 5043,
      "##템": 5044,
      "##균": 5045,
      "##럴": 5046,
      "##u": 5047,
      "##크": 5048,
      "##높": 5049,
      "##홍": 5050,
      "##센": 5051,
      "##총": 5052,
      "##충": 5053,
      "##카": 5054,
      "##텔": 5055,
      "##쳐": 5056,
      "##낭": 5057,
      "##목": 5058,
      "##렛": 5059,
      "##협": 5060,
      "##a": 5061,
      "##b": 5062,
      "##벤": 5063,
      "##켓": 5064,
      "##깍": 5065,
      "##낍": 5066,
      "##겟": 5067,
      "##캠": 5068,
      "##창": 5069,
      "##겄": 5070,
      "##킨": 5071,
      "##ᆢ": 5072,
      "##최": 5073,
      "##델": 5074,
      "##옴": 5075,
      "##현": 5076,
      "##f": 5077,
      "##뢰": 5078,
      "##v": 5079,
      "##E": 5080,
      "##C": 5081,
      "##D": 5082,
      "##ㅇ": 5083,
      "##밀": 5084,
      "##널": 5085,
      "##잘": 5086,
      "##뽑": 5087,
      "##찰": 5088,
      "##뚱": 5089,
      "##z": 5090,
      "##쁘": 5091,
      "##및": 5092,
      "##낸": 5093,
      "##완": 5094,
      "##몰": 5095,
      "##봄": 5096,
      "##넘": 5097,
      "##견": 5098,
      "##틴": 5099,
      "##춘": 5100,
      "##곳": 5101,
      "##코": 5102,
      "##묵": 5103,
      "##횅": 5104,
      "##폰": 5105,
      "##났": 5106,
      "##닙": 5107,
      "##푸": 5108,
      "##뀌": 5109,
      "##츠": 5110,
      "##렇": 5111,
      "##뀔": 5112,
      "##!": 5113,
      "##붙": 5114,
      "##닿": 5115,
      "##컵": 5116,
      "##향": 5117,
      "##즘": 5118,
      "##닝": 5119,
      "##항": 5120,
      "##칭": 5121,
      "##좋": 5122,
      "##웁": 5123,
      "##팅": 5124,
      "##잡": 5125,
      "##잠": 5126,
      "##탈": 5127,
      "##헥": 5128,
      "##‘": 5129,
      "##떤": 5130,
      "##칠": 5131,
      "##릇": 5132,
      "##빌": 5133,
      "##규": 5134,
      "##꾸": 5135,
      "##몬": 5136,
      "##솜": 5137,
      "##N": 5138,
      "##빅": 5139,
      "##앙": 5140,
      "##친": 5141,
      "##례": 5142,
      "##많": 5143,
      "##K": 5144,
      "##T": 5145,
      "##엔": 5146,
      "##낼": 5147,
      "##봣": 5148,
      "##닥": 5149,
      "##둑": 5150,
      "##🎎": 5151,
      "##힘": 5152,
      "##뚝": 5153,
      "##쁜": 5154,
      "##텨": 5155,
      "##량": 5156,
      "##눈": 5157,
      "##흘": 5158,
      "##즈": 5159,
      "##뱉": 5160,
      "##놈": 5161,
      "##앗": 5162,
      "##커": 5163,
      "##짐": 5164,
      "##플": 5165,
      "##줬": 5166,
      "##탓": 5167,
      "##렴": 5168,
      "##륜": 5169,
      "##Y": 5170,
      "##둥": 5171,
      "##쥔": 5172,
      "##층": 5173,
      "##쫒": 5174,
      "##펀": 5175,
      "##앨": 5176,
      "##뒤": 5177,
      "##껍": 5178,
      "##욱": 5179,
      "##ㅠ": 5180,
      "##計": 5181,
      "##뵙": 5182,
      "##줘": 5183,
      "##뇌": 5184,
      "##탭": 5185,
      "##맷": 5186,
      "##벼": 5187,
      "##슨": 5188,
      "##h": 5189,
      "##패": 5190,
      "##킴": 5191,
      "##웅": 5192,
      "##므": 5193,
      "##셍": 5194,
      "##훈": 5195,
      "##꼰": 5196,
      "##착": 5197,
      "##휘": 5198,
      "##극": 5199,
      "##B": 5200,
      "##끔": 5201,
      "##팔": 5202,
      "##됨": 5203,
      "##혈": 5204,
      "##걱": 5205,
      "##멍": 5206,
      "##꿔": 5207,
      "##녕": 5208,
      "##젊": 5209,
      "##닫": 5210,
      "##싱": 5211,
      "##듬": 5212,
      "##염": 5213,
      "##떼": 5214,
      "##셧": 5215,
      "##삭": 5216,
      "##팩": 5217,
      "##떠": 5218,
      "##텐": 5219,
      "##L": 5220,
      "##W": 5221,
      "##j": 5222,
      "##Z": 5223,
      "##q": 5224,
      "##톡": 5225,
      "##땜": 5226,
      "##척": 5227,
      "##톱": 5228,
      "##촘": 5229,
      "##루": 5230,
      "##쾌": 5231,
      "##핍": 5232,
      "##솔": 5233,
      "##곧": 5234,
      "##튜": 5235,
      "##녁": 5236,
      "##햇": 5237,
      "##새": 5238,
      "##컨": 5239,
      "##넣": 5240,
      "##텍": 5241,
      "##누": 5242,
      "##랜": 5243,
      "##핵": 5244,
      "##겐": 5245,
      "##숫": 5246,
      "##쑥": 5247,
      "##웠": 5248,
      "##꼇": 5249,
      "##닉": 5250,
      "##힌": 5251,
      "##념": 5252,
      "##턴": 5253,
      "##곤": 5254,
      "##밥": 5255,
      "##덩": 5256,
      "##땐": 5257,
      "##갓": 5258,
      "##쭤": 5259,
      "##ㄴ": 5260,
      "##R": 5261,
      "##G": 5262,
      "##H": 5263,
      "##Q": 5264,
      "##롭": 5265,
      "##캄": 5266,
      "##럿": 5267,
      "##찍": 5268,
      "##\"": 5269,
      "##~": 5270,
      "##롯": 5271,
      "##탕": 5272,
      "##섯": 5273,
      "##벗": 5274,
      "##냈": 5275,
      "##찡": 5276,
      "##긴": 5277,
      "##징": 5278,
      "##빨": 5279,
      "##꺠": 5280,
      "##즌": 5281,
      "##롱": 5282,
      "##섹": 5283,
      "##뇨": 5284,
      "##왜": 5285,
      "##ᅮ": 5286,
      "##ᇿ": 5287,
      "##🙏": 5288,
      "##찜": 5289,
      "##딛": 5290,
      "##뻔": 5291,
      "##둠": 5292,
      "##찾": 5293,
      "##셋": 5294,
      "##푠": 5295,
      "##쥐": 5296,
      "##첨": 5297,
      "##됬": 5298,
      "##링": 5299,
      "##=": 5300,
      "##찼": 5301,
      "##P": 5302,
      "##퓨": 5303,
      "##쩔": 5304,
      "##옷": 5305,
      "##x": 5306,
      "##줍": 5307,
      "##?": 5308,
      "##몫": 5309,
      "##랫": 5310,
      "##폼": 5311,
      "##걷": 5312,
      "##F": 5313,
      "##度": 5314,
      "##핮": 5315,
      "##잉": 5316,
      "##쩌": 5317,
      "##땅": 5318,
      "##촌": 5319,
      "##믄": 5320,
      "##핳": 5321,
      "##ㅎ": 5322,
      "##픈": 5323,
      "##믿": 5324,
      "##뺌": 5325,
      "##켰": 5326,
      "##끈": 5327,
      "##럽": 5328,
      "##듣": 5329,
      "##끄": 5330,
      "##랄": 5331,
      "##뜨": 5332,
      "##댐": 5333,
      "##굶": 5334,
      "##클": 5335,
      "##껴": 5336,
      "##깔": 5337,
      "##톤": 5338,
      "##앱": 5339,
      "##몇": 5340,
      "##뉴": 5341,
      "##됫": 5342,
      "##̌": 5343,
      "##̈": 5344,
      "##딱": 5345,
      "##잇": 5346,
      "##빙": 5347,
      "##눅": 5348,
      "##녹": 5349,
      "##빕": 5350,
      "##뤄": 5351,
      "##@": 5352,
      "##ᆞ": 5353,
      "##셜": 5354,
      "##뭔": 5355,
      "##놀": 5356,
      "##멸": 5357,
      "##떡": 5358,
      "##볶": 5359,
      "##녘": 5360,
      "##큐": 5361,
      "##셀": 5362,
      "##月": 5363,
      "##中": 5364,
      "##빛": 5365,
      "##꿈": 5366,
      "##낌": 5367,
      "##헬": 5368,
      "##딪": 5369,
      "##-": 5370,
      "##)": 5371,
      "##됏": 5372,
      "##빚": 5373,
      "##큰": 5374,
      "##즉": 5375,
      "##쉬": 5376,
      "##싼": 5377,
      "##뀐": 5378,
      "##댕": 5379,
      "##팍": 5380,
      "##탑": 5381,
      "##뉘": 5382,
      "##맡": 5383,
      "##쩡": 5384,
      "##잏": 5385,
      "##블": 5386,
      "##젝": 5387,
      "##딜": 5388,
      "##됍": 5389,
      "##ㅚ": 5390,
      "##긋": 5391,
      "##덤": 5392,
      "##뭐": 5393,
      "##밞": 5394,
      "##얘": 5395,
      "##됀": 5396,
      "##즐": 5397,
      "##곱": 5398,
      "##궁": 5399,
      "##볍": 5400,
      "##낫": 5401,
      "##콥": 5402,
      "##밑": 5403,
      "##챘": 5404,
      "##픽": 5405,
      "##녔": 5406,
      "##콧": 5407,
      "##줌": 5408,
      "##쿠": 5409,
      "##ㅜ": 5410,
      "##☷": 5411,
      "##놔": 5412,
      "##앓": 5413,
      "##홀": 5414,
      "##숴": 5415,
      "##눠": 5416,
      "##갖": 5417,
      "##춤": 5418,
      "##푼": 5419,
      "##웃": 5420,
      "##춰": 5421,
      "##흔": 5422,
      "##맺": 5423,
      "##댑": 5424,
      "##깜": 5425,
      "##봇": 5426,
      "##쉽": 5427,
      "##몌": 5428,
      "##/": 5429,
      "##늑": 5430,
      "##꼬": 5431,
      "##퀴": 5432,
      "##꼽": 5433,
      "##봘": 5434,
      "##펜": 5435,
      "##껏": 5436,
      "##냄": 5437,
      "##,": 5438,
      "##둣": 5439,
      "##튀": 5440,
      "##랭": 5441,
      "##늦": 5442,
      "##밍": 5443,
      "##긍": 5444,
      "##얻": 5445,
      "##핑": 5446,
      "##냅": 5447,
      "##컴": 5448,
      "##탐": 5449,
      "##랴": 5450,
      "##쇠": 5451,
      "##쇼": 5452,
      "##씌": 5453,
      "##責": 5454,
      "##닷": 5455,
      "##륵": 5456,
      "##싷": 5457,
      "##깨": 5458,
      "##릉": 5459,
      "##똑": 5460,
      "##쳬": 5461,
      "##릿": 5462,
      "##팡": 5463,
      "##닼": 5464,
      "##삐": 5465,
      "##늣": 5466,
      "##섭": 5467,
      "##슴": 5468,
      "##넥": 5469,
      "##멘": 5470,
      "##벅": 5471,
      "##`": 5472,
      "##꼴": 5473,
      "##삶": 5474,
      "##팜": 5475,
      "##릅": 5476,
      "##듭": 5477,
      "##댄": 5478,
      "##퓰": 5479,
      "##ㅋ": 5480,
      "##쩧": 5481,
      "##웨": 5482,
      "##괸": 5483,
      "##맨": 5484,
      "##쎄": 5485,
      "##音": 5486,
      "##삼": 5487,
      "##쨰": 5488,
      "##탰": 5489,
      "##둬": 5490,
      "##밭": 5491,
      "##솥": 5492,
      "##쌓": 5493,
      "##ㄱ": 5494,
      "##^": 5495,
      "##빽": 5496,
      "##맥": 5497,
      "##뜻": 5498,
      "##⑤": 5499,
      "##빈": 5500,
      "##ㅓ": 5501,
      "##룸": 5502,
      "##덜": 5503,
      "##핸": 5504,
      "##멜": 5505,
      "##쓴": 5506,
      "##겸": 5507,
      "##씽": 5508,
      "##샵": 5509,
      "##낙": 5510,
      "##럭": 5511,
      "##(": 5512,
      "##몽": 5513,
      "##셈": 5514,
      "##왓": 5515,
      "##×": 5516,
      "##웑": 5517,
      "##心": 5518,
      "##틱": 5519,
      "##옥": 5520,
      "##싫": 5521,
      "##잣": 5522,
      "##끊": 5523,
      "##앵": 5524,
      "##쉰": 5525,
      "##켤": 5526,
      "##릷": 5527,
      "##랬": 5528,
      "##人": 5529,
      "##下": 5530,
      "##次": 5531,
      "##电": 5532,
      "##话": 5533,
      "##去": 5534,
      "##问": 5535,
      "##곽": 5536,
      "##꼈": 5537,
      "##헙": 5538,
      "##ㅁ": 5539,
      "##떳": 5540,
      "##닻": 5541,
      "##팸": 5542,
      "##팽": 5543,
      "##꿨": 5544,
      "##꽤": 5545,
      "##承": 5546,
      "##希": 5547,
      "##重": 5548,
      "##星": 5549,
      "##괄": 5550,
      "##엿": 5551,
      "##섬": 5552,
      "##츄": 5553,
      "##콩": 5554,
      "##ㅕ": 5555,
      "##印": 5556,
      "##堂": 5557,
      "##◈": 5558,
      "##쬬": 5559,
      "##찱": 5560,
      "##퉁": 5561,
      "##깝": 5562,
      "##돕": 5563,
      "##者": 5564,
      "##天": 5565,
      "##之": 5566,
      "##大": 5567,
      "##本": 5568,
      "##묘": 5569,
      "##씁": 5570,
      "##햐": 5571,
      "##똥": 5572,
      "##낯": 5573,
      "##밨": 5574,
      "##쟎": 5575,
      "##빗": 5576,
      "##>": 5577,
      "##낚": 5578,
      "##]": 5579,
      "##덮": 5580,
      "##짝": 5581,
      "##꿍": 5582,
      "##떄": 5583,
      "##뻥": 5584,
      "##젖": 5585,
      "##썩": 5586,
      "##뒷": 5587,
      "##틑": 5588,
      "##♥": 5589,
      "##뮤": 5590,
      "##坑": 5591,
      "##콜": 5592,
      "##쯔": 5593,
      "##룬": 5594,
      "##뱀": 5595,
      "##췄": 5596,
      "##낀": 5597,
      "##엉": 5598,
      "##끗": 5599,
      "##섰": 5600,
      "##맛": 5601,
      "##앉": 5602,
      "##듀": 5603,
      "##앴": 5604,
      "##롤": 5605,
      "##썼": 5606,
      "##덥": 5607,
      "##얄": 5608,
      "##랩": 5609,
      "##맘": 5610,
      "##섞": 5611,
      "##̐": 5612,
      "##껀": 5613,
      "##'": 5614,
      "##觸": 5615,
      "##診": 5616,
      "##젼": 5617,
      "##勳": 5618,
      "##꾹": 5619,
      "##팬": 5620,
      "##U": 5621,
      "##틀": 5622,
      "##빵": 5623,
      "##넌": 5624,
      "##펙": 5625,
      "##윤": 5626,
      "##꼭": 5627,
      "##탱": 5628,
      "##룰": 5629,
      "##숲": 5630,
      "##깥": 5631,
      "##헤": 5632,
      "##&": 5633,
      "##몸": 5634,
      "##겹": 5635,
      "##뱃": 5636,
      "##룩": 5637,
      "##뜸": 5638,
      "##빼": 5639,
      "##콘": 5640,
      "##쁨": 5641,
      "##딨": 5642,
      "##늠": 5643,
      "##同": 5644,
      "##行": 5645,
      "##爲": 5646,
      "##얀": 5647,
      "##뮬": 5648,
      "##갚": 5649,
      "##뚜": 5650,
      "##名": 5651,
      "##無": 5652,
      "##實": 5653,
      "##子": 5654,
      "##힙": 5655,
      "##﻿": 5656,
      "##“": 5657,
      "##쓸": 5658,
      "##흉": 5659,
      "##밷": 5660,
      "##멀": 5661,
      "##늄": 5662,
      "##퀸": 5663,
      "##딘": 5664,
      "##닭": 5665,
      "##칩": 5666,
      "##턱": 5667,
      "##숀": 5668,
      "##좆": 5669,
      "##넹": 5670,
      "##햡": 5671,
      "##腦": 5672,
      "##뽀": 5673,
      "##ㅣ": 5674,
      "##ㄹ": 5675,
      "##횡": 5676,
      "##宿": 5677,
      "##命": 5678,
      "##『": 5679,
      "##쥬": 5680,
      "##챙": 5681,
      "##뜬": 5682,
      "##쟈": 5683,
      "##놨": 5684,
      "##쌀": 5685,
      "##낳": 5686,
      "##…": 5687,
      "##밴": 5688,
      "##돋": 5689,
      "##폑": 5690,
      "##짱": 5691,
      "##캔": 5692,
      "##넸": 5693,
      "##꿉": 5694,
      "##利": 5695,
      "##뵤": 5696,
      "##뻐": 5697,
      "##갬": 5698,
      "##듫": 5699,
      "##옮": 5700,
      "##솟": 5701,
      "##껄": 5702,
      "##곘": 5703,
      "##쌤": 5704,
      "##탯": 5705,
      "##꼼": 5706,
      "##궐": 5707,
      "##샹": 5708,
      "##폴": 5709,
      "##맻": 5710,
      "##댓": 5711,
      "##칸": 5712,
      "##렁": 5713,
      "##ㅊ": 5714,
      "##靈": 5715,
      "##밤": 5716,
      "##뺑": 5717,
      "##콝": 5718,
      "##핲": 5719,
      "##傷": 5720,
      "##밌": 5721,
      "##컬": 5722,
      "##■": 5723,
      "##벨": 5724,
      "##잃": 5725,
      "##땀": 5726,
      "##윽": 5727,
      "##콤": 5728,
      "##斥": 5729,
      "##😡": 5730,
      "##싯": 5731,
      "##쑈": 5732,
      "##슈": 5733,
      "##事": 5734,
      "##줫": 5735,
      "##뽕": 5736,
      "##옆": 5737,
      "##훼": 5738,
      "##띄": 5739,
      "##깊": 5740,
      "##”": 5741,
      "##入": 5742,
      "##見": 5743,
      "##갤": 5744,
      "##｢": 5745,
      "##★": 5746,
      "##꙼": 5747,
      "##늬": 5748,
      "##報": 5749,
      "##욤": 5750,
      "##룡": 5751,
      "##깼": 5752,
      "##쏘": 5753,
      "##쿼": 5754,
      "##浜": 5755,
      "##彰": 5756,
      "##뤘": 5757,
      "##짖": 5758,
      "##쌍": 5759,
      "##[": 5760,
      "##헣": 5761,
      "##겡": 5762,
      "##빴": 5763,
      "##맵": 5764,
      "##◆": 5765,
      "##쥰": 5766,
      "##킷": 5767,
      "##싹": 5768,
      "##먄": 5769,
      "##쁩": 5770,
      "##켝": 5771,
      "##잭": 5772,
      "##뀜": 5773,
      "##南": 5774,
      "##趾": 5775,
      "##췌": 5776,
      "##맙": 5777,
      "##갯": 5778,
      "##삽": 5779,
      "##윳": 5780,
      "##쩐": 5781,
      "##ㅖ": 5782,
      "##뿌": 5783,
      "##헛": 5784,
      "##땝": 5785,
      "##닦": 5786,
      "##홉": 5787,
      "##̆": 5788,
      "##멧": 5789,
      "##찝": 5790,
      "##듈": 5791,
      "##륨": 5792,
      "##삿": 5793,
      "##콴": 5794,
      "##源": 5795,
      "##끓": 5796,
      "##밉": 5797,
      "##平": 5798,
      "##픔": 5799,
      "##갰": 5800,
      "##댜": 5801,
      "##콕": 5802,
      "##뭘": 5803,
      "##괘": 5804,
      "##랗": 5805,
      "##앤": 5806,
      "##짬": 5807,
      "##닳": 5808,
      "##썽": 5809,
      "##붕": 5810,
      "##깁": 5811,
      "##쥴": 5812,
      "##젤": 5813,
      "##뭉": 5814,
      "##늉": 5815,
      "##딧": 5816,
      "##땡": 5817,
      "##⇌": 5818,
      "##돤": 5819,
      "##​": 5820,
      "##튬": 5821,
      "##덴": 5822,
      "##헐": 5823,
      "##텀": 5824,
      "##튼": 5825,
      "##둡": 5826,
      "##넙": 5827,
      "##資": 5828,
      "##力": 5829,
      "##誼": 5830,
      "##世": 5831,
      "##界": 5832,
      "##샤": 5833,
      "##厚": 5834,
      "##德": 5835,
      "##렷": 5836,
      "##엣": 5837,
      "##젯": 5838,
      "##♠": 5839,
      "##🤬": 5840,
      "##😠": 5841,
      "##👿": 5842,
      "##짠": 5843,
      "##펫": 5844,
      "##럅": 5845,
      "##깃": 5846,
      "##맠": 5847,
      "##벡": 5848,
      "##돠": 5849,
      "##옇": 5850,
      "##씹": 5851,
      "##휠": 5852,
      "##빡": 5853,
      "##뿝": 5854,
      "##궈": 5855,
      "##숭": 5856,
      "##他": 5857,
      "##얹": 5858,
      "##곶": 5859,
      "##겪": 5860,
      "##짧": 5861,
      "##켱": 5862,
      "##쫓": 5863,
      "##푹": 5864,
      "##覺": 5865,
      "##夢": 5866,
      "##눌": 5867,
      "##ひ": 5868,
      "##つ": 5869,
      "##の": 5870,
      "##こ": 5871,
      "##い": 5872,
      "##슘": 5873,
      "##얏": 5874,
      "##툴": 5875,
      "##엠": 5876,
      "##촛": 5877,
      "##꿀": 5878,
      "##뚤": 5879,
      "##뎅": 5880,
      "##꿴": 5881,
      "##넬": 5882,
      "##쪄": 5883,
      "##뜯": 5884,
      "##흙": 5885,
      "##믜": 5886,
      "##믈": 5887,
      "##촬": 5888,
      "##멱": 5889,
      "##셸": 5890,
      "##꽃": 5891,
      "##쳔": 5892,
      "##셉": 5893,
      "##炳": 5894,
      "##遠": 5895,
      "##툭": 5896,
      "##찐": 5897,
      "##쫌": 5898,
      "##:": 5899,
      "##젔": 5900,
      "##ㅈ": 5901,
      "##ㅅ": 5902,
      "##흰": 5903,
      "##絡": 5904,
      "##켈": 5905,
      "##記": 5906,
      "##졍": 5907,
      "##첫": 5908,
      "##웍": 5909,
      "##텅": 5910,
      "##닺": 5911,
      "##！": 5912,
      "##톨": 5913,
      "##칫": 5914,
      "##춥": 5915,
      "##맟": 5916,
      "##밎": 5917,
      "##겉": 5918,
      "##쎈": 5919,
      "##펠": 5920,
      "##잰": 5921,
      "##👵": 5922,
      "##윗": 5923,
      "##뻤": 5924,
      "##☞": 5925,
      "##볕": 5926,
      "##둗": 5927,
      "##뼈": 5928,
      "##續": 5929,
      "##的": 5930,
      "##헹": 5931,
      "##折": 5932,
      "##必": 5933,
      "##東": 5934,
      "##쓱": 5935,
      "##엊": 5936,
      "##듦": 5937,
      "##묻": 5938,
      "##뷰": 5939,
      "##멋": 5940,
      "##켸": 5941,
      "##뿔": 5942,
      "##좁": 5943,
      "##뻘": 5944,
      "##뿜": 5945,
      "##ㅍ": 5946,
      "##댁": 5947,
      "##잊": 5948,
      "##뜰": 5949,
      "##팟": 5950,
      "##숍": 5951,
      "##씸": 5952,
      "##엽": 5953,
      "##곪": 5954,
      "##덱": 5955,
      "##根": 5956,
      "##릎": 5957,
      "##亚": 5958,
      "##塵": 5959,
      "##짤": 5960,
      "##쭈": 5961,
      "##엥": 5962,
      "##룻": 5963,
      "##쥘": 5964,
      "##옹": 5965,
      "##틈": 5966,
      "##웟": 5967,
      "##깡": 5968,
      "##긱": 5969,
      "##定": 5970,
      "##돗": 5971,
      "##덯": 5972,
      "##곃": 5973,
      "##팰": 5974,
      "##꾜": 5975,
      "##팠": 5976,
      "##낑": 5977,
      "##쪼": 5978,
      "##샀": 5979,
      "##怨": 5980,
      "##提": 5981,
      "##起": 5982,
      "##듼": 5983,
      "##곻": 5984,
      "##ㅏ": 5985,
      "##쭘": 5986,
      "##客": 5987,
      "##톰": 5988,
      "##곁": 5989,
      "##쿨": 5990,
      "##젹": 5991,
      "##슥": 5992,
      "##흐": 5993,
      "##쑤": 5994,
      "##듲": 5995,
      "##→": 5996,
      "##簿": 5997,
      "##’": 5998,
      "##붐": 5999,
      "##곙": 6000,
      "##냉": 6001,
      "##꽁": 6002,
      "##갗": 6003,
      "##샾": 6004,
      "##샘": 6005,
      "##롬": 6006,
      "##❶": 6007,
      "##❸": 6008,
      "##첟": 6009,
      "##州": 6010,
      "##道": 6011,
      "##뮴": 6012,
      "##쭙": 6013,
      "##賦": 6014,
      "##權": 6015,
      "##흠": 6016,
      "##①": 6017,
      "##③": 6018,
      "##꽂": 6019,
      "##킥": 6020,
      "##惡": 6021,
      "##탔": 6022,
      "##ン": 6023,
      "##グ": 6024,
      "##ラ": 6025,
      "##ド": 6026,
      "##빳": 6027,
      "##氣": 6028,
      "##千": 6029,
      "##秋": 6030,
      "###": 6031,
      "##🤧": 6032,
      "##😰": 6033,
      "##궤": 6034,
      "##몼": 6035,
      "##멩": 6036,
      "##탠": 6037,
      "##엑": 6038,
      "##○": 6039,
      "##뫈": 6040,
      "##팝": 6041,
      "##헝": 6042,
      "##셌": 6043,
      "##《": 6044,
      "##잎": 6045,
      "##펌": 6046,
      "##츨": 6047,
      "##휜": 6048,
      "##뱅": 6049,
      "##稱": 6050,
      "##〘": 6051,
      "##맣": 6052,
      "##元": 6053,
      "##띠": 6054,
      "##눔": 6055,
      "##떈": 6056,
      "##넓": 6057,
      "##졔": 6058,
      "##깟": 6059,
      "##뭄": 6060,
      "##②": 6061,
      "##民": 6062,
      "##굵": 6063,
      "##댈": 6064,
      "##졘": 6065,
      "##쭐": 6066,
      "##〚": 6067,
      "##쩍": 6068,
      "##쉼": 6069,
      "##겜": 6070,
      "##ç": 6071,
      "##졋": 6072,
      "##맗": 6073,
      "##뒀": 6074,
      "##島": 6075,
      "##是": 6076,
      "##会": 6077,
      "##被": 6078,
      "##扮": 6079,
      "##作": 6080,
      "##嫖": 6081,
      "##匪": 6082,
      "##徒": 6083,
      "##打": 6084,
      "##劫": 6085,
      "##돔": 6086,
      "##뱌": 6087,
      "##컷": 6088,
      "##企": 6089,
      "##業": 6090,
      "##쭉": 6091,
      "##켯": 6092,
      "##쯕": 6093,
      "##斂": 6094,
      "##誅": 6095,
      "##求": 6096,
      "##꽝": 6097,
      "##윙": 6098,
      "##헨": 6099,
      "##촐": 6100,
      "##읗": 6101,
      "##첬": 6102,
      "##촣": 6103,
      "##엾": 6104,
      "##씰": 6105,
      "##띵": 6106,
      "##햊": 6107,
      "##틋": 6108,
      "##쌩": 6109,
      "##쿄": 6110,
      "##自": 6111,
      "##陆": 6112,
      "##찻": 6113,
      "##폄": 6114,
      "##正": 6115,
      "##핏": 6116,
      "##쿵": 6117,
      "##꼐": 6118,
      "##七": 6119,
      "##勝": 6120,
      "##쏜": 6121,
      "##왈": 6122,
      "##植": 6123,
      "##쉴": 6124,
      "##닛": 6125,
      "##흑": 6126,
      "##컥": 6127,
      "##思": 6128,
      "##끽": 6129,
      "##쳣": 6130,
      "##읏": 6131,
      "##ㅌ": 6132,
      "##썬": 6133,
      "##읠": 6134,
      "##퉐": 6135,
      "##㉣": 6136,
      "##↠": 6137,
      "##겅": 6138,
      "##？": 6139,
      "##🚨": 6140,
      "##밋": 6141,
      "##렆": 6142,
      "##숳": 6143,
      "##켔": 6144,
      "##얙": 6145,
      "##륭": 6146,
      "##펑": 6147,
      "##넉": 6148,
      "##設": 6149,
      "##官": 6150,
      "##딤": 6151,
      "##ㄷ": 6152,
      "##惠": 6153,
      "##즥": 6154,
      "##멓": 6155,
      "##헉": 6156,
      "##勢": 6157,
      "##믹": 6158,
      "##遍": 6159,
      "##쬐": 6160,
      "##害": 6161,
      "##己": 6162,
      "##ㄲ": 6163,
      "##훌": 6164,
      "##銀": 6165,
      "##껌": 6166,
      "##멤": 6167,
      "##明": 6168,
      "##쁠": 6169,
      "##ㅐ": 6170,
      "##띨": 6171,
      "##놧": 6172,
      "##깎": 6173,
      "##ᄃ": 6174,
      "##ᆍ": 6175,
      "##눕": 6176,
      "##샛": 6177,
      "##뺐": 6178,
      "##찹": 6179,
      "##욧": 6180,
      "##+": 6181,
      "##냔": 6182,
      "##엎": 6183,
      "##컹": 6184,
      "##ㅘ": 6185,
      "##察": 6186,
      "##닜": 6187,
      "##☜": 6188,
      "##뎟": 6189,
      "##챈": 6190,
      "##在": 6191,
      "##鎔": 6192,
      "##짢": 6193,
      "##괜": 6194,
      "##찿": 6195,
      "##탬": 6196,
      "##￦": 6197,
      "##삔": 6198,
      "##섲": 6199,
      "##딫": 6200,
      "##첵": 6201,
      "##솓": 6202,
      "##樽": 6203,
      "##美": 6204,
      "##酒": 6205,
      "##血": 6206,
      "##ī": 6207,
      "##ó": 6208,
      "##<": 6209,
      "##럲": 6210,
      "##벙": 6211,
      "##뒹": 6212,
      "##횟": 6213,
      "##鮮": 6214,
      "##海": 6215,
      "##論": 6216,
      "##귄": 6217,
      "##밧": 6218,
      "##꼿": 6219,
      "##껑": 6220,
      "##덧": 6221,
      "##核": 6222,
      "##化": 6223,
      "##걔": 6224,
      "##몃": 6225,
      "##뛴": 6226,
      "##腹": 6227,
      "##藏": 6228,
      "##珠": 6229,
      "##늗": 6230,
      "##듧": 6231,
      "##핼": 6232,
      "##産": 6233,
      "##즁": 6234,
      "##흴": 6235,
      "##찢": 6236,
      "##즹": 6237,
      "##》": 6238,
      "##낡": 6239,
      "##牛": 6240,
      "##跳": 6241,
      "##짚": 6242,
      "##씻": 6243,
      "##上": 6244,
      "##—": 6245,
      "##⇒": 6246,
      "##욥": 6247,
      "##ㄸ": 6248,
      "##意": 6249,
      "##家": 6250,
      "##쭸": 6251,
      "##们": 6252,
      "##当": 6253,
      "##绝": 6254,
      "##多": 6255,
      "##数": 6256,
      "##一": 6257,
      "##个": 6258,
      "##城": 6259,
      "##市": 6260,
      "##只": 6261,
      "##呆": 6262,
      "##两": 6263,
      "##싣": 6264,
      "##웬": 6265,
      "##솤": 6266,
      "##服": 6267,
      "##申": 6268,
      "##請": 6269,
      "##좽": 6270,
      "##띔": 6271,
      "##핫": 6272,
      "##뗄": 6273,
      "##和": 6274,
      "##堆": 6275,
      "##겔": 6276,
      "##옳": 6277,
      "##펍": 6278,
      "##칵": 6279,
      "##·": 6280,
      "##ⓒ": 6281,
      "##굼": 6282,
      "##넨": 6283,
      "##읺": 6284,
      "##因": 6285,
      "##为": 6286,
      "##这": 6287,
      "##些": 6288,
      "##存": 6289,
      "##不": 6290,
      "##引": 6291,
      "##般": 6292,
      "##注": 6293,
      "##썪": 6294,
      "##괭": 6295,
      "##ㅉ": 6296,
      "##풉": 6297,
      "##滯": 6298,
      "##償": 6299,
      "##金": 6300,
      "##힝": 6301,
      "##댱": 6302,
      "##「": 6303,
      "##웹": 6304,
      "##옛": 6305,
      "##몆": 6306,
      "##主": 6307,
      "##義": 6308,
      "##黨": 6309,
      "##릐": 6310,
      "##鐘": 6311,
      "##릍": 6312,
      "##켠": 6313,
      "##社": 6314,
      "##戰": 6315,
      "##兩": 6316,
      "##面": 6317,
      "##術": 6318,
      "##쥤": 6319,
      "##춪": 6320,
      "##썻": 6321,
      "##쉐": 6322,
      "##샷": 6323,
      "##썹": 6324,
      "##핌": 6325,
      "##겻": 6326,
      "##隣": 6327,
      "##찔": 6328,
      "##샐": 6329,
      "##弊": 6330,
      "##꿋": 6331,
      "##꿧": 6332,
      "##찟": 6333,
      "##헸": 6334,
      "##兒": 6335,
      "##休": 6336,
      "##職": 6337,
      "##黙": 6338,
      "##答": 6339,
      "##퐁": 6340,
      "##윌": 6341,
      "##養": 6342,
      "##蔘": 6343,
      "##겍": 6344,
      "##殺": 6345,
      "##뎄": 6346,
      "##끙": 6347,
      "##木": 6348,
      "##信": 6349,
      "##쾅": 6350,
      "##쿡": 6351,
      "##셕": 6352,
      "##屋": 6353,
      "##꾀": 6354,
      "##냇": 6355,
      "##샌": 6356,
      "##픕": 6357,
      "##퓌": 6358,
      "##젓": 6359,
      "##委": 6360,
      "##國": 6361,
      "##☢": 6362,
      "##有": 6363,
      "##分": 6364,
      "##켄": 6365,
      "##괂": 6366,
      "##愧": 6367,
      "##感": 6368,
      "##잋": 6369,
      "##쨌": 6370,
      "##떵": 6371,
      "##풋": 6372,
      "##〉": 6373,
      "##뭅": 6374,
      "##룽": 6375,
      "##밈": 6376,
      "##疇": 6377,
      "##洙": 6378,
      "##쌉": 6379,
      "##꽈": 6380,
      "##똘": 6381,
      "##メ": 6382,
      "##リ": 6383,
      "##カ": 6384,
      "##홋": 6385,
      "##찤": 6386,
      "##캉": 6387,
      "##웰": 6388,
      "##↑": 6389,
      "##統": 6390,
      "##制": 6391,
      "##엮": 6392,
      "##퀘": 6393,
      "##頭": 6394,
      "##춧": 6395,
      "##負": 6396,
      "##읜": 6397,
      "##묶": 6398,
      "##먕": 6399,
      "##헀": 6400,
      "##늨": 6401,
      "##묜": 6402,
      "##붉": 6403,
      "##쩨": 6404,
      "##●": 6405,
      "##펄": 6406,
      "##뛸": 6407,
      "##間": 6408,
      "##잤": 6409,
      "##잗": 6410,
      "##렣": 6411,
      "##덟": 6412,
      "##푯": 6413,
      "##❤": 6414,
      "##💛": 6415,
      "##親": 6416,
      "##領": 6417,
      "##굳": 6418,
      "##尙": 6419,
      "##應": 6420,
      "##捨": 6421,
      "##難": 6422,
      "##瑛": 6423,
      "##敎": 6424,
      "##基": 6425,
      "##俊": 6426,
      "##솝": 6427,
      "##엡": 6428,
      "##𖤐": 6429,
      "##∼": 6430,
      "##局": 6431,
      "##즨": 6432,
      "##魔": 6433,
      "##휀": 6434,
      "##牋": 6435,
      "##販": 6436,
      "##壓": 6437,
      "##о": 6438,
      "##р": 6439,
      "##е": 6440,
      "##흫": 6441,
      "##훔": 6442,
      "##ー": 6443,
      "##ス": 6444,
      "##ト": 6445,
      "##ア": 6446,
      "##": 6447,
      "##굽": 6448,
      "##後": 6449,
      "##―": 6450,
      "##供": 6451,
      "##툰": 6452,
      "##痲": 6453,
      "##痹": 6454,
      "##돚": 6455,
      "##뺄": 6456,
      "##슺": 6457,
      "##슐": 6458,
      "##出": 6459,
      "##갘": 6460,
      "##뉜": 6461,
      "##얗": 6462,
      "##理": 6463,
      "##長": 6464,
      "##숟": 6465,
      "##짭": 6466,
      "##쟌": 6467,
      "##志": 6468,
      "##쨉": 6469,
      "##火": 6470,
      "##묭": 6471,
      "##區": 6472,
      "##뚫": 6473,
      "##핥": 6474,
      "##ㅗ": 6475,
      "##%": 6476,
      "##法": 6477,
      "##뎠": 6478,
      "##빤": 6479,
      "##共": 6480,
      "##쵸": 6481,
      "##想": 6482,
      "##싨": 6483,
      "##귈": 6484,
      "##罵": 6485,
      "##켐": 6486,
      "##탉": 6487,
      "##폈": 6488,
      "##뽁": 6489,
      "##귤": 6490,
      "##놉": 6491,
      "##몄": 6492,
      "##쌈": 6493,
      "##앰": 6494,
      "##뻗": 6495,
      "##듵": 6496,
      "##族": 6497,
      "##抹": 6498,
      "##年": 6499,
      "##略": 6500,
      "##흪": 6501,
      "##즙": 6502,
      "##잜": 6503,
      "##굿": 6504,
      "##듐": 6505,
      "##옙": 6506,
      "##，": 6507,
      "##쏟": 6508,
      "##탴": 6509,
      "##發": 6510,
      "##턕": 6511,
      "##뇸": 6512,
      "##據": 6513,
      "##調": 6514,
      "##査": 6515,
      "##눴": 6516,
      "##쫄": 6517,
      "##겂": 6518,
      "##•": 6519,
      "##書": 6520,
      "##랃": 6521,
      "##小": 6522,
      "##棒": 6523,
      "##텼": 6524,
      "##겋": 6525,
      "##뮌": 6526,
      "##덫": 6527,
      "##立": 6528,
      "##찛": 6529,
      "##▶": 6530,
      "##맏": 6531,
      "##山": 6532,
      "##等": 6533,
      "##캅": 6534,
      "##ㅂ": 6535,
      "##券": 6536,
      "##没": 6537,
      "##关": 6538,
      "##她": 6539,
      "##휙": 6540,
      "##렐": 6541,
      "##復": 6542,
      "##햄": 6543,
      "##뻣": 6544,
      "##혓": 6545,
      "##퉜": 6546,
      "##낱": 6547,
      "##北": 6548,
      "##態": 6549,
      "##뺨": 6550,
      "##귾": 6551,
      "##굲": 6552,
      "##告": 6553,
      "##已": 6554,
      "##몀": 6555,
      "##쌋": 6556,
      "##쒸": 6557,
      "##뀝": 6558,
      "##훠": 6559,
      "##뭇": 6560,
      "##햏": 6561,
      "##캡": 6562,
      "##늙": 6563,
      "##닞": 6564,
      "##텡": 6565,
      "##냘": 6566,
      "##。": 6567,
      "##三": 6568,
      "##暮": 6569,
      "##四": 6570,
      "##땠": 6571,
      "##⑷": 6572,
      "##籍": 6573,
      "##附": 6574,
      "##合": 6575,
      "##地": 6576,
      "##團": 6577,
      "##뷔": 6578,
      "##햅": 6579,
      "##榮": 6580,
      "##읅": 6581,
      "##삥": 6582,
      "##휼": 6583,
      "##狗": 6584,
      "##肉": 6585,
      "##江": 6586,
      "##🤰": 6587,
      "##🤱": 6588,
      "##强": 6589,
      "##蓋": 6590,
      "##뭡": 6591,
      "##썰": 6592,
      "##뺃": 6593,
      "##眼": 6594,
      "##）": 6595,
      "##뼛": 6596,
      "##方": 6597,
      "##落": 6598,
      "##굉": 6599,
      "##횢": 6600,
      "##깉": 6601,
      "##": 6602,
      "##맑": 6603,
      "##붇": 6604,
      "##댖": 6605,
      "##뮈": 6606,
      "##쌌": 6607,
      "##☆": 6608,
      "##낟": 6609,
      "##盜": 6610,
      "##ㅝ": 6611,
      "##知": 6612,
      "##뎃": 6613,
      "##松": 6614,
      "##格": 6615,
      "##兰": 6616,
      "##앟": 6617,
      "##뜽": 6618,
      "##濯": 6619,
      "##흭": 6620,
      "##맴": 6621,
      "##}": 6622,
      "##얐": 6623,
      "##ě": 6624,
      "##뗳": 6625,
      "##쨋": 6626,
      "##쪘": 6627,
      "##갇": 6628,
      "##랖": 6629,
      "##퍈": 6630,
      "##샴": 6631,
      "##셰": 6632,
      "##뽄": 6633,
      "##」": 6634,
      "##쩜": 6635,
      "##홰": 6636,
      "##렿": 6637,
      "##外": 6638,
      "##漢": 6639,
      "##♡": 6640,
      "##짹": 6641,
      "##暴": 6642,
      "##듸": 6643,
      "##文": 6644,
      "##寺": 6645,
      "##갛": 6646,
      "##】": 6647,
      "##🌟": 6648,
      "##收": 6649,
      "##랠": 6650,
      "##냦": 6651,
      "##女": 6652,
      "##볐": 6653,
      "##썸": 6654,
      "##탤": 6655,
      "##룔": 6656,
      "##춣": 6657,
      "##왑": 6658,
      "##텃": 6659,
      "##돛": 6660,
      "##큘": 6661,
      "##팥": 6662,
      "##껜": 6663,
      "##뎁": 6664,
      "##냠": 6665,
      "##옌": 6666,
      "##쏴": 6667,
      "##렘": 6668,
      "##깬": 6669,
      "##셛": 6670,
      "##긧": 6671,
      "##쿌": 6672,
      "##멕": 6673,
      "##村": 6674,
      "##紅": 6675,
      "##葉": 6676,
      "##츰": 6677,
      "##흄": 6678,
      "##立": 6679,
      "##運": 6680,
      "##動": 6681,
      "##澈": 6682,
      "##詐": 6683,
      "##欺": 6684,
      "##訟": 6685,
      "##펐": 6686,
      "##性": 6687,
      "##政": 6688,
      "##內": 6689,
      "##願": 6690,
      "##泳": 6691,
      "##껐": 6692,
      "##웡": 6693,
      "##됄": 6694,
      "##例": 6695,
      "##팁": 6696,
      "##텁": 6697,
      "##뇬": 6698,
      "##퍠": 6699,
      "##熙": 6700,
      "##ㅑ": 6701,
      "##味": 6702,
      "##튿": 6703,
      "##뫄": 6704,
      "##忍": 6705,
      "##↓": 6706,
      "##샬": 6707,
      "##倒": 6708,
      "##🔥": 6709,
      "##쏠": 6710,
      "##⟩": 6711,
      "##먀": 6712,
      "##숱": 6713,
      "##툽": 6714,
      "##젘": 6715,
      "##얷": 6716,
      "##ㅛ": 6717,
      "##걍": 6718,
      "##퀄": 6719,
      "##잽": 6720,
      "##웒": 6721,
      "##괌": 6722,
      "##駁": 6723,
      "##🏓": 6724,
      "##舞": 6725,
      "##궂": 6726,
      "##쨩": 6727,
      "##닠": 6728,
      "##♩": 6729,
      "##갶": 6730,
      "##푀": 6731,
      "##띁": 6732,
      "##깅": 6733,
      "##눙": 6734,
      "##帶": 6735,
      "##百": 6736,
      "##路": 6737,
      "##볔": 6738,
      "##뗏": 6739,
      "##뼘": 6740,
      "##힜": 6741,
      "##馬": 6742,
      "##我": 6743,
      "##욜": 6744,
      "##돨": 6745,
      "##恩": 6746,
      "##忘": 6747,
      "##念": 6748,
      "##멉": 6749,
      "##랼": 6750,
      "##팎": 6751,
      "##멊": 6752,
      "##훗": 6753,
      "##잌": 6754,
      "##紀": 6755,
      "##햬": 6756,
      "##믐": 6757,
      "##곰": 6758,
      "##빔": 6759,
      "##懼": 6760,
      "##㉠": 6761,
      "##府": 6762,
      "##患": 6763,
      "##貧": 6764,
      "##□": 6765,
      "##洲": 6766,
      "##ご": 6767,
      "##う": 6768,
      "##し": 6769,
      "##ゅ": 6770,
      "##̄": 6771,
      "##뫼": 6772,
      "##邑": 6773,
      "##뽂": 6774,
      "##助": 6775,
      "##벳": 6776,
      "##韓": 6777,
      "##녜": 6778,
      "##읃": 6779,
      "##짔": 6780,
      "##뇽": 6781,
      "##딕": 6782,
      "##탣": 6783,
      "##è": 6784,
      "##訴": 6785,
      "##院": 6786,
      "##뻇": 6787,
      "##쟝": 6788,
      "##史": 6789,
      "##샆": 6790,
      "##※": 6791,
      "##經": 6792,
      "##癒": 6793,
      "##着": 6794,
      "##뎐": 6795,
      "##成": 6796,
      "##於": 6797,
      "##勤": 6798,
      "##丙": 6799,
      "##숸": 6800,
      "##뗀": 6801,
      "##왠": 6802,
      "##宗": 6803,
      "##淚": 6804,
      "##時": 6805,
      "##蘭": 6806,
      "##西": 6807,
      "##再": 6808,
      "##괞": 6809,
      "##福": 6810,
      "##由": 6811,
      "##첸": 6812,
      "##室": 6813,
      "##꿁": 6814,
      "##😉": 6815,
      "##氏": 6816,
      "##눟": 6817,
      "##얍": 6818,
      "##밊": 6819,
      "##즤": 6820,
      "##횐": 6821,
      "##🐱": 6822,
      "##쌔": 6823,
      "##₩": 6824,
      "##떔": 6825,
      "##캣": 6826,
      "##맇": 6827,
      "##玲": 6828,
      "##指": 6829,
      "##私": 6830,
      "##窦": 6831,
      "##还": 6832,
      "##样": 6833,
      "##风": 6834,
      "##险": 6835,
      "##憲": 6836,
      "##错": 6837,
      "##十": 6838,
      "##干": 6839,
      "##支": 6840,
      "##맜": 6841,
      "##用": 6842,
      "##궜": 6843,
      "##챠": 6844,
      "##顧": 6845,
      "##錄": 6846,
      "##퉤": 6847,
      "##뢀": 6848,
      "##핬": 6849,
      "##笠": 6850,
      "##原": 6851,
      "##췬": 6852,
      "##엳": 6853,
      "##뮹": 6854,
      "##\\": 6855,
      "##肅": 6856,
      "##샅": 6857,
      "##{": 6858,
      "##숩": 6859,
      "##챦": 6860,
      "##算": 6861,
      "##流": 6862,
      "##惡": 6863,
      "##敬": 6864,
      "##꿎": 6865,
      "##굣": 6866,
      "##浦": 6867,
      "##刑": 6868,
      "##務": 6869,
      "##所": 6870,
      "##歸": 6871,
      "##븡": 6872,
      "##횽": 6873,
      "##뭏": 6874,
      "##喜": 6875,
      "##相": 6876,
      "##뀠": 6877,
      "##곯": 6878,
      "##歲": 6879,
      "##뷸": 6880,
      "##財": 6881,
      "##훨": 6882,
      "##【": 6883,
      "##望": 6884,
      "##왭": 6885,
      "##狀": 6886,
      "##옸": 6887,
      "##ㅢ": 6888,
      "##▲": 6889,
      "##헁": 6890,
      "##줏": 6891,
      "##낞": 6892,
      "##뷴": 6893,
      "##🌞": 6894,
      "##맀": 6895,
      "##엤": 6896,
      "##덛": 6897,
      "##⇨": 6898,
      "##很": 6899,
      "##少": 6900,
      "##超": 6901,
      "##过": 6902,
      "##Ⅱ": 6903,
      "##튈": 6904,
      "##횔": 6905,
      "##国": 6906,
      "##뺀": 6907,
      "##썜": 6908,
      "##봡": 6909,
      "##밣": 6910,
      "##️": 6911,
      "##⃣": 6912,
      "##욋": 6913,
      "##잆": 6914,
      "##老": 6915,
      "##": 6916,
      "##롸": 6917,
      "##亡": 6918,
      "##新": 6919,
      "##備": 6920,
      "##⭐": 6921,
      "##耽": 6922,
      "##羅": 6923,
      "##퉈": 6924,
      "##빢": 6925,
      "##亥": 6926,
      "##홤": 6927,
      "##令": 6928,
      "##캘": 6929,
      "##♤": 6930,
      "##겥": 6931,
      "##얂": 6932,
      "##部": 6933,
      "##組": 6934,
      "##織": 6935,
      "##揮": 6936,
      "##構": 6937,
      "##造": 6938,
      "##介": 6939,
      "##昊": 6940,
      "##룐": 6941,
      "##넝": 6942,
      "##뭍": 6943,
      "##集": 6944,
      "##맸": 6945,
      "##겧": 6946,
      "##測": 6947,
      "##量": 6948,
      "##尾": 6949,
      "##🎈": 6950,
      "##審": 6951,
      "##좃": 6952,
      "##싲": 6953,
      "##🏻": 6954,
      "##衣": 6955,
      "##極": 6956,
      "##쯧": 6957,
      "##孝": 6958,
      "##묾": 6959,
      "##況": 6960,
      "##非": 6961,
      "##켁": 6962,
      "##탘": 6963,
      "##㎡": 6964,
      "##텄": 6965,
      "##쫗": 6966,
      "##깠": 6967,
      "##歷": 6968,
      "##$": 6969,
      "##튕": 6970,
      "##當": 6971,
      "##諱": 6972,
      "##翼": 6973,
      "##淳": 6974,
      "##몿": 6975,
      "##軍": 6976,
      "##死": 6977,
      "##渡": 6978,
      "##쳘": 6979,
      "##陽": 6980,
      "##物": 6981,
      "##旬": 6982,
      "##덞": 6983,
      "##걀": 6984,
      "##牲": 6985,
      "##議": 6986,
      "##位": 6987,
      "##公": 6988,
      "##搜": 6989,
      "##處": 6990,
      "##삯": 6991,
      "##治": 6992,
      "##맂": 6993,
      "##짇": 6994,
      "##긔": 6995,
      "##暗": 6996,
      "##设": 6997,
      "##俗": 6998,
      "##称": 6999,
      "##庆": 7000,
      "##겆": 7001,
      "##万": 7002,
      "##吉": 7003,
      "##앚": 7004,
      "##閏": 7005,
      "##景": 7006,
      "##봈": 7007,
      "##쩝": 7008,
      "##👎": 7009,
      "##Ｘ": 7010,
      "##믽": 7011,
      "##겊": 7012,
      "##뺴": 7013,
      "##à": 7014,
      "##ì": 7015,
      "##整": 7016,
      "##짊": 7017,
      "##엌": 7018,
      "##ᄋ": 7019,
      "##ힹ": 7020,
      "##員": 7021,
      "##聲": 7022,
      "##高": 7023,
      "##间": 7024,
      "##房": 7025,
      "##듰": 7026,
      "##닏": 7027,
      "##꿏": 7028,
      "##期": 7029,
      "##繼": 7030,
      "##契": 7031,
      "##約": 7032,
      "##👍": 7033,
      "##뺒": 7034,
      "##좇": 7035,
      "##』": 7036,
      "##헷": 7037,
      "##👊": 7038,
      "##읫": 7039,
      "##뻑": 7040,
      "##퍄": 7041,
      "##쿤": 7042,
      "##⓵": 7043,
      "##⓼": 7044,
      "##策": 7045,
      "##㎥": 7046,
      "##뗜": 7047,
      "##通": 7048,
      "##閣": 7049,
      "##믑": 7050,
      "##켑": 7051,
      "##可": 7052,
      "##生": 7053,
      "##廉": 7054,
      "##典": 7055,
      "##👨": 7056,
      "##🚫": 7057,
      "##赫": 7058,
      "##젭": 7059,
      "##億": 7060,
      "##넀": 7061,
      "##鏡": 7062,
      "##止": 7063,
      "##水": 7064,
      "##꽉": 7065,
      "##骨": 7066,
      "##◇": 7067,
      "##슭": 7068,
      "##꽥": 7069,
      "##넛": 7070,
      "##羅": 7071,
      "##筏": 7072,
      "##喩": 7073,
      "##훤": 7074,
      "##큭": 7075,
      "##갸": 7076,
      "##욘": 7077,
      "##憤": 7078,
      "##젱": 7079,
      "##µ": 7080,
      "##깽": 7081,
      "##［": 7082,
      "##盤": 7083,
      "##佳": 7084,
      "##肴": 7085,
      "##⌟": 7086,
      "##罪": 7087,
      "##☻": 7088,
      "##챌": 7089,
      "##둿": 7090,
      "##윅": 7091,
      "##햿": 7092,
      "##珍": 7093,
      "##좨": 7094,
      "##쌘": 7095,
      "##容": 7096,
      "##뭟": 7097,
      "##結": 7098,
      "##石": 7099,
      "##벵": 7100,
      "##☏": 7101,
      "##富": 7102,
      "##川": 7103,
      "##🇰": 7104,
      "##🇷": 7105,
      "##🎵": 7106,
      "##🎶": 7107,
      "##엏": 7108,
      "##派": 7109,
      "##譜": 7110,
      "##班": 7111,
      "##牙": 7112,
      "##볓": 7113,
      "##늪": 7114,
      "##殃": 7115,
      "##펨": 7116,
      "##짒": 7117,
      "##納": 7118,
      "##蔽": 7119,
      "##問": 7120,
      "##쌜": 7121,
      "##벋": 7122,
      "##不": 7123,
      "##均": 7124,
      "##츼": 7125,
      "##폳": 7126,
      "##哲": 7127,
      "##玟": 7128,
      "##㉡": 7129,
      "##要": 7130,
      "##넜": 7131,
      "##益": 7132,
      "##佛": 7133,
      "##켷": 7134,
      "##뵈": 7135,
      "##솄": 7136,
      "##羊": 7137,
      "##導": 7138,
      "##鞭": 7139,
      "##撻": 7140,
      "##任": 7141,
      "##敵": 7142,
      "##兵": 7143,
      "##隊": 7144,
      "##럾": 7145,
      "##μ": 7146,
      "##且": 7147,
      "##嶺": 7148,
      "##脊": 7149,
      "##😭": 7150,
      "##⓶": 7151,
      "##댗": 7152,
      "##安": 7153,
      "##全": 7154,
      "##쨓": 7155,
      "##짗": 7156,
      "##日": 7157,
      "##ㅆ": 7158,
      "##궅": 7159,
      "##類": 7160,
      "##来": 7161,
      "##ㅃ": 7162,
      "##쓔": 7163,
      "##뿍": 7164,
      "##營": 7165,
      "##떙": 7166,
      "##映": 7167,
      "##宣": 7168,
      "##玉": 7169,
      "##辭": 7170,
      "##롼": 7171,
      "##숑": 7172,
      "##궴": 7173,
      "##ā": 7174,
      "##慧": 7175,
      "##졀": 7176,
      "##怜": 7177,
      "##죗": 7178,
      "##玄": 7179,
      "##뮥": 7180,
      "##쎴": 7181,
      "##썅": 7182,
      "##땋": 7183,
      "##獨": 7184,
      "##尊": 7185,
      "##콸": 7186,
      "##됌": 7187,
      "##헜": 7188,
      "##쉈": 7189,
      "##炅": 7190,
      "##俠": 7191,
      "##圭": 7192,
      "##夏": 7193,
      "##뤼": 7194,
      "##궄": 7195,
      "##랸": 7196,
      "##慾": 7197,
      "##릏": 7198,
      "##線": 7199,
      "##꿰": 7200,
      "##直": 7201,
      "##筆": 7202,
      "##范": 7203,
      "##뭋": 7204,
      "##演": 7205,
      "##볘": 7206,
      "##😞": 7207,
      "##읊": 7208,
      "##王": 7209,
      "##됭": 7210,
      "##쏙": 7211,
      "##왼": 7212,
      "##☎": 7213,
      "##神": 7214,
      "##祭": 7215,
      "##삷": 7216,
      "##콱": 7217,
      "##짰": 7218,
      "##씅": 7219,
      "##툻": 7220,
      "##룁": 7221,
      "##|": 7222,
      "##좔": 7223,
      "##域": 7224,
      "##頂": 7225,
      "##햑": 7226,
      "##툥": 7227,
      "##秉": 7228,
      "##浣": 7229,
      "##잴": 7230,
      "##👩": 7231,
      "##컈": 7232,
      "##二": 7233,
      "##킄": 7234,
      "##챡": 7235,
      "##띤": 7236,
      "##늡": 7237,
      "##取": 7238,
      "##崎": 7239,
      "##縣": 7240,
      "##뵁": 7241,
      "##벚": 7242,
      "##넴": 7243,
      "##딥": 7244,
      "##秀": 7245,
      "##執": 7246,
      "##쳄": 7247,
      "##웝": 7248,
      "##륿": 7249,
      "##캥": 7250,
      "##😃": 7251,
      "##♣": 7252,
      "##倍": 7253,
      "##姐": 7254,
      "##〈": 7255,
      "##ᡝ": 7256,
      "##ᡩ": 7257,
      "##ᡵ": 7258,
      "##ᡳ": 7259,
      "##白": 7260,
      "##敗": 7261,
      "##뗍": 7262,
      "##±": 7263,
      "##口": 7264,
      "##怪": 7265,
      "##敢": 7266,
      "##뽐": 7267,
      "##藩": 7268,
      "##벏": 7269,
      "##뜹": 7270,
      "##푝": 7271,
      "##鳩": 7272,
      "##改": 7273,
      "##业": 7274,
      "##从": 7275,
      "##겦": 7276,
      "##읋": 7277,
      "##켭": 7278,
      "##슉": 7279,
      "##愛": 7280,
      "##守": 7281,
      "##👉": 7282,
      "##텋": 7283,
      "##샜": 7284,
      "##앲": 7285,
      "##電": 7286,
      "##쳑": 7287,
      "##뎨": 7288,
      "##홇": 7289,
      "##훰": 7290,
      "##〞": 7291,
      "##븟": 7292,
      "##😤": 7293,
      "##💔": 7294,
      "##😣": 7295,
      "##😂": 7296,
      "##萬": 7297,
      "##쒀": 7298,
      "##😱": 7299,
      "##😘": 7300,
      "##徐": 7301,
      "##門": 7302,
      "##탸": 7303,
      "##욭": 7304,
      "##쎤": 7305,
      "##差": 7306,
      "##別": 7307,
      "##땍": 7308,
      "##멎": 7309,
      "##➡": 7310,
      "##밢": 7311,
      "##😥": 7312,
      "##攻": 7313,
      "##琮": 7314,
      "##빰": 7315,
      "##枋": 7316,
      "##舟": 7317,
      "##給": 7318,
      "##햝": 7319,
      "##欧": 7320,
      "##如": 7321,
      "##妇": 7322,
      "##ⓝ": 7323,
      "##士": 7324,
      "##뗌": 7325,
      "##빱": 7326,
      "##關": 7327,
      "##航": 7328,
      "##空": 7329,
      "##宇": 7330,
      "##宙": 7331,
      "##硏": 7332,
      "##究": 7333,
      "##젞": 7334,
      "##犯": 7335,
      "##킝": 7336,
      "##뒈": 7337,
      "##說": 7338,
      "##土": 7339,
      "##녱": 7340,
      "##礎": 7341,
      "##읙": 7342,
      "##빋": 7343,
      "##傀": 7344,
      "##흩": 7345,
      "##탹": 7346,
      "##∵": 7347,
      "##錫": 7348,
      "##九": 7349,
      "##횃": 7350,
      "##녓": 7351,
      "##죵": 7352,
      "##置": 7353,
      "##퇸": 7354,
      "##긎": 7355,
      "##友": 7356,
      "##퍽": 7357,
      "##꿇": 7358,
      "##럻": 7359,
      "##긒": 7360,
      "##핦": 7361,
      "##뉩": 7362,
      "##맬": 7363,
      "##곗": 7364,
      "##矛": 7365,
      "##盾": 7366,
      "##폇": 7367,
      "##챔": 7368,
      "##奪": 7369,
      "##胎": 7370,
      "##줜": 7371,
      "##칀": 7372,
      "##女": 7373,
      "##場": 7374,
      "##늕": 7375,
      "##떴": 7376,
      "##ː": 7377,
      "##ň": 7378,
      "##볌": 7379,
      "##깻": 7380,
      "##멫": 7381,
      "##債": 7382,
      "##役": 7383,
      "##材": 7384,
      "##手": 7385,
      "##傍": 7386,
      "##觀": 7387,
      "##亂": 7388,
      "##讀": 7389,
      "##症": 7390,
      "##쯩": 7391,
      "##群": 7392,
      "##状": 7393,
      "##况": 7394,
      "##혤": 7395,
      "##陰": 7396,
      "##눼": 7397,
      "##級": 7398,
      "##試": 7399,
      "##ᡤ": 7400,
      "##텆": 7401,
      "##鬼": 7402,
      "##뢍": 7403,
      "##꾄": 7404,
      "##野": 7405,
      "##뼉": 7406,
      "##땨": 7407,
      "##쳇": 7408,
      "##浴": 7409,
      "##껃": 7410,
      "##師": 7411,
      "##": 7412,
      "##둰": 7413,
      "##냬": 7414,
      "##料": 7415,
      "##蔑": 7416,
      "##積": 7417,
      "##묏": 7418,
      "##笑": 7419,
      "##럄": 7420,
      "##较": 7421,
      "##金": 7422,
      "##息": 7423,
      "##變": 7424,
      "##災": 7425,
      "##둴": 7426,
      "##컸": 7427,
      "##姬": 7428,
      "##텻": 7429,
      "##龍": 7430,
      "##뭣": 7431,
      "##◯": 7432,
      "##샙": 7433,
      "##〕": 7434,
      "##짙": 7435,
      "##깆": 7436,
      "##떯": 7437,
      "##病": 7438,
      "##웜": 7439,
      "##危": 7440,
      "##劣": 7441,
      "##革": 7442,
      "##팻": 7443,
      "##罰": 7444,
      "##檢": 7445,
      "##갂": 7446,
      "##깢": 7447,
      "##風": 7448,
      "##加": 7449,
      "##荣": 7450,
      "##냡": 7451,
      "##긘": 7452,
      "##앳": 7453,
      "##藤": 7454,
      "##博": 7455,
      "##삑": 7456,
      "##澤": 7457,
      "##曾": 7458,
      "##经": 7459,
      "##到": 7460,
      "##其": 7461,
      "##載": 7462,
      "##稅": 7463,
      "##죈": 7464,
      "##뻡": 7465,
      "##곸": 7466,
      "##昌": 7467,
      "##賢": 7468,
      "##뻟": 7469,
      "##늧": 7470,
      "##虎": 7471,
      "##數": 7472,
      "##딲": 7473,
      "##뵐": 7474,
      "##섀": 7475,
      "##境": 7476,
      "##눤": 7477,
      "##숯": 7478,
      "##賣": 7479,
      "##떰": 7480,
      "##햔": 7481,
      "##述": 7482,
      "##삻": 7483,
      "##順": 7484,
      "##樂": 7485,
      "##警": 7486,
      "##費": 7487,
      "##聖": 7488,
      "##模": 7489,
      "##땟": 7490,
      "##犬": 7491,
      "##쇽": 7492,
      "##タ": 7493,
      "##졉": 7494,
      "##잦": 7495,
      "##瓦": 7496,
      "##죙": 7497,
      "##핧": 7498,
      "##캍": 7499,
      "##잪": 7500,
      "##ᅵ": 7501,
      "##긁": 7502,
      "##龍": 7503,
      "##得": 7504,
      "##덪": 7505,
      "##󰡐": 7506,
      "##콰": 7507,
      "##了": 7508,
      "##탇": 7509,
      "##今": 7510,
      "##柱": 7511,
      "##띈": 7512,
      "##油": 7513,
      "##此": 7514,
      "##时": 7515,
      "##把": 7516,
      "##华": 7517,
      "##向": 7518,
      "##讹": 7519,
      "##裔": 7520,
      "##或": 7521,
      "##韩": 7522,
      "##以": 7523,
      "##吾": 7524,
      "##先": 7525,
      "##柤": 7526,
      "##汲": 7527,
      "##修": 7528,
      "##섪": 7529,
      "##늫": 7530,
      "##칮": 7531,
      "##㈜": 7532,
      "##件": 7533,
      "##歌": 7534,
      "##봍": 7535,
      "##鳥": 7536,
      "##古": 7537,
      "##破": 7538,
      "##롁": 7539,
      "##學": 7540,
      "##永": 7541,
      "##톄": 7542,
      "##首": 7543,
      "##쨍": 7544,
      "##斷": 7545,
      "##食": 7546,
      "##價": 7547,
      "##維": 7548,
      "##持": 7549,
      "##近": 7550,
      "##뗘": 7551,
      "##넒": 7552,
      "##姓": 7553,
      "##膏": 7554,
      "##示": 7555,
      "##캬": 7556,
      "##겓": 7557,
      "##뤌": 7558,
      "##렧": 7559,
      "##븰": 7560,
      "##字": 7561,
      "##럐": 7562,
      "##僞": 7563,
      "##與": 7564,
      "##否": 7565,
      "##恥": 7566,
      "##辱": 7567,
      "##完": 7568,
      "##숖": 7569,
      "##뱁": 7570,
      "##甚": 7571,
      "##至": 7572,
      "##苦": 7573,
      "##렝": 7574,
      "##괵": 7575,
      "##륐": 7576,
      "##힑": 7577,
      "##슶": 7578,
      "##💖": 7579,
      "##첼": 7580,
      "##긊": 7581,
      "##탼": 7582,
      "##然": 7583,
      "##飞": 7584,
      "##針": 7585,
      "##姪": 7586,
      "##錢": 7587,
      "##묙": 7588,
      "##댸": 7589,
      "##껬": 7590,
      "##😫": 7591,
      "##欠": 7592,
      "##东": 7593,
      "##槿": 7594,
      "##쮸": 7595,
      "##몾": 7596,
      "##描": 7597,
      "##卖": 7598,
      "##淫": 7599,
      "##现": 7600,
      "##见": 7601,
      "##闻": 7602,
      "##퀵": 7603,
      "##俸": 7604,
      "##땃": 7605,
      "##赚": 7606,
      "##謀": 7607,
      "##台": 7608,
      "##湾": 7609,
      "##工": 7610,
      "##耳": 7611,
      "##귿": 7612,
      "##ㄳ": 7613,
      "##읬": 7614,
      "##밪": 7615,
      "##죳": 7616,
      "##疵": 7617,
      "##監": 7618,
      "##ǎ": 7619,
      "##🏼": 7620,
      "##進": 7621,
      "##故": 7622,
      "##春": 7623,
      "##琴": 7624,
      "##選": 7625,
      "##擧": 7626,
      "##렜": 7627,
      "##é": 7628,
      "##五": 7629,
      "##帝": 7630,
      "##뼝": 7631,
      "##唐": 7632,
      "##잿": 7633,
      "##꾿": 7634,
      "##떧": 7635,
      "##即": 7636,
      "##善": 7637,
      "##🚋": 7638,
      "##🚉": 7639,
      "##昇": 7640,
      "##甲": 7641,
      "##턔": 7642,
      "##似": 7643,
      "##解": 7644,
      "##륻": 7645,
      "##智": 7646,
      "##븍": 7647,
      "##퐐": 7648,
      "##贼": 7649,
      "##看": 7650,
      "##准": 7651,
      "##按": 7652,
      "##摩": 7653,
      "##报": 7654,
      "##곟": 7655,
      "##ㅒ": 7656,
      "##前": 7657,
      "##過": 7658,
      "##魄": 7659,
      "##劇": 7660,
      "##勇": 7661,
      "##쳉": 7662,
      "##弼": 7663,
      "##☹": 7664,
      "##👹": 7665,
      "##싑": 7666,
      "##晋": 7667,
      "##빧": 7668,
      "##俱": 7669,
      "##备": 7670,
      "##种": 7671,
      "##选": 7672,
      "##择": 7673,
      "##꺄": 7674,
      "##質": 7675,
      "##蒼": 7676,
      "##園": 7677,
      "##北": 7678,
      "##휵": 7679,
      "##돴": 7680,
      "##첱": 7681,
      "##ⅰ": 7682,
      "##줴": 7683,
      "##泰": 7684,
      "##愚": 7685,
      "##큄": 7686,
      "##죌": 7687,
      "##죚": 7688,
      "##옄": 7689,
      "##닽": 7690,
      "##憂": 7691,
      "##ᅥ": 7692,
      "##ᇣ": 7693,
      "##렺": 7694,
      "##쉑": 7695,
      "##몪": 7696,
      "##밬": 7697,
      "##틍": 7698,
      "##林": 7699,
      "##짞": 7700,
      "##律": 7701,
      "##兄": 7702,
      "##쩃": 7703,
      "##듟": 7704,
      "##싥": 7705,
      "##홧": 7706,
      "##歎": 7707,
      "##夜": 7708,
      "##ｍ": 7709,
      "##烈": 7710,
      "##긌": 7711,
      "##떗": 7712,
      "##笭": 7713,
      "##윱": 7714,
      "##쳥": 7715,
      "##몹": 7716,
      "##삵": 7717,
      "##솨": 7718,
      "##츌": 7719,
      "##🕯": 7720,
      "##🇵": 7721,
      "##쌰": 7722,
      "##옐": 7723,
      "##󰡒": 7724,
      "##😩": 7725,
      "##뉠": 7726,
      "##힢": 7727,
      "##邦": 7728,
      "##仁": 7729,
      "##透": 7730,
      "##露": 7731,
      "##굔": 7732,
      "##斗": 7733,
      "##話": 7734,
      "##无": 7735,
      "##踪": 7736,
      "##影": 7737,
      "##棄": 7738,
      "##꿘": 7739,
      "##쟙": 7740,
      "##店": 7741,
      "##됴": 7742,
      "##윘": 7743,
      "##깋": 7744,
      "##❷": 7745,
      "##託": 7746,
      "##停": 7747,
      "##낵": 7748,
      "##뮙": 7749,
      "##賊": 7750,
      "##反": 7751,
      "##荷": 7752,
      "##杖": 7753,
      "##졳": 7754,
      "##乎": 7755,
      "##恨": 7756,
      "##✴": 7757,
      "##八": 7758,
      "##鏞": 7759,
      "##궝": 7760,
      "##ぼ": 7761,
      "##웈": 7762,
      "##語": 7763,
      "##읕": 7764,
      "##싟": 7765,
      "##禪": 7766,
      "##票": 7767,
      "##貞": 7768,
      "##釋": 7769,
      "##왐": 7770,
      "##科": 7771,
      "##歐": 7772,
      "##亞": 7773,
      "##걨": 7774,
      "##핞": 7775,
      "##듹": 7776,
      "##졓": 7777,
      "##쌧": 7778,
      "##뎇": 7779,
      "##閥": 7780,
      "##궃": 7781,
      "##텽": 7782,
      "##瞞": 7783,
      "##‥": 7784,
      "##情": 7785,
      "##쿰": 7786,
      "##🌶": 7787,
      "##🤮": 7788,
      "##톼": 7789,
      "##펼": 7790,
      "##男": 7791,
      "##式": 7792,
      "##귓": 7793,
      "##뛱": 7794,
      "##뤗": 7795,
      "##릠": 7796,
      "##쑨": 7797,
      "##喆": 7798,
      "##壽": 7799,
      "##椎": 7800,
      "##췼": 7801,
      "##需": 7802,
      "##귝": 7803,
      "##굥": 7804,
      "##商": 7805,
      "##렙": 7806,
      "##톈": 7807,
      "##諸": 7808,
      "##護": 7809,
      "##也": 7810,
      "##违": 7811,
      "##都": 7812,
      "##穆": 7813,
      "##汤": 7814,
      "##蛙": 7815,
      "##튔": 7816,
      "##則": 7817,
      "##踏": 7818,
      "##落": 7819,
      "##땔": 7820,
      "##갉": 7821,
      "##욯": 7822,
      "##잼": 7823,
      "##孫": 7824,
      "##깤": 7825,
      "##🏿": 7826,
      "##純": 7827,
      "##옿": 7828,
      "##끚": 7829,
      "##곀": 7830,
      "##엶": 7831,
      "##蝶": 7832,
      "##朝": 7833,
      "##얌": 7834,
      "##돟": 7835,
      "##臺": 7836,
      "##袋": 7837,
      "##벧": 7838,
      "##炙": 7839,
      "##껭": 7840,
      "##흳": 7841,
      "##😧": 7842,
      "##뻄": 7843,
      "##녿": 7844,
      "##邊": 7845,
      "##談": 7846,
      "##얽": 7847,
      "##젬": 7848,
      "##솬": 7849,
      "##햘": 7850,
      "##틉": 7851,
      "##太": 7852,
      "##イ": 7853,
      "##义": 7854,
      "##앖": 7855,
      "##쇻": 7856,
      "##믓": 7857,
      "##넵": 7858,
      "##ë": 7859,
      "##걑": 7860,
      "##놯": 7861,
      "##룍": 7862,
      "##굻": 7863,
      "##鍾": 7864,
      "##泌": 7865,
      "##＊": 7866,
      "##↞": 7867,
      "##쎠": 7868,
      "##营": 7869,
      "##香": 7870,
      "##港": 7871,
      "##板": 7872,
      "##婚": 7873,
      "##죕": 7874,
      "##¤": 7875,
      "##뎆": 7876,
      "##走": 7877,
      "##濟": 7878,
      "##僚": 7879,
      "##仔": 7880,
      "##쐬": 7881,
      "##⇔": 7882,
      "##某": 7883,
      "##킁": 7884,
      "##홥": 7885,
      "##☰": 7886,
      "##圖": 7887,
      "##機": 7888,
      "##覽": 7889,
      "##＞": 7890,
      "##龜": 7891,
      "##對": 7892,
      "##視": 7893,
      "##옅": 7894,
      "##誌": 7895,
      "##溢": 7896,
      "##限": 7897,
      "##욉": 7898,
      "##갹": 7899,
      "##핛": 7900,
      "##뎀": 7901,
      "##理": 7902,
      "##뱔": 7903,
      "##켛": 7904,
      "##使": 7905,
      "##逸": 7906,
      "##猾": 7907,
      "##燮": 7908,
      "##욷": 7909,
      "##握": 7910,
      "##읨": 7911,
      "##蓮": 7912,
      "##슽": 7913,
      "##殷": 7914,
      "##裝": 7915,
      "##謹": 7916,
      "##뇄": 7917,
      "##累": 7918,
      "##炭": 7919,
      "##짼": 7920,
      "##돡": 7921,
      "##曉": 7922,
      "##光": 7923,
      "##홯": 7924,
      "##엗": 7925,
      "##興": 7926,
      "##校": 7927,
      "##及": 7928,
      "##蒙": 7929,
      "##昧": 7930,
      "##뺕": 7931,
      "##妓": 7932,
      "##寨": 7933,
      "##戌": 7934,
      "##😖": 7935,
      "##욬": 7936,
      "##弄": 7937,
      "##◀": 7938,
      "##쏨": 7939,
      "##❹": 7940,
      "##슛": 7941,
      "##唱": 7942,
      "##몋": 7943,
      "##앎": 7944,
      "##팦": 7945,
      "##溶": 7946,
      "##璿": 7947,
      "##黄": 7948,
      "##座": 7949,
      "##🍁": 7950,
      "##셤": 7951,
      "##乙": 7952,
      "##す": 7953,
      "##め": 7954,
      "##形": 7955,
      "##頗": 7956,
      "##考": 7957,
      "##君": 7958,
      "##車": 7959,
      "##샨": 7960,
      "##ˈ": 7961,
      "##覆": 7962,
      "##身": 7963,
      "##末": 7964,
      "##🧓": 7965,
      "##👴": 7966,
      "##良": 7967,
      "##盲": 7968,
      "##坤": 7969,
      "##雄": 7970,
      "##來": 7971,
      "##픙": 7972,
      "##住": 7973,
      "##솎": 7974,
      "##寬": 7975,
      "##⓹": 7976,
      "##엦": 7977,
      "##쫙": 7978,
      "##體": 7979,
      "##抗": 7980,
      "##爭": 7981,
      "##궨": 7982,
      "##п": 7983,
      "##н": 7984,
      "##с": 7985,
      "##к": 7986,
      "##周": 7987,
      "##띰": 7988,
      "##먈": 7989,
      "##겿": 7990,
      "##🤹": 7991,
      "##👈": 7992,
      "##禧": 7993,
      "##뜷": 7994,
      "##곆": 7995,
      "##❻": 7996,
      "##札": 7997,
      "##쫑": 7998,
      "##脈": 7999,
      "##퇘": 8000,
      "##誠": 8001,
      "##떱": 8002,
      "##뚭": 8003,
      "##💑": 8004,
      "##筵": 8005,
      "##㉢": 8006,
      "##淑": 8007,
      "##聽": 8008,
      "##裂": 8009,
      "##援": 8010,
      "##逆": 8011,
      "##휩": 8012,
      "##퓹": 8013,
      "##뚞": 8014,
      "##핻": 8015,
      "##쉘": 8016,
      "##▣": 8017,
      "##才": 8018,
      "##첞": 8019,
      "##쫏": 8020,
      "##웥": 8021,
      "##烈": 8022,
      "##柏": 8023,
      "##里": 8024,
      "##싴": 8025,
      "##阪": 8026,
      "##뗬": 8027,
      "##잍": 8028,
      "##戒": 8029,
      "##鳴": 8030,
      "##촞": 8031,
      "##霓": 8032,
      "##딯": 8033,
      "##힉": 8034,
      "##薄": 8035,
      "##瑚": 8036,
      "##웩": 8037,
      "##衍": 8038,
      "##⑴": 8039,
      "##쥑": 8040,
      "##椿": 8041,
      "##읶": 8042,
      "##굑": 8043,
      "##豪": 8044,
      "##嫁": 8045,
      "##比": 8046,
      "##ヶ": 8047,
      "##縛": 8048,
      "##瓘": 8049,
      "##⑨": 8050,
      "##ᄒ": 8051,
      "##剔": 8052,
      "##抉": 8053,
      "##df": 8054,
      "##sdf": 8055,
      "##asdf": 8056,
      "##asdfasdf": 8057,
      "##니다": 8058,
      "##asdfasdfasdfasdf": 8059,
      "..": 8060,
      "##습니다": 8061,
      "##으로": 8062,
      "##에서": 8063,
      "##asdfasdfasdfasdfasdfasdfasdfasdf": 8064,
      "##하고": 8065,
      "##하는": 8066,
      "...": 8067,
      "##입니다": 8068,
      "국민": 8069,
      "##다고": 8070,
      "##들이": 8071,
      "##합니다": 8072,
      "있는": 8073,
      "##하여": 8074,
      "##에게": 8075,
      "20": 8076,
      "##지만": 8077,
      "##다는": 8078,
      "사람": 8079,
      "생각": 8080,
      "##--": 8081,
      "##..": 8082,
      "##니까": 8083,
      "##는데": 8084,
      "대한": 8085,
      "##이라": 8086,
      "있습니다": 8087,
      "##!!": 8088,
      "##세요": 8089,
      "##하게": 8090,
      "##들은": 8091,
      "##해서": 8092,
      "asdf": 8093,
      "##asdfasdfasdfasdfasdfasdfasdfasdfasdf": 8094,
      "##asdfasdfasdfasdfasdfasdfasdfasdfasdfasdfasdfasdfasdfasdfasdfasdfasdf": 8095,
      "asdfasdfasdfasdfasdfasdfasdfasdfasdfasdfasdfasdfasdfasdfasdfasdfasdfasdf": 8096,
      "우리": 8097,
      "하는": 8098,
      "합니다": 8099,
      "##면서": 8100,
      "##00": 8101,
      "##리고": 8102,
      "##까지": 8103,
      "아니": 8104,
      "201": 8105,
      "##들의": 8106,
      "##적으로": 8107,
      "##라고": 8108,
      "지금": 8109,
      "##통령": 8110,
      "정부": 8111,
      "하고": 8112,
      "##하지": 8113,
      "이런": 8114,
      "##적인": 8115,
      "것이": 8116,
      "##들을": 8117,
      "##으면": 8118,
      "##었습니다": 8119,
      "대통령": 8120,
      "문제": 8121,
      "나라": 8122,
      "국가": 8123,
      "##대로": 8124,
      "저는": 8125,
      "너무": 8126,
      "##민국": 8127,
      "##주세요": 8128,
      "대한민국": 8129,
      "....": 8130,
      "그런": 8131,
      "##만원": 8132,
      "##다면": 8133,
      "##----": 8134,
      "##해야": 8135,
      "##도록": 8136,
      "##라는": 8137,
      "그리고": 8138,
      "##부터": 8139,
      "##이나": 8140,
      "##렇게": 8141,
      "피해": 8142,
      "한국": 8143,
      "##**": 8144,
      "만들": 8145,
      "국회": 8146,
      "##에는": 8147,
      "없는": 8148,
      "##하면": 8149,
      "아이": 8150,
      "청원": 8151,
      "##이다": 8152,
      "##의원": 8153,
      "##에도": 8154,
      "##이고": 8155,
      "10": 8156,
      "##어서": 8157,
      "##나라": 8158,
      "그러": 8159,
      "많은": 8160,
      "사회": 8161,
      "##들에게": 8162,
      "##사를": 8163,
      "##자가": 8164,
      "##되는": 8165,
      "정말": 8166,
      "##어야": 8167,
      "##기를": 8168,
      "필요": 8169,
      "제가": 8170,
      "모든": 8171,
      "다른": 8172,
      "현재": 8173,
      "##립니다": 8174,
      "##문에": 8175,
      "아닌": 8176,
      "경찰": 8177,
      "##하기": 8178,
      "##무원": 8179,
      "위해": 8180,
      "경제": 8181,
      "이상": 8182,
      "여성": 8183,
      "같은": 8184,
      "세금": 8185,
      "##재인": 8186,
      "##지고": 8187,
      "생각합니다": 8188,
      "##하였": 8189,
      "12": 8190,
      "이유": 8191,
      "하지": 8192,
      "문재인": 8193,
      "##!!!!": 8194,
      "아무": 8195,
      "있다": 8196,
      "##있는": 8197,
      "##시간": 8198,
      "2018": 8199,
      "##네요": 8200,
      "##되어": 8201,
      "##@@": 8202,
      "##겠습니다": 8203,
      "##라도": 8204,
      "정책": 8205,
      "들어": 8206,
      "##리를": 8207,
      "##가요": 8208,
      "##주시": 8209,
      "저희": 8210,
      "##지는": 8211,
      "사건": 8212,
      "사실": 8213,
      "다시": 8214,
      "##으며": 8215,
      "사용": 8216,
      "하지만": 8217,
      "경우": 8218,
      "국회의원": 8219,
      "없습니다": 8220,
      "많이": 8221,
      "해야": 8222,
      "상황": 8223,
      "##십시": 8224,
      "##에서는": 8225,
      "입니다": 8226,
      "공무원": 8227,
      "##보다": 8228,
      "##한다": 8229,
      "민원": 8230,
      "##리는": 8231,
      "그래": 8232,
      "##인데": 8233,
      "##기업": 8234,
      "내용": 8235,
      "또한": 8236,
      "##사람": 8237,
      "것입니다": 8238,
      "##...": 8239,
      "11": 8240,
      "이렇게": 8241,
      "모르": 8242,
      "##랍니다": 8243,
      "##이라고": 8244,
      "##까요": 8245,
      "##하며": 8246,
      "서울": 8247,
      "것은": 8248,
      "##거나": 8249,
      "정치": 8250,
      "개인": 8251,
      "##가는": 8252,
      "모두": 8253,
      "##나요": 8254,
      "근로": 8255,
      "##기에": 8256,
      "##자는": 8257,
      "지원": 8258,
      "##습니까": 8259,
      "##??": 8260,
      "시간": 8261,
      "그런데": 8262,
      "##들도": 8263,
      "않는": 8264,
      "어떻": 8265,
      "자신": 8266,
      "##이라는": 8267,
      "받아": 8268,
      "##처럼": 8269,
      "하였": 8270,
      "제발": 8271,
      "우리나라": 8272,
      "않고": 8273,
      "##금을": 8274,
      "한다": 8275,
      "##인이": 8276,
      "범죄": 8277,
      "교육": 8278,
      "##지도": 8279,
      "##사가": 8280,
      "##려고": 8281,
      "관련": 8282,
      "##되고": 8283,
      "##것이": 8284,
      "이제": 8285,
      "어떻게": 8286,
      "아니라": 8287,
      "해결": 8288,
      "것을": 8289,
      "처벌": 8290,
      "##--------": 8291,
      "부탁": 8292,
      "##없이": 8293,
      "##하시": 8294,
      "##지를": 8295,
      "계속": 8296,
      "때문에": 8297,
      "되는": 8298,
      "여러": 8299,
      "행정": 8300,
      "만들어": 8301,
      "위한": 8302,
      "잘못": 8303,
      "##주의": 8304,
      "대통령님": 8305,
      "하나": 8306,
      "사업": 8307,
      "바랍니다": 8308,
      "##했습니다": 8309,
      "##드립니다": 8310,
      "##자를": 8311,
      "##학교": 8312,
      "지급": 8313,
      "민주": 8314,
      "##다가": 8315,
      "##것도": 8316,
      "국민의": 8317,
      "있을": 8318,
      "책임": 8319,
      "불법": 8320,
      "살아": 8321,
      "얼마": 8322,
      "##와대": 8323,
      "하루": 8324,
      "알고": 8325,
      "##는지": 8326,
      "하여": 8327,
      "보고": 8328,
      "청와대": 8329,
      "##자리": 8330,
      "##장을": 8331,
      "##연금": 8332,
      "병원": 8333,
      "학생": 8334,
      "자기": 8335,
      "북한": 8336,
      "##정을": 8337,
      "##인지": 8338,
      "이용": 8339,
      "##같은": 8340,
      "이러": 8341,
      "##았습니다": 8342,
      "##없는": 8343,
      "##사는": 8344,
      "ww": 8345,
      "힘들": 8346,
      "관리": 8347,
      "##자의": 8348,
      "##됩니다": 8349,
      "중국": 8350,
      "지역": 8351,
      "2018년": 8352,
      "##기관": 8353,
      "일본": 8354,
      "##지않": 8355,
      "마음": 8356,
      "기업": 8357,
      "대해": 8358,
      "되어": 8359,
      "학교": 8360,
      "아닙": 8361,
      "현실": 8362,
      "따라": 8363,
      "##파트": 8364,
      "발생": 8365,
      "근무": 8366,
      "최저": 8367,
      "##할수": 8368,
      "##동산": 8369,
      "자유": 8370,
      "##으나": 8371,
      "100": 8372,
      "사람이": 8373,
      "없이": 8374,
      "##하다": 8375,
      "정신": 8376,
      "##시고": 8377,
      "사고": 8378,
      "서민": 8379,
      "##~~": 8380,
      "##기도": 8381,
      "가족": 8382,
      "감사": 8383,
      "##정부": 8384,
      "##이상": 8385,
      "바로": 8386,
      "##아서": 8387,
      "##장이": 8388,
      "이해": 8389,
      "##해주": 8390,
      "전화": 8391,
      "##지요": 8392,
      "##것은": 8393,
      "부동산": 8394,
      "가능": 8395,
      "일을": 8396,
      "##기가": 8397,
      "있고": 8398,
      "##있습니다": 8399,
      "##으니": 8400,
      "제대로": 8401,
      "##어나": 8402,
      "그래서": 8403,
      "30": 8404,
      "##했다": 8405,
      "그냥": 8406,
      "일반": 8407,
      "정도": 8408,
      "직원": 8409,
      "##하면서": 8410,
      "해서": 8411,
      "받고": 8412,
      "누구": 8413,
      "##개월": 8414,
      "회사": 8415,
      "억울": 8416,
      "운영": 8417,
      "어려": 8418,
      "일부": 8419,
      "확인": 8420,
      "##동안": 8421,
      "해당": 8422,
      "##지가": 8423,
      "그렇게": 8424,
      "##리가": 8425,
      "제도": 8426,
      "것이다": 8427,
      "이번": 8428,
      "보호": 8429,
      "##시키": 8430,
      "##들과": 8431,
      "***": 8432,
      "답변": 8433,
      "미국": 8434,
      "##십시오": 8435,
      "있도록": 8436,
      "**": 8437,
      "이게": 8438,
      "##해도": 8439,
      "노동": 8440,
      "##원을": 8441,
      "있었": 8442,
      "없어": 8443,
      "##....": 8444,
      "있는데": 8445,
      "가장": 8446,
      "##수가": 8447,
      "일자리": 8448,
      "물론": 8449,
      "##상을": 8450,
      "안전": 8451,
      "소득": 8452,
      "##복지": 8453,
      "외국": 8454,
      "요청": 8455,
      "##하세요": 8456,
      "##입니까": 8457,
      "부모": 8458,
      "아직": 8459,
      "##정도": 8460,
      "##한테": 8461,
      "하면": 8462,
      "생활": 8463,
      "##가지": 8464,
      "####": 8465,
      "##이라도": 8466,
      "##@@@": 8467,
      "그렇": 8468,
      "않습니다": 8469,
      "방법": 8470,
      "##부분": 8471,
      "했습니다": 8472,
      "어떤": 8473,
      ",,": 8474,
      "나오": 8475,
      "본인": 8476,
      "##력을": 8477,
      "##원이": 8478,
      "없다": 8479,
      "한번": 8480,
      "##하는데": 8481,
      "사람들이": 8482,
      "아파트": 8483,
      "도와": 8484,
      "의무": 8485,
      "##이트": 8486,
      "남성": 8487,
      "조사": 8488,
      "##것을": 8489,
      "주시": 8490,
      "신고": 8491,
      "##기는": 8492,
      "없고": 8493,
      "진행": 8494,
      "처리": 8495,
      "같이": 8496,
      "그러나": 8497,
      "##한다고": 8498,
      "계약": 8499,
      "말이": 8500,
      "택시": 8501,
      "이미": 8502,
      "좋은": 8503,
      "있다고": 8504,
      "이러한": 8505,
      "##보험": 8506,
      "19": 8507,
      "한다고": 8508,
      "무슨": 8509,
      "어느": 8510,
      "부탁드립니다": 8511,
      "##임금": 8512,
      "##되었": 8513,
      "신청": 8514,
      "##세먼": 8515,
      "##아야": 8516,
      "지난": 8517,
      "위해서": 8518,
      "청년": 8519,
      "시작": 8520,
      "##자로": 8521,
      "##권을": 8522,
      "18": 8523,
      "돈을": 8524,
      "안녕": 8525,
      "??": 8526,
      "언론": 8527,
      "장애": 8528,
      "되었": 8529,
      "문제가": 8530,
      "결과": 8531,
      "##어도": 8532,
      "인간": 8533,
      "하는데": 8534,
      "##군요": 8535,
      "##께서": 8536,
      "지방": 8537,
      "돌아": 8538,
      "##==": 8539,
      "않은": 8540,
      "수사": 8541,
      "요구": 8542,
      "업무": 8543,
      "##생활": 8544,
      "##에서도": 8545,
      "것으로": 8546,
      "##12": 8547,
      "아닙니다": 8548,
      "못하고": 8549,
      "국민이": 8550,
      "일이": 8551,
      "어디": 8552,
      "##시는": 8553,
      "됩니다": 8554,
      "미세먼": 8555,
      "##제로": 8556,
      "##전에": 8557,
      "같습니다": 8558,
      "##정이": 8559,
      "않았": 8560,
      "보험": 8561,
      "의원": 8562,
      "또는": 8563,
      "##더니": 8564,
      "##위원": 8565,
      "##어요": 8566,
      "시행": 8567,
      "직접": 8568,
      "가지고": 8569,
      "할수": 8570,
      "이야": 8571,
      "담당": 8572,
      "국민연금": 8573,
      "##시켜": 8574,
      "대출": 8575,
      "대구": 8576,
      "해주": 8577,
      "생계": 8578,
      "건강": 8579,
      "ht": 8580,
      "통해": 8581,
      "##이가": 8582,
      "200": 8583,
      "어린": 8584,
      "고통": 8585,
      "##가고": 8586,
      "##구요": 8587,
      "##해주세요": 8588,
      "보면": 8589,
      "1년": 8590,
      "적폐": 8591,
      "##이는": 8592,
      "않을": 8593,
      "##십시요": 8594,
      "대학": 8595,
      "하면서": 8596,
      "##하다고": 8597,
      "##자들이": 8598,
      "##제를": 8599,
      "주세요": 8600,
      "당연": 8601,
      "라고": 8602,
      "인정": 8603,
      "도움": 8604,
      "개선": 8605,
      "##이며": 8606,
      "저의": 8607,
      "##성을": 8608,
      "무엇": 8609,
      "요즘": 8610,
      "월급": 8611,
      "조금": 8612,
      "##료를": 8613,
      "##자들": 8614,
      "결국": 8615,
      "뉴스": 8616,
      "판결": 8617,
      "##시다": 8618,
      "##이지": 8619,
      "반대": 8620,
      "때문": 8621,
      "살고": 8622,
      "다음": 8623,
      "받을": 8624,
      "##인가": 8625,
      "보내": 8626,
      "##규직": 8627,
      "글을": 8628,
      "##의를": 8629,
      "##력이": 8630,
      "15": 8631,
      "##보고": 8632,
      "받는": 8633,
      "정권": 8634,
      "기준": 8635,
      "최저임금": 8636,
      "사기": 8637,
      "000": 8638,
      "전혀": 8639,
      "대표": 8640,
      "국민을": 8641,
      "##치를": 8642,
      "판단": 8643,
      "되었습니다": 8644,
      "거래": 8645,
      "##수를": 8646,
      "##머니": 8647,
      "시민": 8648,
      "국민들이": 8649,
      "고소": 8650,
      "있다는": 8651,
      "해외": 8652,
      "당신": 8653,
      "##!!!!!!!!": 8654,
      "환경": 8655,
      "검찰": 8656,
      "대해서": 8657,
      "##비를": 8658,
      "얼마나": 8659,
      "삼성": 8660,
      "기본": 8661,
      "중요": 8662,
      "##당한": 8663,
      "##겁니다": 8664,
      "정보": 8665,
      "상태": 8666,
      "고용": 8667,
      "부분": 8668,
      "##대한": 8669,
      "##히려": 8670,
      "##더군요": 8671,
      "당시": 8672,
      "##급여": 8673,
      "##정한": 8674,
      "##하라": 8675,
      "인해": 8676,
      "미래": 8677,
      "찾아": 8678,
      "##사업": 8679,
      "오히려": 8680,
      "주민": 8681,
      "##tp": 8682,
      "##제도": 8683,
      "대부분": 8684,
      "##서를": 8685,
      "적용": 8686,
      "되고": 8687,
      "##사의": 8688,
      "증거": 8689,
      "말씀": 8690,
      "##교육": 8691,
      "http": 8692,
      "봅니다": 8693,
      "수도": 8694,
      "##주택": 8695,
      "강력": 8696,
      "##성이": 8697,
      "##인의": 8698,
      "차량": 8699,
      "세계": 8700,
      "##하였습니다": 8701,
      "##하겠": 8702,
      "2019": 8703,
      "금액": 8704,
      "50": 8705,
      "그만": 8706,
      "행위": 8707,
      "##인을": 8708,
      "가해": 8709,
      "이루": 8710,
      "방송": 8711,
      "연락": 8712,
      "함께": 8713,
      "의료": 8714,
      "##명을": 8715,
      "##장은": 8716,
      "##국민": 8717,
      "취업": 8718,
      "##주고": 8719,
      "국민들": 8720,
      "##상이": 8721,
      "문화": 8722,
      "이후": 8723,
      "언제": 8724,
      "해주세요": 8725,
      "##주는": 8726,
      "오늘": 8727,
      "예산": 8728,
      "##한다는": 8729,
      "누가": 8730,
      "혜택": 8731,
      "##병원": 8732,
      "관계": 8733,
      "##기간": 8734,
      "하게": 8735,
      "필요한": 8736,
      "정부가": 8737,
      "기초": 8738,
      "헌법": 8739,
      "##영업": 8740,
      "##23": 8741,
      "##심히": 8742,
      "그럼": 8743,
      "어렵": 8744,
      "특히": 8745,
      "##되지": 8746,
      "재산": 8747,
      "다니": 8748,
      "##자들은": 8749,
      "폐지": 8750,
      "##자에": 8751,
      "안녕하세요": 8752,
      "##놓고": 8753,
      "좋겠습니다": 8754,
      "해도": 8755,
      "##자에게": 8756,
      "##더라도": 8757,
      "당장": 8758,
      "이에": 8759,
      "라는": 8760,
      "##비스": 8761,
      "##명이": 8762,
      "재판": 8763,
      "##보니": 8764,
      "##사고": 8765,
      "##----------------": 8766,
      "거짓": 8767,
      "##되었습니다": 8768,
      "##학생": 8769,
      "아니고": 8770,
      "##장에서": 8771,
      "먼저": 8772,
      "열심히": 8773,
      "##정은": 8774,
      "복지": 8775,
      "투자": 8776,
      "하였습니다": 8777,
      "사법": 8778,
      "##동을": 8779,
      "##//": 8780,
      "##일이": 8781,
      "##때문에": 8782,
      "##마다": 8783,
      "##체가": 8784,
      "부담": 8785,
      "이를": 8786,
      "##행을": 8787,
      "인권": 8788,
      "지나": 8789,
      "앞으로": 8790,
      "##려는": 8791,
      "내가": 8792,
      "처음": 8793,
      "##동차": 8794,
      "여기": 8795,
      "피해를": 8796,
      "정부는": 8797,
      "되지": 8798,
      "인터": 8799,
      "##정책": 8800,
      "없다고": 8801,
      "알려": 8802,
      "://": 8803,
      "##등학교": 8804,
      "올라": 8805,
      "하며": 8806,
      "##서는": 8807,
      "##것입니다": 8808,
      "##겠지만": 8809,
      "##식을": 8810,
      "이유로": 8811,
      "##중에": 8812,
      "최근": 8813,
      "너무나": 8814,
      "???": 8815,
      "심각": 8816,
      "없애": 8817,
      "......": 8818,
      "국내": 8819,
      "2년": 8820,
      "40": 8821,
      "사는": 8822,
      "운전": 8823,
      "지지": 8824,
      "##장에": 8825,
      "##드시": 8826,
      "##겠습니까": 8827,
      "##가를": 8828,
      "##대통령": 8829,
      "발전": 8830,
      "인상": 8831,
      "진짜": 8832,
      "##소득": 8833,
      "말을": 8834,
      "##받고": 8835,
      "지켜": 8836,
      "공개": 8837,
      "포함": 8838,
      "미세먼지": 8839,
      "##대를": 8840,
      "##같이": 8841,
      "대책": 8842,
      "이건": 8843,
      "생각이": 8844,
      "보여": 8845,
      "##ce": 8846,
      "##들어": 8847,
      "건설": 8848,
      "##로운": 8849,
      "공공": 8850,
      "대기업": 8851,
      "##화를": 8852,
      "##원의": 8853,
      "받은": 8854,
      "주택": 8855,
      "으로": 8856,
      "자신의": 8857,
      "##구하고": 8858,
      "12월": 8859,
      "##수있": 8860,
      "안된": 8861,
      "##리에": 8862,
      "민주당": 8863,
      "밖에": 8864,
      "국방": 8865,
      "있어": 8866,
      "##기로": 8867,
      "부족": 8868,
      "##33": 8869,
      "##지역": 8870,
      "##10": 8871,
      "엄청": 8872,
      "청소": 8873,
      "##었다": 8874,
      "!!!": 8875,
      "##부를": 8876,
      "많습니다": 8877,
      "자영업": 8878,
      "##인은": 8879,
      "##려면": 8880,
      "##문제": 8881,
      "##조건": 8882,
      "있게": 8883,
      "분명": 8884,
      "설치": 8885,
      "co": 8886,
      "가정": 8887,
      "반드시": 8888,
      "아버": 8889,
      "떨어": 8890,
      "##사건": 8891,
      "##십니까": 8892,
      "##SD": 8893,
      "##번호": 8894,
      "##므로": 8895,
      "중소": 8896,
      "##가서": 8897,
      "사람들": 8898,
      "최소": 8899,
      "##스템": 8900,
      "##치는": 8901,
      "의해": 8902,
      "주장": 8903,
      "!!": 8904,
      "2017": 8905,
      "25": 8906,
      "동물": 8907,
      "나라가": 8908,
      "##업체": 8909,
      "##대체": 8910,
      "돈이": 8911,
      "치료": 8912,
      "##식으로": 8913,
      "##수당": 8914,
      "##아요": 8915,
      "기간": 8916,
      "##스로": 8917,
      "게시": 8918,
      "##관계": 8919,
      "마련": 8920,
      "전국": 8921,
      "교통": 8922,
      "법을": 8923,
      "##시에": 8924,
      "##하도록": 8925,
      "못하는": 8926,
      "이루어": 8927,
      "##가족": 8928,
      "가입": 8929,
      "더욱": 8930,
      "##스럽": 8931,
      "##도로": 8932,
      "결정": 8933,
      "피해자": 8934,
      "의견": 8935,
      "##되면": 8936,
      "##심을": 8937,
      "기사": 8938,
      "절대": 8939,
      "##적이": 8940,
      "안되는": 8941,
      "임금": 8942,
      "것도": 8943,
      "경남": 8944,
      "대한민국의": 8945,
      "부산": 8946,
      "기회": 8947,
      "보다": 8948,
      "##겠다": 8949,
      "##ac": 8950,
      "##밖에": 8951,
      "주는": 8952,
      "##하나": 8953,
      "##인가요": 8954,
      "결혼": 8955,
      "##으로서": 8956,
      "##하니": 8957,
      "구속": 8958,
      "##조차": 8959,
      "힘든": 8960,
      "대하여": 8961,
      "##근혜": 8962,
      ".!": 8963,
      "##장님": 8964,
      "##대에": 8965,
      "수준": 8966,
      "##0만원": 8967,
      "장애인": 8968,
      "인터넷": 8969,
      "##센터": 8970,
      "국민들의": 8971,
      "아니면": 8972,
      "제공": 8973,
      "존재": 8974,
      "기다": 8975,
      "##위원회": 8976,
      "말고": 8977,
      "노력": 8978,
      "못한": 8979,
      "내려": 8980,
      "외국인": 8981,
      "전세": 8982,
      "de": 8983,
      "저에게": 8984,
      "불구하고": 8985,
      "##원에": 8986,
      "##셔서": 8987,
      "거의": 8988,
      "까지": 8989,
      "##대표": 8990,
      "어려운": 8991,
      "자격": 8992,
      "##보면": 8993,
      "에서": 8994,
      "##운전": 8995,
      "받았": 8996,
      "##ff": 8997,
      "싶습니다": 8998,
      "##대가": 8999,
      "무시": 9000,
      "도대체": 9001,
      "여자": 9002,
      "##관리": 9003,
      "위험": 9004,
      "10년": 9005,
      "생계급여": 9006,
      "유치": 9007,
      "이는": 9008,
      "있으며": 9009,
      "받지": 9010,
      "##행위": 9011,
      "##EW": 9012,
      "##범죄": 9013,
      "사람은": 9014,
      "아주": 9015,
      "정의": 9016,
      "##르고": 9017,
      "##이면": 9018,
      "과연": 9019,
      "금융": 9020,
      "주변": 9021,
      "하시": 9022,
      "##DD": 9023,
      "비용": 9024,
      "##겠다고": 9025,
      "시험": 9026,
      "우선": 9027,
      "진정": 9028,
      "##내용": 9029,
      "먹고": 9030,
      "##명의": 9031,
      "##****": 9032,
      "기관": 9033,
      "212": 9034,
      "##$@": 9035,
      "##업을": 9036,
      "DD": 9037,
      "선택": 9038,
      "세상": 9039,
      "##VV": 9040,
      "과거": 9041,
      "##정보": 9042,
      "##QS": 9043,
      "!$@": 9044,
      "aac": 9045,
      "dE": 9046,
      "전문": 9047,
      "##D33": 9048,
      "##!!...": 9049,
      "12QS": 9050,
      "1123": 9051,
      "##ceD33": 9052,
      "##ffDD": 9053,
      "##EWF": 9054,
      "!$@#": 9055,
      "aacceD33": 9056,
      "dEEWF": 9057,
      "12QSSD": 9058,
      "##ffDDVV": 9059,
      "aacceD33ffDDVV": 9060,
      "##부가": 9061,
      "!..": 9062,
      "##많은": 9063,
      "##들에": 9064,
      "##!...": 9065,
      "#####": 9066,
      "#$": 9067,
      "qq": 9068,
      "..###": 9069,
      "##@@@!!...": 9070,
      "!$@#%": 9071,
      "#$@@@!!...": 9072,
      "..###@@@": 9073,
      "동의": 9074,
      "넘어": 9075,
      "##안을": 9076,
      "##했던": 9077,
      "의사": 9078,
      "추가": 9079,
      "!$@#%!...": 9080,
      "##드는": 9081,
      "##계약": 9082,
      "@.": 9083,
      "##었고": 9084,
      "##구청": 9085,
      "##치고": 9086,
      "나이": 9087,
      "있어서": 9088,
      "##호사": 9089,
      "겁니다": 9090,
      "한다는": 9091,
      "##도를": 9092,
      "모습": 9093,
      "시키": 9094,
      "임대": 9095,
      "차별": 9096,
      "출산": 9097,
      "##지원": 9098,
      "13": 9099,
      "동안": 9100,
      "아무런": 9101,
      "말도": 9102,
      "잘못된": 9103,
      "매우": 9104,
      "불가": 9105,
      "법률": 9106,
      "##00만원": 9107,
      "##수도": 9108,
      "있지만": 9109,
      "##생님": 9110,
      "정부의": 9111,
      "친구": 9112,
      "검사": 9113,
      "##으면서": 9114,
      "##장의": 9115,
      "된다": 9116,
      "등의": 9117,
      "채용": 9118,
      "##회사": 9119,
      "행복": 9120,
      "##이란": 9121,
      "각종": 9122,
      "나라를": 9123,
      "제출": 9124,
      "박근혜": 9125,
      "남자": 9126,
      "희망": 9127,
      "강제": 9128,
      "##물을": 9129,
      "##기고": 9130,
      "등을": 9131,
      "올려": 9132,
      "행동": 9133,
      "##일을": 9134,
      "선거": 9135,
      "가격": 9136,
      "##20": 9137,
      "위하여": 9138,
      "##거리": 9139,
      "담배": 9140,
      "엄마": 9141,
      "##셨으면": 9142,
      "14": 9143,
      "##조사": 9144,
      "##아니": 9145,
      "나는": 9146,
      "##세를": 9147,
      "주고": 9148,
      "중소기업": 9149,
      "##*-": 9150,
      "##ew": 9151,
      "이야기": 9152,
      "정상": 9153,
      "유지": 9154,
      "공정": 9155,
      "##사회": 9156,
      "내용이": 9157,
      "부터": 9158,
      "성폭": 9159,
      "갑질": 9160,
      "빨리": 9161,
      "작성": 9162,
      "여러분": 9163,
      "어린이": 9164,
      "급여": 9165,
      "##말고": 9166,
      "서로": 9167,
      "없다는": 9168,
      "##경찰": 9169,
      "이익": 9170,
      "##하지만": 9171,
      "사람들은": 9172,
      "##하거나": 9173,
      "##저히": 9174,
      "1월": 9175,
      "소비": 9176,
      "기술": 9177,
      "##와서": 9178,
      "분양": 9179,
      "음주": 9180,
      "연금": 9181,
      "##하신": 9182,
      "##였습니다": 9183,
      "##등을": 9184,
      "##부는": 9185,
      "아직도": 9186,
      "직장": 9187,
      "##실을": 9188,
      "##법을": 9189,
      "##했고": 9190,
      "가져": 9191,
      "##*-*-": 9192,
      "##을때": 9193,
      "노인": 9194,
      "##년도": 9195,
      "##관이": 9196,
      "도로": 9197,
      "##자들의": 9198,
      "세금을": 9199,
      "받아야": 9200,
      "만든": 9201,
      "##법원": 9202,
      "아무리": 9203,
      "변경": 9204,
      "자동차": 9205,
      "인한": 9206,
      "##다니": 9207,
      "8월": 9208,
      "##해주시": 9209,
      "더이상": 9210,
      "판사": 9211,
      "수가": 9212,
      "##는게": 9213,
      "참여": 9214,
      "정책을": 9215,
      "##차를": 9216,
      "은행": 9217,
      "##시설": 9218,
      "당연히": 9219,
      "##우고": 9220,
      "국민들은": 9221,
      "우리가": 9222,
      "이제는": 9223,
      "##하던": 9224,
      "지금까지": 9225,
      "##자와": 9226,
      "경쟁": 9227,
      "저를": 9228,
      "##문을": 9229,
      "정부에서": 9230,
      "수정": 9231,
      "폭행": 9232,
      "##위해": 9233,
      "##스트": 9234,
      "있어야": 9235,
      "이름": 9236,
      "자녀": 9237,
      "스스로": 9238,
      "대상": 9239,
      "##경제": 9240,
      "무조건": 9241,
      "개발": 9242,
      "##식이": 9243,
      "있었습니다": 9244,
      "##냐고": 9245,
      "사람을": 9246,
      "특별": 9247,
      "바뀌": 9248,
      "##er": 9249,
      "만약": 9250,
      "안되": 9251,
      "않아": 9252,
      "##====": 9253,
      "##해라": 9254,
      "청원합니다": 9255,
      "준비": 9256,
      "불편": 9257,
      "되면": 9258,
      "우리는": 9259,
      "##내고": 9260,
      "그대로": 9261,
      "##만이": 9262,
      "이유는": 9263,
      "수술": 9264,
      "올해": 9265,
      "##이를": 9266,
      "##지어": 9267,
      "##한국": 9268,
      "##하시는": 9269,
      "올리": 9270,
      "있음": 9271,
      "자살": 9272,
      "##하자": 9273,
      "##부모": 9274,
      "##분이": 9275,
      "##심이": 9276,
      "지키": 9277,
      "있는지": 9278,
      "##제약": 9279,
      "##id": 9280,
      "비정": 9281,
      "퇴직": 9282,
      "바라": 9283,
      "##되어야": 9284,
      "##ㅋㅋ": 9285,
      "##이라면": 9286,
      "없을": 9287,
      "##지지": 9288,
      "등록": 9289,
      "사망": 9290,
      "근데": 9291,
      "이어": 9292,
      "##우는": 9293,
      "사실을": 9294,
      "##문화": 9295,
      "##~~~~": 9296,
      "##라면": 9297,
      "https": 9298,
      "부모님": 9299,
      "청소년": 9300,
      "##지로": 9301,
      "2019년": 9302,
      "더불": 9303,
      "##정에": 9304,
      "강화": 9305,
      "17": 9306,
      "가진": 9307,
      "##당장": 9308,
      "정규직": 9309,
      "제외": 9310,
      "##소를": 9311,
      "16": 9312,
      "나서": 9313,
      "##체를": 9314,
      "제한": 9315,
      "한달": 9316,
      "##함을": 9317,
      "##거래": 9318,
      "##했다고": 9319,
      "사이": 9320,
      "일어나": 9321,
      "##받는": 9322,
      "##복무": 9323,
      "국민은": 9324,
      "알아": 9325,
      "이해가": 9326,
      "저도": 9327,
      "모르는": 9328,
      "어머니": 9329,
      "소송": 9330,
      "##만큼": 9331,
      "##으로써": 9332,
      "답답": 9333,
      "독립": 9334,
      "##러운": 9335,
      "사무": 9336,
      "생각을": 9337,
      "##복지국": 9338,
      "고객": 9339,
      "경남제약": 9340,
      "##원은": 9341,
      "##오는": 9342,
      "지속": 9343,
      "산업": 9344,
      "서비스": 9345,
      "보상": 9346,
      "손혜": 9347,
      "개혁": 9348,
      "시켜": 9349,
      "전부": 9350,
      "##건가요": 9351,
      "신경": 9352,
      "주차": 9353,
      "하기": 9354,
      "##공사": 9355,
      "남편": 9356,
      "##져야": 9357,
      "com": 9358,
      "민주주의": 9359,
      "##만을": 9360,
      "24": 9361,
      "##겠다는": 9362,
      "하니": 9363,
      "가는": 9364,
      "행정복지국": 9365,
      "사회적": 9366,
      "##금이": 9367,
      "2016": 9368,
      "서류": 9369,
      "고발": 9370,
      "##분들": 9371,
      "3년": 9372,
      "기존": 9373,
      "단속": 9374,
      "바꾸": 9375,
      "했는데": 9376,
      "##가가": 9377,
      "60": 9378,
      "댓글": 9379,
      "좋아": 9380,
      "충분": 9381,
      "그때": 9382,
      "보장": 9383,
      "##임을": 9384,
      "##운동": 9385,
      "##프로": 9386,
      "연봉": 9387,
      "허위": 9388,
      "문제는": 9389,
      "##기준": 9390,
      "감사합니다": 9391,
      "규제": 9392,
      "##전히": 9393,
      "##........": 9394,
      "쓰레": 9395,
      "젊은": 9396,
      "##원에서": 9397,
      "대체": 9398,
      "##했는데": 9399,
      "물어": 9400,
      "나가": 9401,
      "##합니까": 9402,
      "시스템": 9403,
      "정당": 9404,
      "조작": 9405,
      "국가가": 9406,
      "따라서": 9407,
      "심지어": 9408,
      "추진": 9409,
      "중요한": 9410,
      "더불어": 9411,
      "##도가": 9412,
      "##수의": 9413,
      "##생각": 9414,
      "권력": 9415,
      "항상": 9416,
      "##처리": 9417,
      "지금당장": 9418,
      "촛불": 9419,
      "##없고": 9420,
      "##건지": 9421,
      "##듯이": 9422,
      "사과": 9423,
      "판매": 9424,
      "부디": 9425,
      "##기사": 9426,
      "개정": 9427,
      "01": 9428,
      "##물의": 9429,
      "##읍니다": 9430,
      "작은": 9431,
      "일하는": 9432,
      "정확": 9433,
      "##단체": 9434,
      "민간": 9435,
      "자연": 9436,
      "돌려": 9437,
      "##민주": 9438,
      "아이를": 9439,
      "인사": 9440,
      "버스": 9441,
      "##지방": 9442,
      "##르게": 9443,
      "사라": 9444,
      "공부": 9445,
      "따른": 9446,
      "##리지": 9447,
      "전환": 9448,
      "##먹고": 9449,
      "못하게": 9450,
      "##한다면": 9451,
      "얘기": 9452,
      "등등": 9453,
      "그동안": 9454,
      "했다": 9455,
      "##노동": 9456,
      "##000": 9457,
      "아닌가요": 9458,
      "책임을": 9459,
      "사랑": 9460,
      "##하라고": 9461,
      "어찌": 9462,
      "역시": 9463,
      "없어서": 9464,
      "##위를": 9465,
      "##생을": 9466,
      "지하": 9467,
      "밝혀": 9468,
      "##건에": 9469,
      "##공무원": 9470,
      "매일": 9471,
      "2017년": 9472,
      "검토": 9473,
      "해주시": 9474,
      "##시키고": 9475,
      "김정은": 9476,
      "보는": 9477,
      "##렸습니다": 9478,
      "줄어": 9479,
      "설명": 9480,
      "아닙니까": 9481,
      "##일에": 9482,
      "##고를": 9483,
      "직업": 9484,
      "문제를": 9485,
      "아래": 9486,
      "안됩니다": 9487,
      "상황이": 9488,
      "때문입니다": 9489,
      "),": 9490,
      "조합": 9491,
      "##나고": 9492,
      "일어": 9493,
      "사이트": 9494,
      "접수": 9495,
      "##치가": 9496,
      "##집니다": 9497,
      "보이": 9498,
      "이전": 9499,
      "##도시": 9500,
      "비정규직": 9501,
      "시설": 9502,
      "##왔습니다": 9503,
      "저지": 9504,
      "##부의": 9505,
      "##한국당": 9506,
      "선생님": 9507,
      "혼자": 9508,
      "없었": 9509,
      "지금도": 9510,
      "가서": 9511,
      "##년간": 9512,
      "지금은": 9513,
      "집값": 9514,
      "가지": 9515,
      "근로자": 9516,
      "관한": 9517,
      "차단": 9518,
      "##ti": 9519,
      "도와주세요": 9520,
      "##된다": 9521,
      ".)": 9522,
      "중구청": 9523,
      "확실": 9524,
      "활동": 9525,
      "위반": 9526,
      "적극": 9527,
      "청원을": 9528,
      "싶은": 9529,
      "의미": 9530,
      "##비가": 9531,
      "보니": 9532,
      "수많은": 9533,
      "업체": 9534,
      "동일": 9535,
      "어떠": 9536,
      "종교": 9537,
      "##듭니다": 9538,
      "그래도": 9539,
      "손해": 9540,
      "##르는": 9541,
      "투기": 9542,
      "##지막": 9543,
      "조직": 9544,
      "상장": 9545,
      "된다고": 9546,
      "정치인": 9547,
      "거주": 9548,
      "안타": 9549,
      "시간이": 9550,
      "생각해": 9551,
      "경기도": 9552,
      "프로": 9553,
      "##지에": 9554,
      "##점을": 9555,
      "교사": 9556,
      "##보호": 9557,
      "높은": 9558,
      "위배": 9559,
      "법이": 9560,
      "집단": 9561,
      "건물": 9562,
      "발표": 9563,
      "비리": 9564,
      "쉽게": 9565,
      "##서에": 9566,
      "##하여야": 9567,
      "내용을": 9568,
      "##소리": 9569,
      "##나는": 9570,
      "세금으로": 9571,
      "진술": 9572,
      "제안": 9573,
      "##자기": 9574,
      "나라에서": 9575,
      "그게": 9576,
      "상대": 9577,
      "아닐": 9578,
      "##산을": 9579,
      "군대": 9580,
      "주십시오": 9581,
      "필요합니다": 9582,
      "국제": 9583,
      "##있고": 9584,
      "구조": 9585,
      "살인": 9586,
      "##봅니다": 9587,
      "올립니다": 9588,
      "~~": 9589,
      "국토": 9590,
      "불안": 9591,
      "##환경": 9592,
      "사진": 9593,
      "##보는": 9594,
      "나아": 9595,
      "사항": 9596,
      "있으면": 9597,
      "강남": 9598,
      "가까": 9599,
      "국정": 9600,
      "##셨습니다": 9601,
      "나온": 9602,
      "##아이": 9603,
      "고려": 9604,
      "조선": 9605,
      "##계를": 9606,
      "자유한국당": 9607,
      "##었는데": 9608,
      "명예": 9609,
      "스트": 9610,
      "##하는게": 9611,
      "처벌을": 9612,
      "마지막": 9613,
      "##수는": 9614,
      "##달라고": 9615,
      "##ews": 9616,
      "##발전": 9617,
      "점점": 9618,
      "##청에": 9619,
      "21": 9620,
      "만들고": 9621,
      "조건": 9622,
      "최소한": 9623,
      "##나라는": 9624,
      "도입": 9625,
      "새로운": 9626,
      "거짓말": 9627,
      "혜택을": 9628,
      "협박": 9629,
      "##화가": 9630,
      "신용": 9631,
      "##할때": 9632,
      "형사": 9633,
      "##주도": 9634,
      "##개발": 9635,
      "사유": 9636,
      "##레스": 9637,
      "포기": 9638,
      "##천만원": 9639,
      "이유가": 9640,
      "##사에": 9641,
      "가짜": 9642,
      "운동": 9643,
      "##음을": 9644,
      "부정": 9645,
      "##줘야": 9646,
      "유치원": 9647,
      "않으면": 9648,
      "##들만": 9649,
      "##바이": 9650,
      "전기": 9651,
      "전화를": 9652,
      "7월": 9653,
      "##차별": 9654,
      "금지": 9655,
      "수십": 9656,
      "주식": 9657,
      "##부에": 9658,
      "대통령이": 9659,
      "이하": 9660,
      "참고": 9661,
      "##공단": 9662,
      "국민청": 9663,
      "살려": 9664,
      "##워서": 9665,
      "단순": 9666,
      "카드": 9667,
      "국가의": 9668,
      "보도": 9669,
      "알바": 9670,
      "현대": 9671,
      "##만으로": 9672,
      "##국가": 9673,
      "##제가": 9674,
      "도움이": 9675,
      "보건": 9676,
      "인구": 9677,
      "받았습니다": 9678,
      "##장애": 9679,
      "##과의": 9680,
      "인천": 9681,
      "##하였고": 9682,
      "입주": 9683,
      "믿고": 9684,
      "크게": 9685,
      "자활": 9686,
      "##나서": 9687,
      "주시기": 9688,
      "계획": 9689,
      "맞는": 9690,
      "침해": 9691,
      "어린이집": 9692,
      "실시": 9693,
      "##겁니까": 9694,
      "민원을": 9695,
      "드립니다": 9696,
      "##마디": 9697,
      "오래": 9698,
      "##에만": 9699,
      "##평등": 9700,
      "##무를": 9701,
      "방문": 9702,
      "##증을": 9703,
      "##급을": 9704,
      "거부": 9705,
      "공사": 9706,
      "간곡": 9707,
      "납부": 9708,
      "소리": 9709,
      "##려서": 9710,
      "게임": 9711,
      "그것도": 9712,
      "평가": 9713,
      "양심": 9714,
      "그러면": 9715,
      "걱정": 9716,
      "수입": 9717,
      "##일보": 9718,
      "##년에": 9719,
      "아니다": 9720,
      "벌금": 9721,
      "이라고": 9722,
      "##이지만": 9723,
      "##든지": 9724,
      "통신": 9725,
      "페미": 9726,
      "벌어": 9727,
      "##정에서": 9728,
      "##을수": 9729,
      "##하다는": 9730,
      "##사무": 9731,
      "##대의": 9732,
      "이라는": 9733,
      "되어야": 9734,
      "전에": 9735,
      "##비용": 9736,
      "실업": 9737,
      "##사항": 9738,
      "##겠죠": 9739,
      "##진국": 9740,
      "23": 9741,
      "않았습니다": 9742,
      "자식": 9743,
      "있지": 9744,
      "말로": 9745,
      "상담": 9746,
      "위협": 9747,
      "어떠한": 9748,
      "##물이": 9749,
      "있으": 9750,
      "최고": 9751,
      "##자인": 9752,
      "11월": 9753,
      "반복": 9754,
      "전쟁": 9755,
      "##적이고": 9756,
      "##정권": 9757,
      "생산": 9758,
      "##이기": 9759,
      "표현": 9760,
      "##상황": 9761,
      "탄핵": 9762,
      "통과": 9763,
      "##로부터": 9764,
      "이것은": 9765,
      "갑자기": 9766,
      "영향": 9767,
      "아무것도": 9768,
      "도시": 9769,
      "##신청": 9770,
      "##법이": 9771,
      "2015": 9772,
      "모두가": 9773,
      "건축": 9774,
      "부과": 9775,
      "소유": 9776,
      "남북": 9777,
      "없었습니다": 9778,
      "들어가": 9779,
      "분들이": 9780,
      ".....": 9781,
      "만큼": 9782,
      "##소에": 9783,
      "##안이": 9784,
      "기대": 9785,
      "내고": 9786,
      "##자금": 9787,
      "##분을": 9788,
      "##포츠": 9789,
      "힘들어": 9790,
      "##11": 9791,
      "##십니다": 9792,
      "근거": 9793,
      "##은행": 9794,
      "경우가": 9795,
      "바꿔": 9796,
      "전체": 9797,
      "느끼": 9798,
      "요양": 9799,
      "##관련": 9800,
      "쓰레기": 9801,
      "상승": 9802,
      "목숨": 9803,
      "##품을": 9804,
      "##들고": 9805,
      "##년이": 9806,
      "##던지": 9807,
      "##원으로": 9808,
      "##감을": 9809,
      "##하는지": 9810,
      "얼굴": 9811,
      "부당": 9812,
      "##시장": 9813,
      "##로서": 9814,
      "##in": 9815,
      "아이들이": 9816,
      "70": 9817,
      "그에": 9818,
      "##있는데": 9819,
      "##on": 9820,
      "규정": 9821,
      "제기": 9822,
      "검색": 9823,
      "지급을": 9824,
      "수급": 9825,
      "##하루": 9826,
      "##음에도": 9827,
      "##구나": 9828,
      "##선을": 9829,
      "시장": 9830,
      "##그램": 9831,
      "합니까": 9832,
      "##이니": 9833,
      "##라리": 9834,
      "##방송": 9835,
      "나라의": 9836,
      "##한번": 9837,
      "평등": 9838,
      "화가": 9839,
      "영업": 9840,
      "않게": 9841,
      "적은": 9842,
      "##려야": 9843,
      "안내": 9844,
      "존경": 9845,
      "##하십니까": 9846,
      "공산": 9847,
      "누군": 9848,
      "##부장": 9849,
      "만드는": 9850,
      "원래": 9851,
      "억울한": 9852,
      "##시를": 9853,
      "아니라고": 9854,
      "모르고": 9855,
      "증가": 9856,
      "##의로": 9857,
      "힘들게": 9858,
      "엄청난": 9859,
      "그리": 9860,
      "요건에": 9861,
      "있다면": 9862,
      "##BS": 9863,
      "간곡히": 9864,
      "##드리": 9865,
      "##상태": 9866,
      "공직": 9867,
      "궁금": 9868,
      "일자": 9869,
      "##것이다": 9870,
      "www": 9871,
      "듣고": 9872,
      "##율이": 9873,
      "알게": 9874,
      "##하시고": 9875,
      "간절": 9876,
      "##위에": 9877,
      "심각한": 9878,
      "아버지": 9879,
      "사례": 9880,
      "피해자가": 9881,
      "장관": 9882,
      "집에": 9883,
      "##여서": 9884,
      "외교": 9885,
      "##구를": 9886,
      "보유": 9887,
      "많아": 9888,
      "노무": 9889,
      "평생": 9890,
      "관리자에": 9891,
      "시급": 9892,
      "게시물의": 9893,
      "##신을": 9894,
      "생각됩니다": 9895,
      "22": 9896,
      "국민에게": 9897,
      "국가에서": 9898,
      "위배되어": 9899,
      "나와": 9900,
      "대신": 9901,
      "의심": 9902,
      "##리한": 9903,
      "우리의": 9904,
      "수정되었습니다": 9905,
      "경영": 9906,
      "##보를": 9907,
      "들었습니다": 9908,
      "실제": 9909,
      "현장": 9910,
      "##세금": 9911,
      "##30": 9912,
      "달라": 9913,
      "역사": 9914,
      "저와": 9915,
      "자신이": 9916,
      "##자들을": 9917,
      "아닌가": 9918,
      "가슴": 9919,
      "단체": 9920,
      "두고": 9921,
      "집을": 9922,
      "효과": 9923,
      "##하겠습니다": 9924,
      "##50": 9925,
      "나타": 9926,
      "약속": 9927,
      "차라리": 9928,
      "##산업": 9929,
      "원칙": 9930,
      "##폭력": 9931,
      "장기": 9932,
      "##을까요": 9933,
      "##시면": 9934,
      "##으로는": 9935,
      "여론": 9936,
      "이동": 9937,
      "대법원": 9938,
      "##받아": 9939,
      "##셔야": 9940,
      "제2": 9941,
      "있으니": 9942,
      "국민들을": 9943,
      "괴롭": 9944,
      "마찬": 9945,
      "노후": 9946,
      "##지면": 9947,
      "아침": 9948,
      "##결과": 9949,
      "권리": 9950,
      "##시키는": 9951,
      "news": 9952,
      "기억": 9953,
      "듭니다": 9954,
      "##자도": 9955,
      "본인이": 9956,
      "그저": 9957,
      "합의": 9958,
      "손혜원": 9959,
      "혹은": 9960,
      "나쁜": 9961,
      "저희는": 9962,
      "성장": 9963,
      "소액": 9964,
      "##하려": 9965,
      "##르면": 9966,
      "하는지": 9967,
      "공매": 9968,
      "아동": 9969,
      "##더라": 9970,
      "시간을": 9971,
      "실제로": 9972,
      "흡연": 9973,
      "##직원": 9974,
      "솔직": 9975,
      "시청": 9976,
      "##었던": 9977,
      "##단을": 9978,
      "공급": 9979,
      "2차": 9980,
      "##매매": 9981,
      "스트레스": 9982,
      "기록": 9983,
      "자리": 9984,
      "광주": 9985,
      "비판": 9986,
      "매년": 9987,
      "주십시요": 9988,
      "##주십시오": 9989,
      "##성화": 9990,
      "권리를": 9991,
      "중앙": 9992,
      "다양": 9993,
      "이것이": 9994,
      "폭력": 9995,
      "##상의": 9996,
      "우리나라는": 9997,
      "군인": 9998,
      "기타": 9999,
      "##곳에": 10000,
      "늘어": 10001,
      "민족": 10002,
      "어쩔": 10003,
      "##수록": 10004,
      "아는": 10005,
      "##세가": 10006,
      "##내는": 10007,
      "사건이": 10008,
      "##--------------------------------": 10009,
      "대학교": 10010,
      "##갑니다": 10011,
      "80": 10012,
      "남녀": 10013,
      "정도로": 10014,
      "고민": 10015,
      "희생": 10016,
      "안정": 10017,
      "힘이": 10018,
      "놓고": 10019,
      "인하여": 10020,
      "지정": 10021,
      "특정": 10022,
      "##받은": 10023,
      "9월": 10024,
      "##교통": 10025,
      "##!!!!!!!!!!!!!!!!": 10026,
      "이나라": 10027,
      "사건을": 10028,
      "도움을": 10029,
      "온갖": 10030,
      "구입": 10031,
      "##님이": 10032,
      "##중한": 10033,
      "##릅니다": 10034,
      "##하지않": 10035,
      "가고": 10036,
      "##아닌": 10037,
      "제일": 10038,
      "조치": 10039,
      "##사람이": 10040,
      "##분들이": 10041,
      "마찬가지": 10042,
      "반영": 10043,
      "##심으로": 10044,
      "##자고": 10045,
      "##했다는": 10046,
      "자료": 10047,
      "##상공": 10048,
      "##근로": 10049,
      "명백": 10050,
      "않도록": 10051,
      "##두고": 10052,
      "음주운전": 10053,
      "##두순": 10054,
      "의혹": 10055,
      "초등학교": 10056,
      "##달에": 10057,
      "처럼": 10058,
      "졸업": 10059,
      "##세대": 10060,
      "하루하루": 10061,
      "변호사": 10062,
      "자체": 10063,
      "관광": 10064,
      "일은": 10065,
      "잡아": 10066,
      "노조": 10067,
      "수행": 10068,
      "##자체": 10069,
      "가능한": 10070,
      "이명": 10071,
      "##리면": 10072,
      "##했지만": 10073,
      "##점이": 10074,
      "바람": 10075,
      "이것": 10076,
      "불가능": 10077,
      "넘는": 10078,
      "정작": 10079,
      "평화": 10080,
      "##간의": 10081,
      "나오는": 10082,
      "원하는": 10083,
      "조두순": 10084,
      "##신고": 10085,
      "##조합": 10086,
      "반려": 10087,
      "죽어": 10088,
      "국민들에게": 10089,
      "##글을": 10090,
      "카풀": 10091,
      "##익을": 10092,
      "##라서": 10093,
      "##걸로": 10094,
      "확대": 10095,
      "##소가": 10096,
      "##금액": 10097,
      "작년": 10098,
      "제시": 10099,
      "살기": 10100,
      "한다면": 10101,
      "일하고": 10102,
      "출근": 10103,
      "##나마": 10104,
      "##가야": 10105,
      "##ea": 10106,
      "했고": 10107,
      "##자들에게": 10108,
      "##번째": 10109,
      "진실": 10110,
      "##시가": 10111,
      "경기": 10112,
      "한마디": 10113,
      "1억": 10114,
      "올바": 10115,
      "##장과": 10116,
      "##대출": 10117,
      "모르겠습니다": 10118,
      "##처벌": 10119,
      "##인정": 10120,
      "말입니다": 10121,
      "##스크": 10122,
      "##년을": 10123,
      "##장으로": 10124,
      "인지": 10125,
      "읽어": 10126,
      "주거": 10127,
      "고등학교": 10128,
      "상당": 10129,
      "스포츠": 10130,
      "##랜드": 10131,
      "병역": 10132,
      "이명박": 10133,
      "쓰고": 10134,
      "의문": 10135,
      "##하려고": 10136,
      "##공자": 10137,
      "##오고": 10138,
      "마치": 10139,
      "받게": 10140,
      "##1일": 10141,
      "빠른": 10142,
      "세월": 10143,
      "대응": 10144,
      "자본": 10145,
      "징역": 10146,
      "##없습니다": 10147,
      "##요일": 10148,
      "##ㅡㅡ": 10149,
      "##롭게": 10150,
      "26": 10151,
      "공동": 10152,
      "##수로": 10153,
      "신속": 10154,
      "##회를": 10155,
      "것이고": 10156,
      "못할": 10157,
      "문의": 10158,
      "분노": 10159,
      "연구": 10160,
      "##만한": 10161,
      "##청산": 10162,
      "솔직히": 10163,
      "발언": 10164,
      "아프": 10165,
      "토지": 10166,
      "이혼": 10167,
      "언제까지": 10168,
      "모른": 10169,
      "##아파트": 10170,
      "아예": 10171,
      "조치를": 10172,
      "우리나라의": 10173,
      "충분히": 10174,
      "공공기관": 10175,
      "이사": 10176,
      "##이자": 10177,
      "##실에": 10178,
      "답변을": 10179,
      "김경": 10180,
      "구매": 10181,
      "분들": 10182,
      "강력한": 10183,
      "소방": 10184,
      "제도를": 10185,
      "##인들이": 10186,
      "##답니다": 10187,
      "경험": 10188,
      "보수": 10189,
      "안보": 10190,
      "항공": 10191,
      "있던": 10192,
      "막아": 10193,
      "피고": 10194,
      "##수사": 10195,
      "##태를": 10196,
      "들고": 10197,
      "##부로": 10198,
      ".(": 10199,
      "이거": 10200,
      "##아니라": 10201,
      "##안에": 10202,
      "선진국": 10203,
      "##뉴스": 10204,
      "##된다고": 10205,
      ",,,": 10206,
      "상황에서": 10207,
      "무기": 10208,
      "방치": 10209,
      "법적": 10210,
      "##등록": 10211,
      "조정": 10212,
      "친일": 10213,
      "##수있는": 10214,
      "있기": 10215,
      "대한민국이": 10216,
      "대한민국은": 10217,
      "1인": 10218,
      "아마": 10219,
      "##주지": 10220,
      "##부에서": 10221,
      "##에게는": 10222,
      "예를": 10223,
      "##사이트": 10224,
      "##마저": 10225,
      "나왔": 10226,
      "5년": 10227,
      "새벽": 10228,
      "대해서는": 10229,
      "00": 10230,
      "직무": 10231,
      "그들의": 10232,
      "조사를": 10233,
      "##거라": 10234,
      "##!!!": 10235,
      "##차례": 10236,
      "신뢰": 10237,
      "광고": 10238,
      "결론": 10239,
      "한사람": 10240,
      "상황입니다": 10241,
      "대형": 10242,
      "받으": 10243,
      "##시아": 10244,
      "성범죄": 10245,
      "이재": 10246,
      "실질": 10247,
      "개인의": 10248,
      "성공": 10249,
      "저런": 10250,
      "감독": 10251,
      "##주주": 10252,
      "##명한": 10253,
      "경제가": 10254,
      "성실": 10255,
      "##지않고": 10256,
      "갖고": 10257,
      "취소": 10258,
      "하늘": 10259,
      "비롯": 10260,
      "이야기를": 10261,
      "##검찰": 10262,
      "가게": 10263,
      "상관": 10264,
      "##세로": 10265,
      "아이들": 10266,
      "똑같은": 10267,
      "##대는": 10268,
      "상황을": 10269,
      "번호": 10270,
      "##보다는": 10271,
      "##리기": 10272,
      "##것으로": 10273,
      "상장폐": 10274,
      "등에": 10275,
      "힘을": 10276,
      "##느냐": 10277,
      "##감독": 10278,
      "##간에": 10279,
      "##재를": 10280,
      "##원도": 10281,
      "##적을": 10282,
      "주시길": 10283,
      "생기": 10284,
      "훈련": 10285,
      "##상으로": 10286,
      "##차량": 10287,
      "경찰서": 10288,
      "정책이": 10289,
      "관심": 10290,
      "##이버": 10291,
      "여행": 10292,
      "청구": 10293,
      "##급이": 10294,
      "늘어나": 10295,
      "무능": 10296,
      "##서비스": 10297,
      "##졌습니다": 10298,
      "서울시": 10299,
      "내년": 10300,
      "단지": 10301,
      "창출": 10302,
      "첨부": 10303,
      "건강보험": 10304,
      "가야": 10305,
      "##답변": 10306,
      "##중인": 10307,
      "성폭행": 10308,
      "뿐만": 10309,
      "양육": 10310,
      "파악": 10311,
      "와서": 10312,
      "##안전": 10313,
      "오후": 10314,
      "지도": 10315,
      "##움을": 10316,
      "당한": 10317,
      "소속": 10318,
      "##시킨": 10319,
      "##가며": 10320,
      "##18": 10321,
      "##통신": 10322,
      "여성가족": 10323,
      "27": 10324,
      "무너": 10325,
      "아빠": 10326,
      "행사": 10327,
      "##약을": 10328,
      "당하고": 10329,
      "대다": 10330,
      "말하는": 10331,
      "명확": 10332,
      "무서": 10333,
      "입학": 10334,
      "사람들을": 10335,
      "일단": 10336,
      "평균": 10337,
      "하다": 10338,
      "##공개": 10339,
      "여기서": 10340,
      "것에": 10341,
      "당사": 10342,
      "##옵니다": 10343,
      "생각하고": 10344,
      "의한": 10345,
      "##인과": 10346,
      "##먹는": 10347,
      "##지게": 10348,
      "##an": 10349,
      "호소": 10350,
      "생각하는": 10351,
      "지금의": 10352,
      "누구나": 10353,
      "안하고": 10354,
      "유튜": 10355,
      "##신문": 10356,
      "그래야": 10357,
      "2016년": 10358,
      "입원": 10359,
      "##????": 10360,
      "##필요": 10361,
      "아이가": 10362,
      "삭제": 10363,
      "수수": 10364,
      "##격을": 10365,
      "전자": 10366,
      "##만명": 10367,
      "##한데": 10368,
      "무고": 10369,
      "##생이": 10370,
      "##카드": 10371,
      "낭비": 10372,
      "##경우": 10373,
      "완전": 10374,
      "일방": 10375,
      "대한민국을": 10376,
      "28": 10377,
      "안된다고": 10378,
      "공정한": 10379,
      "수도권": 10380,
      "우려": 10381,
      "##의가": 10382,
      "##관은": 10383,
      "##져서": 10384,
      "10월": 10385,
      "##시간을": 10386,
      "그럴": 10387,
      "삶을": 10388,
      "카카": 10389,
      "##억원": 10390,
      "##잖아요": 10391,
      "입장": 10392,
      "##or": 10393,
      "##겠지요": 10394,
      "##텐데": 10395,
      "했던": 10396,
      "##건설": 10397,
      "내부": 10398,
      "쓰는": 10399,
      "투표": 10400,
      "방법이": 10401,
      "최종": 10402,
      "##끼리": 10403,
      "만나": 10404,
      "##로는": 10405,
      "##인에게": 10406,
      "##이터": 10407,
      "문재인대통령": 10408,
      "하였고": 10409,
      "응급": 10410,
      "##*-*-*-*-": 10411,
      "이젠": 10412,
      "##로인": 10413,
      "##했으면": 10414,
      "##직을": 10415,
      "##납니다": 10416,
      "##좋은": 10417,
      "##TX": 10418,
      "사실이": 10419,
      "중에": 10420,
      "##한당": 10421,
      "성매매": 10422,
      "있습니까": 10423,
      "##에선": 10424,
      "등이": 10425,
      "돌아가": 10426,
      "한국의": 10427,
      "에게": 10428,
      "##는가": 10429,
      "##벌이": 10430,
      "##시험": 10431,
      "봉사": 10432,
      "성인": 10433,
      "역할": 10434,
      "kr": 10435,
      "뭐가": 10436,
      "불과": 10437,
      "휴대": 10438,
      "##성에": 10439,
      "##av": 10440,
      "드러": 10441,
      "신체": 10442,
      "의무를": 10443,
      "일자리를": 10444,
      "퇴근": 10445,
      "##마트": 10446,
      "법으로": 10447,
      "자주": 10448,
      "집행": 10449,
      "##다며": 10450,
      "##에요": 10451,
      "##근무": 10452,
      "사람입니다": 10453,
      "기회를": 10454,
      "마시고": 10455,
      "##이든": 10456,
      "고통을": 10457,
      "인식": 10458,
      "집중": 10459,
      "부끄": 10460,
      "실행": 10461,
      "거기": 10462,
      "##ou": 10463,
      "##하는거": 10464,
      "도저히": 10465,
      "##봐야": 10466,
      "근본": 10467,
      "다들": 10468,
      "생명": 10469,
      "##자료": 10470,
      "그걸": 10471,
      "##구가": 10472,
      "##차가": 10473,
      "능력": 10474,
      "줄여": 10475,
      "##는데도": 10476,
      "나머": 10477,
      "비교": 10478,
      "상처": 10479,
      "저녁": 10480,
      "##해보": 10481,
      "똑같이": 10482,
      "##학년": 10483,
      "사람들에게": 10484,
      "2월": 10485,
      "300": 10486,
      "3개월": 10487,
      "불러": 10488,
      "카카오": 10489,
      "주지": 10490,
      "##출산": 10491,
      "철저": 10492,
      "##활동": 10493,
      "##하고자": 10494,
      "내는": 10495,
      "운행": 10496,
      "조국": 10497,
      "##시민": 10498,
      "##검사": 10499,
      "지원을": 10500,
      "이번에": 10501,
      "분명히": 10502,
      "배우": 10503,
      "##인으로": 10504,
      "##제한": 10505,
      "이상의": 10506,
      "수당": 10507,
      "어쩌": 10508,
      "언급": 10509,
      "제1": 10510,
      "살아야": 10511,
      "적폐청산": 10512,
      "또다": 10513,
      "##기술": 10514,
      "##주십시요": 10515,
      "##대상": 10516,
      "대리": 10517,
      "동네": 10518,
      "하는게": 10519,
      "##해야합니다": 10520,
      "선수": 10521,
      "대우": 10522,
      "그나마": 10523,
      "대특": 10524,
      "하던": 10525,
      "##또한": 10526,
      "구성": 10527,
      "진정한": 10528,
      "했다고": 10529,
      "대특인": 10530,
      "네이버": 10531,
      "지자체": 10532,
      "왔습니다": 10533,
      "소통": 10534,
      "##등학생": 10535,
      "마땅": 10536,
      "자체가": 10537,
      "##있다": 10538,
      "그것이": 10539,
      "다름": 10540,
      "머리": 10541,
      "하세요": 10542,
      "말아": 10543,
      "##씨는": 10544,
      "##히고": 10545,
      "지하철": 10546,
      "위치": 10547,
      "강제로": 10548,
      "##까지도": 10549,
      "##액을": 10550,
      "##께서는": 10551,
      "##더라구요": 10552,
      "비례": 10553,
      "입법": 10554,
      "즉시": 10555,
      "지불": 10556,
      "사람도": 10557,
      "##들로": 10558,
      "목포": 10559,
      "편의": 10560,
      "훨씬": 10561,
      "##해를": 10562,
      "강요": 10563,
      "개입": 10564,
      "##것같": 10565,
      "##정으로": 10566,
      "했지만": 10567,
      "##받지": 10568,
      "삼성바이": 10569,
      "##소에서": 10570,
      "않습니까": 10571,
      "활용": 10572,
      "##주기": 10573,
      "해고": 10574,
      "##수석": 10575,
      "##서가": 10576,
      "##정입니다": 10577,
      "아이들을": 10578,
      "선고": 10579,
      "않는다": 10580,
      "사고가": 10581,
      "겨우": 10582,
      "외면": 10583,
      "자한당": 10584,
      "범죄를": 10585,
      "방법을": 10586,
      "못해": 10587,
      "물건": 10588,
      "연결": 10589,
      "##다운": 10590,
      "##았다": 10591,
      "몰아": 10592,
      "##일은": 10593,
      "사람의": 10594,
      "##니까요": 10595,
      "제3": 10596,
      "##건데": 10597,
      "20대": 10598,
      "알지": 10599,
      "주휴": 10600,
      "돈으로": 10601,
      "면접": 10602,
      "##사로": 10603,
      "곳이": 10604,
      "권한": 10605,
      "기자": 10606,
      "대비": 10607,
      "자세": 10608,
      "##만에": 10609,
      "그들이": 10610,
      "법적으로": 10611,
      "사립": 10612,
      "##씨가": 10613,
      "그러니": 10614,
      "이익을": 10615,
      "##구역": 10616,
      "경찰이": 10617,
      "공익": 10618,
      "합법": 10619,
      "##실에서": 10620,
      "##상에": 10621,
      "##등의": 10622,
      "경제적": 10623,
      "##========": 10624,
      "묻고": 10625,
      "##님들": 10626,
      "##생활을": 10627,
      "TV": 10628,
      "풀어": 10629,
      "##하나요": 10630,
      "##없다": 10631,
      "남아": 10632,
      "반성": 10633,
      "보통": 10634,
      "##하네요": 10635,
      "신고를": 10636,
      "##스럽게": 10637,
      "예비": 10638,
      "철저히": 10639,
      "세입": 10640,
      "확보": 10641,
      "6개월": 10642,
      "일으": 10643,
      "다니는": 10644,
      "가르": 10645,
      "분야": 10646,
      "달라고": 10647,
      "지시": 10648,
      "##비는": 10649,
      "조차": 10650,
      "타고": 10651,
      "##으로부터": 10652,
      "대통령은": 10653,
      "다양한": 10654,
      "논란": 10655,
      "중단": 10656,
      "나올": 10657,
      "다녀": 10658,
      "다르": 10659,
      "않으": 10660,
      "필요가": 10661,
      "이자": 10662,
      "이와": 10663,
      "다만": 10664,
      "이기": 10665,
      "하시는": 10666,
      "대책을": 10667,
      "애국": 10668,
      "상황에": 10669,
      "교육을": 10670,
      "수사를": 10671,
      "허용": 10672,
      "##하에": 10673,
      "통해서": 10674,
      "##수급": 10675,
      "##양이": 10676,
      "소득인정": 10677,
      "대중": 10678,
      "##en": 10679,
      "것인지": 10680,
      "보조": 10681,
      "진료": 10682,
      "##스러운": 10683,
      "##란다": 10684,
      "##세력": 10685,
      "##리로": 10686,
      "프로그램": 10687,
      "36": 10688,
      "상식": 10689,
      "화장": 10690,
      "##도에": 10691,
      "##건강": 10692,
      "##버린": 10693,
      "군사": 10694,
      "없는데": 10695,
      "있으나": 10696,
      "공유": 10697,
      "된다는": 10698,
      "예전": 10699,
      "하자": 10700,
      "##드폰": 10701,
      "##율을": 10702,
      "##TV": 10703,
      "병원에": 10704,
      "90": 10705,
      "복무": 10706,
      "##연금을": 10707,
      "199": 10708,
      "등으로": 10709,
      "##자녀": 10710,
      "##받을": 10711,
      "##OO": 10712,
      "2014": 10713,
      "관련된": 10714,
      "29": 10715,
      "여전히": 10716,
      "##어진": 10717,
      "##회의": 10718,
      "##2년": 10719,
      "##점에서": 10720,
      "##BC": 10721,
      "상대로": 10722,
      "야당": 10723,
      "회계": 10724,
      "안녕하십니까": 10725,
      "겨울": 10726,
      "하겠습니다": 10727,
      "겁니까": 10728,
      "인건": 10729,
      "적어도": 10730,
      "지적": 10731,
      "힘듭니다": 10732,
      "##책임": 10733,
      "##비로": 10734,
      "간절히": 10735,
      "교수": 10736,
      "노예": 10737,
      "목적": 10738,
      "하셨": 10739,
      "##금으로": 10740,
      "##말로": 10741,
      "기초연금": 10742,
      "매출": 10743,
      "법무": 10744,
      "최대": 10745,
      "##하다가": 10746,
      "##하려는": 10747,
      "기사를": 10748,
      "살펴": 10749,
      "이슈": 10750,
      "##있게": 10751,
      "##절한": 10752,
      "대통령의": 10753,
      "들이": 10754,
      "연말": 10755,
      "일정": 10756,
      "##지않는": 10757,
      "##aver": 10758,
      "법원": 10759,
      "식으로": 10760,
      "아들": 10761,
      "##년전": 10762,
      "##후에": 10763,
      "##기관의": 10764,
      ".\"": 10765,
      "심사": 10766,
      "##일까요": 10767,
      "##역시": 10768,
      "불합": 10769,
      "저출산": 10770,
      "하더군요": 10771,
      "##인들": 10772,
      "연예": 10773,
      "예상": 10774,
      "특수": 10775,
      "나중에": 10776,
      "##권이": 10777,
      "소상공": 10778,
      "위원": 10779,
      "장난": 10780,
      "000원": 10781,
      "방향": 10782,
      "신문": 10783,
      "작업": 10784,
      "학부모": 10785,
      "##트남": 10786,
      "##성과": 10787,
      "##운영": 10788,
      "##이유": 10789,
      "##검찰청": 10790,
      "동시에": 10791,
      "##놓은": 10792,
      "##감이": 10793,
      "대출을": 10794,
      "존경하는": 10795,
      "계산": 10796,
      "통일": 10797,
      "후에": 10798,
      "##용이": 10799,
      "사람들의": 10800,
      "자신들의": 10801,
      "생계급여를": 10802,
      "비슷": 10803,
      "##기만": 10804,
      "##리아": 10805,
      "마음이": 10806,
      "그렇다면": 10807,
      "페미니": 10808,
      "목적으로": 10809,
      "빠져": 10810,
      "##리며": 10811,
      "##뿐만": 10812,
      "여러가지": 10813,
      "가치": 10814,
      "두려": 10815,
      "적이": 10816,
      "해보": 10817,
      "마음에": 10818,
      "체육": 10819,
      "##바랍니다": 10820,
      "##규모": 10821,
      "이상한": 10822,
      "##관을": 10823,
      "##음이": 10824,
      "##le": 10825,
      "##만원을": 10826,
      "한심": 10827,
      "현행": 10828,
      "##계가": 10829,
      "##레이": 10830,
      "필요하다고": 10831,
      "##해주는": 10832,
      "미래를": 10833,
      "대부분의": 10834,
      "공평": 10835,
      "둘째": 10836,
      "보육": 10837,
      "아시": 10838,
      "##라인": 10839,
      "##대학": 10840,
      "##전을": 10841,
      "삼성바이오": 10842,
      "선정": 10843,
      "움직": 10844,
      "일제": 10845,
      "허가": 10846,
      "##리게": 10847,
      "같다": 10848,
      "뉴스를": 10849,
      "500": 10850,
      "미리": 10851,
      "뿐입니다": 10852,
      "시달": 10853,
      "##계획": 10854,
      "현실입니다": 10855,
      "의견을": 10856,
      "없도록": 10857,
      "평범": 10858,
      "##하셨": 10859,
      "모습을": 10860,
      "일도": 10861,
      "통합": 10862,
      "##증이": 10863,
      "##속에": 10864,
      "##투자": 10865,
      "민원답변": 10866,
      "올바른": 10867,
      "일입니다": 10868,
      "핸드폰": 10869,
      "홍보": 10870,
      "##소송": 10871,
      "##3년": 10872,
      "개인정보": 10873,
      "불이": 10874,
      "저질": 10875,
      "하나요": 10876,
      "혹시": 10877,
      "##어를": 10878,
      "##일날": 10879,
      "##주시고": 10880,
      "사실상": 10881,
      "개념": 10882,
      "그들은": 10883,
      "그것을": 10884,
      "##과는": 10885,
      "##경찰서": 10886,
      "##도는": 10887,
      "보입니다": 10888,
      "육아": 10889,
      "나라는": 10890,
      "6월": 10891,
      "naver": 10892,
      "것이라고": 10893,
      "불공": 10894,
      "##시대": 10895,
      "##스를": 10896,
      "판결을": 10897,
      "이라": 10898,
      "통화": 10899,
      "##이었습니다": 10900,
      "따로": 10901,
      "비해": 10902,
      "안되고": 10903,
      "자꾸": 10904,
      "요청합니다": 10905,
      "그렇다고": 10906,
      "미친": 10907,
      "방해": 10908,
      "##지와": 10909,
      "##구조": 10910,
      "##유치": 10911,
      "##했을": 10912,
      "##평가": 10913,
      "하지않": 10914,
      "##주시길": 10915,
      "어렵게": 10916,
      "내용은": 10917,
      "통하여": 10918,
      "##어가": 10919,
      "##이로": 10920,
      "있을까요": 10921,
      "과정에서": 10922,
      "월세": 10923,
      "##제는": 10924,
      "업무를": 10925,
      "주휴수당": 10926,
      "너무나도": 10927,
      "신분": 10928,
      "종사": 10929,
      "하락": 10930,
      "사용하는": 10931,
      "##금은": 10932,
      "##래도": 10933,
      "도둑": 10934,
      "정해": 10935,
      "##는다": 10936,
      "##쳐서": 10937,
      "위해서는": 10938,
      "지속적으로": 10939,
      "가까운": 10940,
      "생겨": 10941,
      "안타까": 10942,
      "주시고": 10943,
      "##었다고": 10944,
      "##소는": 10945,
      "소액주주": 10946,
      "##부와": 10947,
      "##겠네요": 10948,
      "본인의": 10949,
      "##하라는": 10950,
      "010": 10951,
      "대처": 10952,
      "무죄": 10953,
      "박탈": 10954,
      "아님": 10955,
[...]
